<unk>	0
<s>	0
</s>	0
in	-0
er	-1
▁t	-2
▁p	-3
en	-4
tr	-5
▁S	-6
re	-7
at	-8
ing	-9
ent	-10
on	-11
ub	-12
▁s	-13
▁=	-14
ic	-15
tring	-16
ri	-17
ct	-18
▁{	-19
""	-20
▁th	-21
ubl	-22
et	-23
or	-24
is	-25
()	-26
▁String	-27
▁n	-28
ublic	-29
al	-30
▁m	-31
▁public	-32
▁v	-33
ate	-34
id	-35
ect	-36
int	-37
vent	-38
▁c	-39
▁*	-40
▁re	-41
am	-42
riv	-43
an	-44
el	-45
es	-46
ion	-47
ul	-48
▁e	-49
od	-50
▁d	-51
ame	-52
ro	-53
▁/	-54
▁}	-55
Event	-56
);	-57
ut	-58
oid	-59
qu	-60
▁this	-61
▁void	-62
▁the	-63
ar	-64
ment	-65
▁i	-66
▁(	-67
rivate	-68
ed	-69
ur	-70
▁private	-71
▁""	-72
▁o	-73
▁g	-74
▁a	-75
▁int	-76
▁f	-77
cri	-78
▁ne	-79
();	-80
▁C	-81
alu	-82
le	-83
urn	-84
qui	-85
quire	-86
quirement	-87
▁//	-88
▁new	-89
▁to	-90
▁get	-91
ab	-92
alue	-93
pe	-94
ons	-95
Name	-96
turn	-97
String	-98
▁P	-99
ject	-100
ber	-101
▁in	-102
as	-103
Re	-104
▁l	-105
ID	-106
▁+	-107
ubs	-108
▁set	-109
pt	-110
ubscri	-111
▁b	-112
▁T	-113
Mod	-114
em	-115
onstr	-116
▁return	-117
ver	-118
ck	-119
ector	-120
▁V	-121
erver	-122
ad	-123
ull	-124
river	-125
ex	-126
st	-127
▁event	-128
ubscriber	-129
it	-130
▁)	-131
ist	-132
aint	-133
▁pro	-134
ption	-135
▁D	-136
▁for	-137
**	-138
▁w	-139
(""	-140
og	-141
all	-142
▁*/	-143
▁.	-144
▁value	-145
ag	-146
▁null	-147
ce	-148
▁id	-149
To	-150
▁st	-151
if	-152
ol	-153
se	-154
▁A	-155
iz	-156
ine	-157
ken	-158
▁/**	-159
▁name	-160
▁requirement	-161
▁"	-162
▁;	-163
ess	-164
"");	-165
▁mod	-166
onstraint	-167
▁J	-168
un	-169
▁I	-170
ath	-171
▁do	-172
▁if	-173
uble	-174
No	-175
▁Th	-176
▁sh	-177
ha	-178
ve	-179
ext	-180
▁double	-181
▁tr	-182
Model	-183
mp	-184
ery	-185
▁Sy	-186
▁an	-187
List	-188
▁Event	-189
act	-190
ation	-191
ib	-192
onn	-193
ule	-194
rint	-195
ute	-196
able	-197
read	-198
stem	-199
▁Vector	-200
escri	-201
escription	-202
ch	-203
▁out	-204
ra	-205
Sha	-206
tif	-207
▁ch	-208
▁of	-209
▁System	-210
dd	-211
for	-212
form	-213
ction	-214
▁@	-215
▁G	-216
▁R	-217
Lab	-218
ort	-219
Label	-220
▁print	-221
up	-222
rom	-223
ult	-224
ogic	-225
▁printl	-226
Requirement	-227
Bu	-228
▁0	-229
uct	-230
▁The	-231
▁shall	-232
▁println	-233
"";	-234
ain	-235
erform	-236
▁project	-237
cul	-238
fer	-239
ype	-240
▁M	-241
▁qu	-242
Line	-243
▁str	-244
im	-245
▁is	-246
anel	-247
essag	-248
ibute	-249
pecul	-250
ack	-251
one	-252
tribute	-253
Buf	-254
ock	-255
▁cl	-256
Token	-257
Buffer	-258
▁logic	-259
0,	-260
▁r	-261
▁and	-262
▁try	-263
ection	-264
▁events	-265
▁()	-266
mpact	-267
ocket	-268
Vector	-269
▁query	-270
▁driver	-271
onstraints	-272
▁No	-273
▁po	-274
atic	-275
▁res	-276
roject	-277
▁Subscriber	-278
EB	-279
us	-280
vt	-281
urr	-282
▁be	-283
▁ex	-284
Path	-285
Value	-286
ected	-287
urrent	-288
▁model	-289
ication	-290
bc	-291
il	-292
ari	-293
port	-294
▁Name	-295
▁type	-296
▁static	-297
At	-298
ft	-299
ig	-300
ize	-301
ont	-302
Text	-303
ance	-304
aram	-305
▁();	-306
essage	-307
public	-308
▁server	-309
Id	-310
um	-311
▁h	-312
▁j	-313
end	-314
▁);	-315
▁co	-316
anag	-317
cess	-318
izer	-319
Driver	-320
Module	-321
tification	-322
▁subscriber	-323
St	-324
ow	-325
pes	-326
▁bo	-327
Shape	-328
param	-329
▁main	-330
▁result	-331
Description	-332
ec	-333
▁,	-334
ase	-335
eth	-336
ime	-337
▁ID	-338
▁Add	-339
Action	-340
onstruct	-341
peculate	-342
▁StringBuffer	-343
//	-344
▁1	-345
ide	-346
▁0;	-347
bject	-348
ariable	-349
onnection	-350
arg	-351
eam	-352
ethod	-353
▁from	-354
▁method	-355
▁module	-356
Attribute	-357
Tokenizer	-358
erformance	-359
Str	-360
ive	-361
ore	-362
▁it	-363
ener	-364
▁that	-365
▁JLabel	-366
In	-367
ph	-368
pl	-369
ass	-370
ole	-371
raph	-372
▁par	-373
▁sup	-374
▁conn	-375
anager	-376
▁Model	-377
xt	-378
▁E	-379
put	-380
▁us	-381
From	-382
▁Ret	-383
▁add	-384
Panel	-385
olean	-386
▁Return	-387
▁thread	-388
▁boolean	-389
▁eventserver	-390
Qu	-391
ay	-392
ou	-393
▁O	-394
ata	-395
dbc	-396
ial	-397
ind	-398
ork	-399
▁St	-400
▁no	-401
▁un	-402
▁Get	-403
▁has	-404
Query	-405
alues	-406
Report	-407
Server	-408
Shapes	-409
return	-410
▁super	-411
Project	-412
▁Driver	-413
▁impact	-414
▁StringTokenizer	-415
%%	-416
IN	-417
▁W	-418
ang	-419
dex	-420
err	-421
out	-422
▁In	-423
▁on	-424
▁op	-425
▁wh	-426
▁"",	-427
▁evt	-428
▁queryID	-429
▁Requirement	-430
++	-431
Th	-432
ht	-433
ss	-434
th	-435
ane	-436
enu	-437
▁Set	-438
|"");	-439
▁next	-440
▁time	-441
▁token	-442
▁object	-443
▁current	-444
▁message	-445
Subscriber	-446
▁constraint	-447
>>	-448
bs	-449
mb	-450
ue	-451
0,1	-452
emp	-453
ord	-454
ton	-455
Read	-456
Rect	-457
alse	-458
ouse	-459
utton	-460
▁Path	-461
▁list	-462
▁prot	-463
▁temp	-464
▁"""";	-465
erformed	-466
▁Returns	-467
ModulePath	-468
▁thisEvent	-469
$$	-470
Ch	-471
ir	-472
▁B	-473
▁H	-474
▁x	-475
IDE	-476
its	-477
ose	-478
ser	-479
ure	-480
▁em	-481
SIDE	-482
inal	-483
▁err	-484
ialog	-485
umber	-486
▁char	-487
ucture	-488
▁false	-489
▁protected	-490
ubscription	-491
▁Connection	-492
▁performance	-493
&&	-494
0;	-495
IP	-496
Le	-497
▁3	-498
EBT	-499
and	-500
ast	-501
ill	-502
ray	-503
rec	-504
▁==	-505
Left	-506
ible	-507
ight	-508
rame	-509
▁""\	-510
arget	-511
ments	-512
▁Sets	-513
▁cont	-514
▁exec	-515
▁getC	-516
▁true	-517
INSIDE	-518
▁error	-519
EBShape	-520
▁Socket	-521
▁target	-522
onstructor	-523
▁projectName	-524
peculateValue	-525
){	-526
Po	-527
ef	-528
ey	-529
sg	-530
▁y	-531
(){	-532
eck	-533
▁Ar	-534
▁IP	-535
ated	-536
oken	-537
▁ebs	-538
▁equ	-539
indow	-540
▁Text	-541
▁line	-542
▁path	-543
▁will	-544
Reader	-545
Socket	-546
▁Array	-547
▁Label	-548
▁chang	-549
ActionP	-550
▁JPanel	-551
▁Server	-552
▁Thread	-553
▁action	-554
▁manager	-555
▁process	-556
▁AddEvent	-557
▁description	-558
▁Notification	-559
ActionPerformed	-560
Cl	-561
ly	-562
mt	-563
os	-564
pp	-565
▁-	-566
▁8	-567
▁F	-568
Evt	-569
Sel	-570
Vis	-571
ach	-572
erg	-573
pup	-574
ual	-575
unt	-576
▁Cl	-577
(""\	-578
Pane	-579
Side	-580
atch	-581
cast	-582
▁Str	-583
▁com	-584
"""";	-585
▁size	-586
▁stmt	-587
Thread	-588
rocess	-589
▁Token	-590
▁class	-591
▁final	-592
▁setVis	-593
▁Project	-594
▁contain	-595
▁variable	-596
▁ArrayList	-597
ActionEvent	-598
▁AddEventRect	-599
▁driverVector	-600
OD	-601
av	-602
no	-603
▁6	-604
▁7	-605
"",	-606
())	-607
++)	-608
;//	-609
art	-610
ete	-611
ode	-612
tem	-613
▁el	-614
▁sy	-615
▁wa	-616
▁}"	-617
atab	-618
ator	-619
erge	-620
mbol	-621
olor	-622
onse	-623
▁all	-624
▁cre	-625
ative	-626
entif	-627
ponse	-628
▁work	-629
Values	-630
▁index	-631
▁units	-632
atabase	-633
atement	-634
▁parent	-635
▁string	-636
▁Current	-637
▁impacted	-638
▁toString	-639
▁modulePath	-640
▁setVisible	-641
▁constraints	-642
▁requirements	-643
▁speculateValue	-644
1;	-645
5,	-646
Co	-647
Op	-648
[]	-649
bl	-650
mo	-651
te	-652
▁5	-653
▁<	-654
▁U	-655
Bro	-656
Res	-657
ear	-658
ere	-659
ick	-660
▁at	-661
▁by	-662
Size	-663
bout	-664
fter	-665
move	-666
odbc	-667
▁Vis	-668
▁app	-669
▁lbl	-670
▁mem	-671
0,1);	-672
Broad	-673
earch	-674
▁Prec	-675
▁data	-676
▁date	-677
▁hash	-678
▁rece	-679
▁wait	-680
Dialog	-681
LineSt	-682
Stream	-683
ontent	-684
▁popup	-685
▁table	-686
ToBroad	-687
enerate	-688
▁Visual	-689
▁append	-690
▁member	-691
▁remove	-692
▁specul	-693
▁execute	-694
▁Statement	-695
Constraints	-696
ToBroadcast	-697
Notification	-698
Subscription	-699
▁Constraints	-700
▁SubscriberName	-701
▁timeToBroadcast	-702
(6	-703
ET	-704
Ex	-705
Sy	-706
/**	-707
=0;	-708
Par	-709
air	-710
als	-711
ant	-712
ava	-713
eld	-714
ign	-715
ile	-716
ner	-717
raw	-718
▁17	-719
▁ar	-720
▁as	-721
▁dd	-722
▁or	-723
▁rs	-724
%%%%	-725
Menu	-726
eden	-727
ield	-728
lear	-729
ther	-730
▁Par	-731
▁arg	-732
Frame	-733
Logic	-734
Mouse	-735
Right	-736
acter	-737
ssign	-738
▁Call	-739
▁done	-740
▁jdbc	-741
▁nEvt	-742
▁pool	-743
edence	-744
▁Clear	-745
▁Merge	-746
▁Panel	-747
▁Value	-748
▁count	-749
▁graph	-750
▁start	-751
▁Buffer	-752
▁create	-753
Response	-754
▁threads	-755
▁valueTo	-756
▁Buffered	-757
MouseEvent	-758
▁attribute	-759
▁valueFrom	-760
▁Description	-761
▁queryString	-762
▁speculative	-763
RequirementID	-764
▁requirementID	-765
▁targetResponse	-766
;}	-767
ix	-768
▁!	-769
().	-770
ETH	-771
Lay	-772
Set	-773
ary	-774
ash	-775
efa	-776
eyw	-777
rig	-778
▁(!	-779
>>>>	-780
Item	-781
Pool	-782
Time	-783
date	-784
ispl	-785
ized	-786
tify	-787
▁Res	-788
▁are	-789
▁msg	-790
▁run	-791
▁top	-792
ETHOD	-793
▁args	-794
▁call	-795
▁draw	-796
▁into	-797
▁odbc	-798
▁show	-799
▁text	-800
▁user	-801
="""";	-802
Layout	-803
efault	-804
eyword	-805
isplay	-806
tifact	-807
ultSet	-808
▁JText	-809
▁Parse	-810
▁clone	-811
▁input	-812
▁while	-813
Process	-814
▁METHOD	-815
▁equals	-816
▁number	-817
▁stream	-818
▁tokens	-819
▁Message	-820
▁identif	-821
▁tINSIDE	-822
▁Generate	-823
▁Variable	-824
▁artifact	-825
▁database	-826
▁Construct	-827
▁character	-828
▁theServer	-829
EventShapes	-830
requirement	-831
▁Constraint	-832
▁EventShapes	-833
▁CurrentEvent	-834
▁ServerSocket	-835
SubscriberName	-836
▁GenerateEvent	-837
00	-838
10	-839
ac	-840
cl	-841
iv	-842
om	-843
ud	-844
vg	-845
wt	-846
Ele	-847
Log	-848
Req	-849
abl	-850
ask	-851
ier	-852
ild	-853
pty	-854
ter	-855
▁37	-856
▁Bu	-857
▁ev	-858
▁ha	-859
▁ty	-860
$$$$	-861
Back	-862
Char	-863
Open	-864
Type	-865
clud	-866
plit	-867
▁(""	-868
▁170	-869
▁Run	-870
▁avg	-871
▁awt	-872
▁one	-873
▁rel	-874
▁rep	-875
Graph	-876
Index	-877
Stack	-878
elete	-879
ution	-880
▁List	-881
▁Work	-882
▁each	-883
▁have	-884
▁init	-885
▁java	-886
▁menu	-887
▁post	-888
▁task	-889
▁used	-890
Button	-891
Number	-892
Parser	-893
Window	-894
erator	-895
▁Build	-896
▁Class	-897
▁Color	-898
▁Query	-899
▁Stack	-900
▁modal	-901
▁mouse	-902
▁other	-903
▁paint	-904
▁panel	-905
▁store	-906
▁types	-907
Vectors	-908
ception	-909
▁Impact	-910
▁LineSt	-911
▁Report	-912
▁assign	-913
▁getSel	-914
▁includ	-915
LeftSide	-916
plitPane	-917
▁members	-918
▁related	-919
Structure	-920
ectedIndex	-921
▁ResultSet	-922
▁listModel	-923
edAttribute	-924
▁BuildEvent	-925
▁Precedence	-926
▁ThreadPool	-927
▁constructor	-928
▁ClearVectors	-929
25	-930
QL	-931
ew	-932
ll	-933
nd	-934
▁4	-935
▁9	-936
▁_	-937
"")	-938
20,	-939
Sym	-940
anc	-941
ave	-942
chr	-943
een	-944
fix	-945
ich	-946
isp	-947
ler	-948
onf	-949
ong	-950
▁+=	-951
▁Co	-952
▁Ev	-953
▁If	-954
▁On	-955
▁ro	-956
▁sk	-957
▁ss	-958
▁up	-959
(60,	-960
Comp	-961
edEx	-962
mple	-963
nchr	-964
▁Sel	-965
▁end	-966
▁its	-967
▁sun	-968
▁}//	-969
Click	-970
Field	-971
Reqno	-972
Table	-973
ement	-974
ition	-975
nable	-976
onent	-977
osing	-978
▁Date	-979
▁Hash	-980
▁Hide	-981
▁exit	-982
▁open	-983
▁port	-984
▁rout	-985
▁save	-986
▁send	-987
Events	-988
Impact	-989
andler	-990
nchron	-991
▁Print	-992
▁check	-993
▁manag	-994
▁match	-995
▁parse	-996
▁which	-997
Manager	-998
Threads	-999
private	-1000
▁Object	-1001
▁Symbol	-1002
▁errors	-1003
▁inject	-1004
▁search	-1005
▁values	-1006
Listener	-1007
MenuItem	-1008
▁""|"");	-1009
▁forName	-1010
▁include	-1011
Component	-1012
ShapeSize	-1013
Speculate	-1014
▁getValue	-1015
▁serverIP	-1016
▁synchron	-1017
▁Structure	-1018
edException	-1019
▁ModulePath	-1020
▁synchronized	-1021
▁DriverManager	-1022
▁getConnection	-1023
▁BufferedReader	-1024
▁paintComponent	-1025
2;	-1026
40	-1027
AS	-1028
Ad	-1029
ES	-1030
Em	-1031
ON	-1032
OR	-1033
SN	-1034
eg	-1035
||	-1036
All	-1037
And	-1038
Bef	-1039
Ins	-1040
LAS	-1041
Msg	-1042
SQL	-1043
Sto	-1044
ace	-1045
eng	-1046
ics	-1047
ith	-1048
mbo	-1049
ost	-1050
row	-1051
▁!=	-1052
▁-1	-1053
▁0.	-1054
▁3;	-1055
▁Ch	-1056
▁Do	-1057
▁Re	-1058
▁Wh	-1059
▁cd	-1060
▁le	-1061
▁||	-1062
&&&&	-1063
Code	-1064
Data	-1065
Port	-1066
aces	-1067
iate	-1068
imum	-1069
irst	-1070
null	-1071
olve	-1072
onst	-1073
ress	-1074
rite	-1075
▁-1;	-1076
▁Min	-1077
▁act	-1078
▁con	-1079
▁not	-1080
▁put	-1081
▁reg	-1082
After	-1083
Empty	-1084
ength	-1085
onfig	-1086
pdate	-1087
▁"");	-1088
▁1701	-1089
▁Code	-1090
▁Pane	-1091
▁comp	-1092
▁disp	-1093
▁evol	-1094
▁long	-1095
▁mSQL	-1096
▁pair	-1097
Before	-1098
Inside	-1099
▁Graph	-1100
▁Inner	-1101
▁about	-1102
▁imple	-1103
▁solve	-1104
▁stack	-1105
▁using	-1106
▁write	-1107
""|"");	-1108
QueryID	-1109
essages	-1110
▁Action	-1111
▁Button	-1112
▁Called	-1113
▁Dialog	-1114
▁Stream	-1115
▁Worker	-1116
▁active	-1117
▁change	-1118
▁length	-1119
▁socket	-1120
▁traces	-1121
Graphics	-1122
utionary	-1123
▁Content	-1124
▁Minimum	-1125
▁default	-1126
▁dispose	-1127
▁mainSto	-1128
▁postfix	-1129
▁repaint	-1130
▁routine	-1131
▁setName	-1132
RightSide	-1133
Selection	-1134
formation	-1135
putStream	-1136
▁Runnable	-1137
▁TextLine	-1138
▁contains	-1139
▁hashCode	-1140
▁inStream	-1141
▁messages	-1142
▁operator	-1143
Processing	-1144
▁artifacts	-1145
▁nextToken	-1146
MouseEvente	-1147
▁JTextField	-1148
ImpactReport	-1149
erequirement	-1150
▁Constructor	-1151
▁currentLine	-1152
▁subscribers	-1153
▁toAttribute	-1154
▁avgShapeSize	-1155
▁evolutionary	-1156
▁subscription	-1157
▁activeThreads	-1158
▁fromAttribute	-1159
AR	-1160
Do	-1161
EC	-1162
ER	-1163
Fl	-1164
Of	-1165
SC	-1166
UI	-1167
oc	-1168
tS	-1169
tt	-1170
|0	-1171
▁N	-1172
()+	-1173
));	-1174
){}	-1175
Beg	-1176
Eve	-1177
OOR	-1178
Tit	-1179
Top	-1180
[])	-1181
ail	-1182
ard	-1183
eco	-1184
gFl	-1185
ify	-1186
ise	-1187
ite	-1188
mit	-1189
nal	-1190
our	-1191
pos	-1192
ppl	-1193
rea	-1194
rid	-1195
rim	-1196
tre	-1197
ush	-1198
ust	-1199
▁1;	-1200
▁Bo	-1201
▁IN	-1202
▁Id	-1203
▁JO	-1204
▁al	-1205
▁im	-1206
▁ow	-1207
▁pl	-1208
Done	-1209
Jdbc	-1210
NotS	-1211
Odbc	-1212
Stat	-1213
This	-1214
ased	-1215
cord	-1216
elet	-1217
ient	-1218
ines	-1219
ived	-1220
mand	-1221
name	-1222
rows	-1223
ttom	-1224
|"";	-1225
▁GUI	-1226
▁can	-1227
▁des	-1228
▁rno	-1229
▁var	-1230
"",""	-1231
(60,8	-1232
Begin	-1233
Chang	-1234
Check	-1235
Rects	-1236
Title	-1237
ables	-1238
ancel	-1239
ecomp	-1240
etail	-1241
gFlag	-1242
ister	-1243
ource	-1244
▁Data	-1245
▁From	-1246
▁Left	-1247
▁find	-1248
▁left	-1249
▁more	-1250
▁proj	-1251
▁read	-1252
▁same	-1253
▁then	-1254
▁tool	-1255
▁trim	-1256
▁with	-1257
("""")	-1258
20,1);	-1259
AllEle	-1260
NotSup	-1261
Status	-1262
dition	-1263
▁Clone	-1264
▁Combo	-1265
▁Logic	-1266
▁Right	-1267
▁const	-1268
▁getId	-1269
▁owner	-1270
▁strES	-1271
Clicked	-1272
Handler	-1273
NoRects	-1274
aluator	-1275
ementAt	-1276
eration	-1277
serName	-1278
|0|"");	-1279
▁="""";	-1280
▁Delete	-1281
▁Source	-1282
▁bottom	-1283
▁button	-1284
▁client	-1285
▁execut	-1286
▁report	-1287
▁throws	-1288
▁worker	-1289
%%%%%%%%	-1290
>>>>>>>>	-1291
JdbcOdbc	-1292
ServerIP	-1293
Variable	-1294
ariables	-1295
▁JOption	-1296
▁Process	-1297
▁command	-1298
▁comment	-1299
▁getName	-1300
▁initial	-1301
▁opStack	-1302
▁receive	-1303
SplitPane	-1304
▁CallBack	-1305
▁equation	-1306
▁identify	-1307
▁listener	-1308
▁nextChar	-1309
▁register	-1310
▁setTitle	-1311
▁setValue	-1312
(60,80,1);	-1313
Constraint	-1314
NotSupport	-1315
▁Speculate	-1316
▁Tokenizer	-1317
▁drawModel	-1318
▁elementAt	-1319
▁mainFrame	-1320
▁setLayout	-1321
▁writeTime	-1322
AllElements	-1323
▁drawString	-1324
▁identifier	-1325
▁taskNumber	-1326
trequirement	-1327
▁Performance	-1328
▁ProjectName	-1329
▁StructureId	-1330
▁VisualPanel	-1331
▁assignments	-1332
▁defaultPort	-1333
▁impactReport	-1334
▁modelHandler	-1335
▁notification	-1336
JdbcOdbcDriver	-1337
▁GetSubscriber	-1338
▁RequirementID	-1339
▁MinimumNoRects	-1340
▁lblrequirement	-1341
▁solveStructure	-1342
▁subscriberName	-1343
▁CloneNotSupport	-1344
(3	-1345
AL	-1346
EL	-1347
EN	-1348
IV	-1349
OL	-1350
PE	-1351
SU	-1352
TI	-1353
UE	-1354
bt	-1355
ee	-1356
fo	-1357
rr	-1358
ui	-1359
wo	-1360
▁]	-1361
▁k	-1362
++;	-1363
0);	-1364
00;	-1365
5,2	-1366
Ada	-1367
BSC	-1368
ECT	-1369
ING	-1370
Pop	-1371
RIP	-1372
RIV	-1373
dic	-1374
ese	-1375
est	-1376
etw	-1377
ger	-1378
iew	-1379
ipt	-1380
ish	-1381
lev	-1382
log	-1383
med	-1384
oal	-1385
ors	-1386
ote	-1387
rId	-1388
tri	-1389
uch	-1390
und	-1391
upt	-1392
▁&&	-1393
▁("	-1394
▁**	-1395
▁10	-1396
▁At	-1397
▁En	-1398
▁Ex	-1399
▁Po	-1400
▁TO	-1401
▁[]	-1402
▁ab	-1403
▁ac	-1404
▁bl	-1405
▁ip	-1406
▁so	-1407
(20,	-1408
ALUE	-1409
Appl	-1410
Area	-1411
Base	-1412
LASH	-1413
Next	-1414
Orig	-1415
TION	-1416
ants	-1417
bsol	-1418
fine	-1419
hape	-1420
imin	-1421
just	-1422
nits	-1423
pter	-1424
sert	-1425
sing	-1426
wise	-1427
▁().	-1428
▁-1)	-1429
▁DSN	-1430
▁EOL	-1431
▁Gui	-1432
▁Mod	-1433
▁Out	-1434
▁SPE	-1435
▁beg	-1436
▁col	-1437
▁dif	-1438
▁ebt	-1439
▁est	-1440
▁loc	-1441
▁log	-1442
▁rig	-1443
▁sel	-1444
▁ski	-1445
▁tok	-1446
▁two	-1447
▁txt	-1448
About	-1449
Close	-1450
Delet	-1451
Lines	-1452
RIVER	-1453
SUBSC	-1454
alcul	-1455
enter	-1456
order	-1457
ready	-1458
ubmit	-1459
vents	-1460
▁Base	-1461
▁Conn	-1462
▁Cont	-1463
▁DOOR	-1464
▁Done	-1465
▁Eval	-1466
▁Grid	-1467
▁Item	-1468
▁Pair	-1469
▁Port	-1470
▁Size	-1471
▁This	-1472
▁When	-1473
▁back	-1474
▁betw	-1475
▁case	-1476
▁grId	-1477
▁here	-1478
▁mach	-1479
▁only	-1480
▁part	-1481
▁prec	-1482
▁pull	-1483
▁seen	-1484
▁setC	-1485
AndPop	-1486
Notify	-1487
ablish	-1488
alance	-1489
errupt	-1490
ferent	-1491
iately	-1492
levant	-1493
pdateD	-1494
▁0.00;	-1495
▁Check	-1496
▁Frame	-1497
▁JList	-1498
▁Shape	-1499
▁VALUE	-1500
▁after	-1501
▁catch	-1502
▁clSym	-1503
▁close	-1504
▁first	-1505
▁immed	-1506
▁indic	-1507
▁inter	-1508
▁opSym	-1509
▁quote	-1510
▁reset	-1511
▁right	-1512
▁setId	-1513
▁state	-1514
▁these	-1515
▁track	-1516
Adapter	-1517
Closing	-1518
Drivers	-1519
Element	-1520
Message	-1521
RIPTION	-1522
bsolete	-1523
▁"",20,	-1524
▁DRIVER	-1525
▁Events	-1526
▁Messag	-1527
▁Module	-1528
▁Output	-1529
▁Search	-1530
▁Select	-1531
▁Window	-1532
▁called	-1533
▁elimin	-1534
▁notify	-1535
▁stores	-1536
▁symbol	-1537
▁update	-1538
▁window	-1539
$$$$$$$$	-1540
,""|"");	-1541
DataBase	-1542
Original	-1543
TextLine	-1544
TextSize	-1545
ecompose	-1546
▁AddLine	-1547
▁HideMsg	-1548
▁already	-1549
▁between	-1550
▁display	-1551
▁getText	-1552
▁graphId	-1553
▁isEmpty	-1554
▁machine	-1555
▁opening	-1556
▁receipt	-1557
▁started	-1558
Processor	-1559
RightList	-1560
alculated	-1561
umeration	-1562
▁UserName	-1563
▁exitAppl	-1564
▁noShapes	-1565
▁received	-1566
▁relevant	-1567
▁waitDone	-1568
ShapeAfter	-1569
isplayList	-1570
ontentPane	-1571
▁Attribute	-1572
▁Connected	-1573
▁EventLine	-1574
▁Performed	-1575
▁addWindow	-1576
▁constants	-1577
▁construct	-1578
▁container	-1579
▁different	-1580
▁establish	-1581
▁eventList	-1582
▁graphName	-1583
▁splitPane	-1584
ShapeBefore	-1585
Subscribers	-1586
WindowEvent	-1587
▁EventLines	-1588
▁JSplitPane	-1589
▁containing	-1590
▁executable	-1591
▁implements	-1592
▁lblProject	-1593
▁processing	-1594
Requirements	-1595
SUBSCRIPTION	-1596
VariableName	-1597
▁EventParser	-1598
▁InputStream	-1599
▁ModelDriver	-1600
▁Modelpublic	-1601
▁immediately	-1602
▁information	-1603
▁EvalTokenizer	-1604
▁WindowAdapter	-1605
▁lblModulePath	-1606
▁windowClosing	-1607
▁SubscriberList	-1608
▁getContentPane	-1609
pdateDisplayList	-1610
▁SubscriberReqno	-1611
▁exitApplication	-1612
!=	-1613
(1	-1614
))	-1615
).	-1616
--	-1617
.1	-1618
1,	-1619
20	-1620
50	-1621
81	-1622
92	-1623
97	-1624
:\	-1625
;"	-1626
Bo	-1627
En	-1628
Is	-1629
Ok	-1630
ST	-1631
Up	-1632
].	-1633
ak	-1634
ep	-1635
gn	-1636
gr	-1637
lo	-1638
mh	-1639
ok	-1640
oo	-1641
rd	-1642
▁2	-1643
▁:	-1644
▁[	-1645
▁u	-1646
""+	-1647
,//	-1648
--;	-1649
/10	-1650
0,2	-1651
140	-1652
25,	-1653
5);	-1654
;}"	-1655
Bag	-1656
Bar	-1657
DSN	-1658
Des	-1659
Equ	-1660
Err	-1661
Fix	-1662
Len	-1663
MOD	-1664
New	-1665
PAR	-1666
Rel	-1667
Tim	-1668
Tra	-1669
Wri	-1670
avg	-1671
bed	-1672
cif	-1673
dat	-1674
der	-1675
elf	-1676
ens	-1677
eve	-1678
gro	-1679
hes	-1680
oop	-1681
pul	-1682
res	-1683
roj	-1684
rue	-1685
til	-1686
uld	-1687
urs	-1688
vok	-1689
▁((	-1690
▁/*	-1691
▁0)	-1692
▁0,	-1693
▁25	-1694
▁4;	-1695
▁An	-1696
▁CE	-1697
▁We	-1698
▁cb	-1699
▁en	-1700
▁ep	-1701
▁fo	-1702
▁ge	-1703
▁md	-1704
▁ok	-1705
▁sm	-1706
▁sn	-1707
▁sr	-1708
▁tx	-1709
▁{}	-1710
▁};	-1711
(1);	-1712
++){	-1713
0,19	-1714
00);	-1715
25);	-1716
5,25	-1717
Case	-1718
Date	-1719
Desc	-1720
Exec	-1721
IsAd	-1722
JECT	-1723
LASS	-1724
Stri	-1725
View	-1726
aced	-1727
ally	-1728
back	-1729
cept	-1730
ents	-1731
etch	-1732
eter	-1733
exec	-1734
face	-1735
fers	-1736
fore	-1737
gram	-1738
ides	-1739
jdbc	-1740
lash	-1741
line	-1742
load	-1743
sens	-1744
text	-1745
trol	-1746
ying	-1747
▁""+	-1748
▁"";	-1749
▁(!(	-1750
▁())	-1751
▁800	-1752
▁Act	-1753
▁Box	-1754
▁EBT	-1755
▁For	-1756
▁Int	-1757
▁JPo	-1758
▁box	-1759
▁det	-1760
▁fun	-1761
▁key	-1762
▁may	-1763
▁mis	-1764
▁pmh	-1765
▁pow	-1766
▁spe	-1767
▁you	-1768
""+""	-1769
()));	-1770
(60,1	-1771
Color	-1772
Count	-1773
Doors	-1774
Error	-1775
Items	-1776
MODEL	-1777
Merge	-1778
Notif	-1779
PAREN	-1780
Track	-1781
alanc	-1782
ating	-1783
cific	-1784
epend	-1785
frame	-1786
gnore	-1787
ields	-1788
itive	-1789
lease	-1790
osite	-1791
pping	-1792
▁"",\	-1793
▁),//	-1794
▁+"",	-1795
▁ELog	-1796
▁Gets	-1797
▁Info	-1798
▁Pool	-1799
▁Post	-1800
▁Proj	-1801
▁Push	-1802
▁Read	-1803
▁True	-1804
▁able	-1805
▁else	-1806
▁form	-1807
▁getA	-1808
▁goal	-1809
▁host	-1810
▁inst	-1811
▁navg	-1812
▁push	-1813
▁repl	-1814
▁such	-1815
▁want	-1816
▁were	-1817
▁when	-1818
▁xpos	-1819
▁ypos	-1820
▁}/**	-1821
70,1);	-1822
Cancel	-1823
Config	-1824
Delete	-1825
Detail	-1826
Evente	-1827
FixTop	-1828
JFrame	-1829
Modify	-1830
Parent	-1831
Refine	-1832
Symbol	-1833
Writer	-1834
andard	-1835
ending	-1836
entify	-1837
events	-1838
ground	-1839
onnect	-1840
pulate	-1841
ressed	-1842
rigger	-1843
ssible	-1844
ternal	-1845
trieve	-1846
▁""140	-1847
▁About	-1848
▁After	-1849
▁CLASS	-1850
▁DOORS	-1851
▁Enter	-1852
▁First	-1853
▁SLASH	-1854
▁Units	-1855
▁based	-1856
▁begun	-1857
▁block	-1858
▁calls	-1859
▁click	-1860
▁color	-1861
▁compl	-1862
▁empty	-1863
▁exist	-1864
▁getIn	-1865
▁hides	-1866
▁local	-1867
▁mname	-1868
▁order	-1869
▁param	-1870
▁party	-1871
▁pname	-1872
▁saveC	-1873
▁under	-1874
▁until	-1875
/10"");	-1876
Balance	-1877
Changed	-1878
Content	-1879
EventID	-1880
LeftAnd	-1881
LogName	-1882
RegFlag	-1883
alanced	-1884
casting	-1885
itional	-1886
justing	-1887
manager	-1888
pupMenu	-1889
▁""|"";	-1890
▁Actual	-1891
▁Config	-1892
▁Detail	-1893
▁Double	-1894
▁INJECT	-1895
▁JFrame	-1896
▁Notify	-1897
▁Precon	-1898
▁Reader	-1899
▁Record	-1900
▁Values	-1901
▁accept	-1902
▁adding	-1903
▁before	-1904
▁cancel	-1905
▁center	-1906
▁fields	-1907
▁insens	-1908
▁insert	-1909
▁itself	-1910
▁noText	-1911
▁output	-1912
▁placed	-1913
▁refers	-1914
▁repres	-1915
▁stored	-1916
▁submit	-1917
▁system	-1918
▁tempor	-1919
▁vector	-1920
&&&&&&&&	-1921
BackChar	-1922
Equation	-1923
EventLog	-1924
EventTim	-1925
NumberOf	-1926
Obsolete	-1927
database	-1928
jdbcodbc	-1929
▁"","");	-1930
▁Actions	-1931
▁Address	-1932
▁Context	-1933
▁Default	-1934
▁Display	-1935
▁EBShape	-1936
▁GraphId	-1937
▁GridBag	-1938
▁Handler	-1939
▁ModPath	-1940
▁RegFlag	-1941
▁aSocket	-1942
▁calling	-1943
▁changes	-1944
▁closing	-1945
▁control	-1946
▁created	-1947
▁creates	-1948
▁drivers	-1949
▁eventId	-1950
▁getNext	-1951
▁injectV	-1952
▁managed	-1953
▁missing	-1954
▁nValues	-1955
▁objects	-1956
▁program	-1957
▁support	-1958
▁working	-1959
""+""|"";	-1960
Decompose	-1961
DescTable	-1962
EventList	-1963
EventType	-1964
ListModel	-1965
TimeAfter	-1966
ssignment	-1967
ubscribed	-1968
▁HideText	-1969
▁Identify	-1970
▁Impacted	-1971
▁Internal	-1972
▁LeftLine	-1973
▁LeftList	-1974
▁ProjName	-1975
▁Pushback	-1976
▁Selected	-1977
▁WorkArea	-1978
▁comments	-1979
▁detected	-1980
▁eventlog	-1981
▁function	-1982
▁generate	-1983
▁getError	-1984
▁getLogic	-1985
▁getTrack	-1986
▁indicate	-1987
▁instance	-1988
▁matching	-1989
▁okButton	-1990
▁populate	-1991
▁response	-1992
▁retrieve	-1993
▁setLogic	-1994
▁showText	-1995
▁skipping	-1996
▁specific	-1997
▁workload	-1998
()+""|"");	-1999
(20,20,1);	-2000
RightLists	-2001
TimeBefore	-2002
▁Evaluator	-2003
▁Interrupt	-2004
▁RightLine	-2005
▁RightList	-2006
▁TextModel	-2007
▁composite	-2008
▁condition	-2009
▁currently	-2010
▁eliminate	-2011
▁eventType	-2012
▁getDriver	-2013
▁implement	-2014
▁interface	-2015
▁mainframe	-2016
▁modelName	-2017
▁otherwise	-2018
▁parameter	-2019
▁parenthes	-2020
▁popupOpen	-2021
▁selection	-2022
▁structure	-2023
▁varValues	-2024
▁variables	-2025
▁waitBegin	-2026
Constructor	-2027
EventServer	-2028
Information	-2029
IsAdjusting	-2030
Performance	-2031
ProjectName	-2032
QueryString	-2033
ToAttribute	-2034
eventserver	-2035
performance	-2036
urrentModel	-2037
▁EventModel	-2038
▁JPopupMenu	-2039
▁MergeModel	-2040
▁ParseEvent	-2041
▁ReadValues	-2042
▁addElement	-2043
▁additional	-2044
▁assignment	-2045
▁connection	-2046
▁getConnect	-2047
▁getQueryID	-2048
▁management	-2049
▁openEvents	-2050
▁postFixTop	-2051
▁precedence	-2052
▁setQueryID	-2053
▁txtProject	-2054
FromDataBase	-2055
NotifyStatus	-2056
ServerSocket	-2057
▁AboutDialog	-2058
▁EventDetail	-2059
▁EventServer	-2060
▁FrameParent	-2061
▁JOptionPane	-2062
▁PrintWriter	-2063
▁avgTextSize	-2064
▁closeDialog	-2065
▁colorStatus	-2066
▁doubleClick	-2067
▁insensitive	-2068
▁isSelection	-2069
▁noTextItems	-2070
▁putBackChar	-2071
▁workerBegin	-2072
EventServerIP	-2073
FromAttribute	-2074
ListSelection	-2075
▁ConfigDialog	-2076
▁NotifyButton	-2077
▁ParseLeftAnd	-2078
▁Precondition	-2079
▁SearchString	-2080
▁WorkerThread	-2081
▁cancelButton	-2082
▁postfixStack	-2083
▁valueChanged	-2084
SpeculateValue	-2085
jdbcodbcDriver	-2086
▁ContextString	-2087
▁DisplayValues	-2088
▁EventServerIP	-2089
▁differentiate	-2090
▁getAssignment	-2091
▁getConstraint	-2092
▁messageParser	-2093
▁notifications	-2094
▁setCalculated	-2095
EventsProcessor	-2096
daterequirement	-2097
▁PushbackReader	-2098
▁generateReport	-2099
▁getInputStream	-2100
▁getrequirement	-2101
▁txtrequirement	-2102
%%%%%%%%%%%%%%%%	-2103
>>>>>>>>>>>>>>>>	-2104
ChangedAttribute	-2105
▁AddSubscription	-2106
((	-2107
(0	-2108
(9	-2109
+)	-2110
.3	-2111
0)	-2112
15	-2113
;/	-2114
<4	-2115
=-	-2116
>0	-2117
AV	-2118
EP	-2119
HT	-2120
IF	-2121
IG	-2122
LO	-2123
LT	-2124
Ne	-2125
OT	-2126
OW	-2127
RA	-2128
RO	-2129
Se	-2130
So	-2131
Ts	-2132
\0	-2133
cy	-2134
io	-2135
ip	-2136
ks	-2137
my	-2138
ne	-2139
ns	-2140
ot	-2141
oy	-2142
ps	-2143
ug	-2144
yz	-2145
&&&	-2146
(((	-2147
()"	-2148
(),	-2149
(10	-2150
(30	-2151
(60	-2152
.//	-2153
.37	-2154
00)	-2155
1()	-2156
1;}	-2157
5,8	-2158
97,	-2159
<4;	-2160
ARS	-2161
Arr	-2162
CLO	-2163
Com	-2164
Dow	-2165
EAV	-2166
END	-2167
EST	-2168
End	-2169
Get	-2170
HEC	-2171
How	-2172
IdN	-2173
LIG	-2174
Lis	-2175
Loc	-2176
Low	-2177
NOT	-2178
ORT	-2179
ROM	-2180
Run	-2181
SEL	-2182
The	-2183
Tot	-2184
ULT	-2185
WOW	-2186
Wid	-2187
\""	-2188
_//	-2189
alc	-2190
alf	-2191
ati	-2192
can	-2193
eal	-2194
eek	-2195
ems	-2196
eri	-2197
etc	-2198
gat	-2199
."	-2200
..	-2201
2)	-2202
34	-2203
55	-2204
59	-2205
7;	-2206
>=	-2207
DD	-2208
EM	-2209
OV	-2210
SE	-2211
Tr	-2212
Wh	-2213
cc	-2214
go	-2215
py	-2216
,97	-2217
...	-2218
610	-2219
ADD	-2220
Num	-2221
OVE	-2222
REM	-2223
ely	-2224
fin	-2225
how	-2226
inn	-2227
irm	-2228
jec	-2229
kip	-2230
ogn	-2231
old	-2232
oll	-2233
rot	-2234
ugh	-2235
usy	-2236
vel	-2237
wit	-2238
yze	-2239
|10	-2240
▁!_	-2241
▁",	-2242
▁";	-2243
▁(1	-2244
▁))	-2245
▁).	-2246
▁){	-2247
▁0"	-2248
▁1)	-2249
▁2;	-2250
▁47	-2251
▁48	-2252
▁49	-2253
▁50	-2254
▁51	-2255
▁52	-2256
▁53	-2257
▁54	-2258
▁55	-2259
▁56	-2260
▁57	-2261
▁58	-2262
▁60	-2263
▁61	-2264
▁62	-2265
▁63	-2266
▁64	-2267
▁65	-2268
▁67	-2269
▁68	-2270
▁69	-2271
▁70	-2272
▁71	-2273
▁72	-2274
▁73	-2275
▁74	-2276
▁75	-2277
▁76	-2278
▁77	-2279
▁78	-2280
▁79	-2281
▁80	-2282
▁81	-2283
▁83	-2284
▁84	-2285
▁85	-2286
▁86	-2287
▁87	-2288
▁88	-2289
▁89	-2290
▁91	-2291
▁92	-2292
▁93	-2293
▁94	-2294
▁95	-2295
▁<=	-2296
▁>=	-2297
▁EB	-2298
▁IO	-2299
)(	-2300
13	-2301
5)	-2302
Ar	-2303
DO	-2304
Ev	-2305
];	-2306
ff	-2307
$$$	-2308
2()	-2309
20|	-2310
Rem	-2311
any	-2312
erc	-2313
▁59	-2314
▁66	-2315
▁82	-2316
▁90	-2317
▁IR	-2318
▁It	-2319
▁Na	-2320
▁Op	-2321
▁Pl	-2322
▁Si	-2323
▁Sl	-2324
▁Up	-2325
▁WB	-2326
▁ad	-2327
▁di	-2328
▁go	-2329
▁mo	-2330
▁my	-2331
▁nu	-2332
▁ob	-2333
▁os	-2334
▁sb	-2335
▁tL	-2336
▁ut	-2337
▁vr	-2338
!=0)	-2339
());	-2340
(){}	-2341
(0);	-2342
(3);	-2343
(35,	-2344
(5,2	-2345
....	-2346
./**	-2347
.150	-2348
.192	-2349
0,10	-2350
1581	-2351
25,6	-2352
2;}"	-2353
347;	-2354
35,2	-2355
40);	-2356
5,26	-2357
60,2	-2358
;//"	-2359
=-1;	-2360
Arrt	-2361
Call	-2362
Conf	-2363
DOOR	-2364
Down	-2365
Exit	-2366
Fore	-2367
HING	-2368
Hide	-2369
INTs	-2370
Info	-2371
Inte	-2372
Java	-2373
Loop	-2374
Mode	-2375
ODIF	-2376
ONST	-2377
Pair	-2378
Part	-2379
Rece	-2380
Rele	-2381
STAR	-2382
Stru	-2383
TEST	-2384
ToDo	-2385
Wind	-2386
With	-2387
Work	-2388
acte	-2389
acts	-2390
ains	-2391
akes	-2392
alid	-2393
also	-2394
anks	-2395
ater	-2396
chat	-2397
eeps	-2398
eger	-2399
5;	-2400
thm	-2401
▁am	-2402
▁mx	-2403
ency	-2404
eted	-2405
ever	-2406
gori	-2407
half	-2408
iles	-2409
imit	-2410
inct	-2411
istr	-2412
iven	-2413
ivis	-2414
izes	-2415
ongs	-2416
onto	-2417
ould	-2418
owed	-2419
post	-2420
prot	-2421
rior	-2422
sion	-2423
ssum	-2424
troy	-2425
ular	-2426
ummy	-2427
umns	-2428
unds	-2429
utom	-2430
vert	-2431
void	-2432
voke	-2433
will	-2434
▁");	-2435
▁(10	-2436
▁(19	-2437
▁+""	-2438
▁++)	-2439
▁//"	-2440
▁//@	-2441
▁0,0	-2442
▁100	-2443
▁140	-2444
▁150	-2445
▁17;	-2446
▁192	-2447
▁250	-2448
▁600	-2449
▁740	-2450
▁=0;	-2451
▁All	-2452
▁Ano	-2453
▁Any	-2454
▁Cre	-2455
▁ESC	-2456
▁GET	-2457
▁Hit	-2458
▁JCo	-2459
▁New	-2460
▁Non	-2461
▁REP	-2462
▁Red	-2463
▁SQL	-2464
▁TOP	-2465
▁Who	-2466
▁any	-2467
▁bag	-2468
▁bel	-2469
▁bin	-2470
▁dur	-2471
▁eID	-2472
▁eff	-2473
▁etc	-2474
▁exp	-2475
▁met	-2476
▁occ	-2477
▁off	-2478
▁pre	-2479
▁pub	-2480
▁req	-2481
▁say	-2482
▁see	-2483
▁som	-2484
▁tak	-2485
▁thr	-2486
▁unb	-2487
▁use	-2488
▁vis	-2489
▁wid	-2490
▁yet	-2491
▁{//	-2492
"",5,	-2493
(0));	-2494
(100,	-2495
(600,	-2496
(90,2	-2497
,97);	-2498
135);	-2499
5,80,	-2500
81610	-2501
97,59	-2502
ARSER	-2503
Arrow	-2504
Based	-2505
Board	-2506
CLOSE	-2507
DOORs	-2508
Enter	-2509
Gener	-2510
Input	-2511
LIGHT	-2512
Lower	-2513
Match	-2514
Reads	-2515
SLASH	-2516
Slash	-2517
Total	-2518
Units	-2519
White	-2520
Width	-2521
ached	-2522
amine	-2523
anged	-2524
antit	-2525
arily	-2526
aryOp	-2527
asses	-2528
eries	-2529
ether	-2530
gativ	-2531
icati	-2532
icked	-2533
ilize	-2534
ingle	-2535
jects	-2536
otype	-2537
rough	-2538
sWith	-2539
stand	-2540
start	-2541
store	-2542
token	-2543
tries	-2544
ursor	-2545
ustom	-2546
vokes	-2547
witch	-2548
▁""""	-2549
▁());	-2550
▁0.0;	-2551
▁1020	-2552
▁Amit	-2553
▁Anal	-2554
▁Area	-2555
▁Back	-2556
▁Both	-2557
▁CHEC	-2558
▁Case	-2559
▁Char	-2560
▁Coll	-2561
▁Copy	-2562
▁Disp	-2563
▁Each	-2564
▁Even	-2565
▁Exec	-2566
▁FROM	-2567
▁Find	-2568
▁GetB	-2569
▁GetC	-2570
▁GetL	-2571
▁GetR	-2572
▁GetT	-2573
▁Goal	-2574
▁Java	-2575
▁Line	-2576
▁MULT	-2577
▁Menu	-2578
▁Once	-2579
▁Only	-2580
▁Rose	-2581
▁SEND	-2582
▁Scan	-2583
▁Send	-2584
▁Show	-2585
▁Skip	-2586
▁Subs	-2587
▁Type	-2588
▁abou	-2589
▁adds	-2590
▁also	-2591
▁appl	-2592
▁argu	-2593
▁band	-2594
▁been	-2595
▁busy	-2596
▁byte	-2597
▁cLen	-2598
▁calc	-2599
▁cons	-2600
▁deal	-2601
▁dist	-2602
▁does	-2603
▁elem	-2604
▁equa	-2605
▁extr	-2606
▁file	-2607
▁grid	-2608
▁hold	-2609
▁inse	-2610
▁isId	-2611
▁last	-2612
▁loop	-2613
▁mNum	-2614
▁mReq	-2615
▁many	-2616
▁merg	-2617
▁mode	-2618
▁much	-2619
▁once	-2620
▁onto	-2621
▁pass	-2622
▁past	-2623
▁peek	-2624
▁pick	-2625
▁plus	-2626
▁puts	-2627
▁real	-2628
▁runs	-2629
▁sLen	-2630
▁setD	-2631
▁sets	-2632
▁skip	-2633
▁sort	-2634
▁they	-2635
▁unne	-2636
▁very	-2637
▁view	-2638
▁what	-2639
▁word	-2640
()!=0)	-2641
()"");	-2642
0,100)	-2643
5,255)	-2644
Bounds	-2645
Depend	-2646
EAVING	-2647
EventI	-2648
Exited	-2649
IdNode	-2650
Ignore	-2651
Insert	-2652
JavaId	-2653
Models	-2654
ONSTRA	-2655
Object	-2656
Please	-2657
REMOVE	-2658
Remain	-2659
RightS	-2660
SELECT	-2661
Search	-2662
System	-2663
Tokeni	-2664
Tokens	-2665
Trying	-2666
Update	-2667
Worker	-2668
atched	-2669
edArrt	-2670
ercise	-2671
ething	-2672
execut	-2673
fining	-2674
ifying	-2675
ightly	-2676
inning	-2677
rawAll	-2678
recogn	-2679
static	-2680
tifier	-2681
▁(((((	-2682
▁.....	-2683
▁100);	-2684
▁1701;	-2685
▁1705;	-2686
▁2347;	-2687
▁400);	-2688
▁Added	-2689
▁Board	-2690
▁Const	-2691
▁Count	-2692
▁DOORs	-2693
▁False	-2694
▁Fetch	-2695
▁Field	-2696
▁Input	-2697
▁Items	-2698
▁JMenu	-2699
▁MODIF	-2700
▁Other	-2701
▁Place	-2702
▁Strin	-2703
▁Takes	-2704
▁Uchat	-2705
▁White	-2706
▁added	-2707
▁array	-2708
▁assum	-2709
▁autom	-2710
▁comes	-2711
▁conte	-2712
▁could	-2713
▁delet	-2714
▁divis	-2715
▁doors	-2716
▁dummy	-2717
▁enter	-2718
▁evalu	-2719
▁fetch	-2720
▁files	-2721
▁finds	-2722
▁getIP	-2723
▁getNe	-2724
▁given	-2725
▁items	-2726
▁keeps	-2727
▁later	-2728
▁level	-2729
▁limit	-2730
▁mDate	-2731
▁mType	-2732
▁mline	-2733
▁objec	-2734
▁place	-2735
▁prior	-2736
▁reply	-2737
▁requi	-2738
▁rtext	-2739
▁sName	-2740
▁slash	-2741
▁tasks	-2742
▁tools	-2743
▁topOf	-2744
▁topOp	-2745
▁valid	-2746
▁waits	-2747
▁works	-2748
$$$"");	-2749
&&&"");	-2750
(305,26	-2751
(5,2));	-2752
.150"";	-2753
.192.37	-2754
0,190);	-2755
25,60);	-2756
60,225,	-2757
CloseOp	-2758
Comment	-2759
Confirm	-2760
Entered	-2761
Execute	-2762
General	-2763
GraphId	-2764
HideMsg	-2765
IdLabel	-2766
Integer	-2767
Modular	-2768
NOTHING	-2769
Pressed	-2770
Related	-2771
TESTING	-2772
TableEn	-2773
Trigger	-2774
andards	-2775
ational	-2776
cessary	-2777
cording	-2778
erforms	-2779
execute	-2780
gorithm	-2781
ierPart	-2782
onfigur	-2783
postfix	-2784
ression	-2785
version	-2786
|101581	-2787
▁"","";	-2788
▁""140.	-2789
▁""\\""	-2790
▁255,25	-2791
▁Border	-2792
▁CPAREN	-2793
▁Create	-2794
▁Depend	-2795
▁INSIDE	-2796
▁Ignore	-2797
▁JCombo	-2798
▁Layout	-2799
▁Modify	-2800
▁OPAREN	-2801
▁PARSER	-2802
▁Parser	-2803
▁Passes	-2804
▁Please	-2805
▁PortNo	-2806
▁Public	-2807
▁QueryC	-2808
▁REPORT	-2809
▁Refine	-2810
▁Result	-2811
▁Simple	-2812
▁Specul	-2813
▁Submit	-2814
▁Update	-2815
▁adjust	-2816
▁argsNo	-2817
▁behalf	-2818
▁blanks	-2819
▁coming	-2820
▁custom	-2821
▁decomp	-2822
▁delete	-2823
▁divert	-2824
▁during	-2825
▁effect	-2826
▁errMsg	-2827
▁exists	-2828
▁format	-2829
▁getTop	-2830
▁invoke	-2831
▁listed	-2832
▁longer	-2833
▁mEvent	-2834
▁manage	-2835
▁models	-2836
▁necess	-2837
▁occurs	-2838
▁online	-2839
▁projec	-2840
▁really	-2841
▁record	-2842
▁sReqno	-2843
▁select	-2844
▁setLoc	-2845
▁should	-2846
▁single	-2847
▁struct	-2848
▁switch	-2849
▁tTotal	-2850
▁taking	-2851
▁tracks	-2852
▁unread	-2853
"",5,5);	-2854
%%%%"");	-2855
("""",""	-2856
8161020|	-2857
LeftList	-2858
Notifier	-2859
Received	-2860
Released	-2861
Reporter	-2862
Runnable	-2863
UserName	-2864
ValuesIn	-2865
atically	-2866
gatively	-2867
standing	-2868
▁(100,10	-2869
▁(190,19	-2870
▁Analyze	-2871
▁Another	-2872
▁Balance	-2873
▁CONSTRA	-2874
▁Changed	-2875
▁Clicked	-2876
▁DRIVERs	-2877
▁Details	-2878
▁EventID	-2879
▁EventSe	-2880
▁Examine	-2881
▁Injects	-2882
▁Invokes	-2883
▁JButton	-2884
▁LogName	-2885
▁Pressed	-2886
▁allowed	-2887
▁backlog	-2888
▁batched	-2889
▁belongs	-2890
▁checker	-2891
▁columns	-2892
▁compute	-2893
▁connect	-2894
▁console	-2895
▁destroy	-2896
▁entries	-2897
▁getLine	-2898
▁getType	-2899
▁hasNext	-2900
▁holding	-2901
▁impacts	-2902
▁integer	-2903
▁mModule	-2904
▁manages	-2905
▁matches	-2906
▁menuBar	-2907
▁merging	-2908
▁mouseUp	-2909
▁npublic	-2910
▁numbers	-2911
▁parsing	-2912
▁passing	-2913
▁pending	-2914
▁pushing	-2915
▁quantit	-2916
▁queries	-2917
▁reached	-2918
▁reading	-2919
▁registr	-2920
▁replace	-2921
▁restore	-2922
▁results	-2923
▁returns	-2924
▁sModule	-2925
▁setBack	-2926
▁setFore	-2927
▁setSize	-2928
▁setType	-2929
▁setVisi	-2930
▁sizeHow	-2931
▁starter	-2932
▁symbols	-2933
▁tempStr	-2934
▁theLine	-2935
▁through	-2936
▁toLower	-2937
▁toValue	-2938
▁trigger	-2939
▁utilize	-2940
▁varName	-2941
▁visible	-2942
▁waiting	-2943
▁whether	-2944
"","""");	-2945
(35,97,59	-2946
(60,135,2	-2947
0,100)));	-2948
5,80,25);	-2949
BoardExec	-2950
ElementAt	-2951
Evaluator	-2952
FromDoors	-2953
OfThreads	-2954
OpenClose	-2955
Remaining	-2956
ResultSet	-2957
WindowEve	-2958
protected	-2959
▁"",20,55	-2960
▁1/10"");	-2961
▁2/10"");	-2962
▁AddArrow	-2963
▁ArrayLis	-2964
▁Contains	-2965
▁Database	-2966
▁Dispatch	-2967
▁ESCursor	-2968
▁EventLog	-2969
▁EventSha	-2970
▁GetReqno	-2971
▁JMenuBar	-2972
▁Listener	-2973
▁NewModel	-2974
▁Notifier	-2975
▁Obsolete	-2976
▁Operator	-2977
▁Possible	-2978
▁Rational	-2979
▁ShowInfo	-2980
▁Slightly	-2981
▁SubsName	-2982
▁Whenever	-2983
▁applying	-2984
▁assigned	-2985
▁balanced	-2986
▁binaryOp	-2987
▁characte	-2988
▁complete	-2989
▁configur	-2990
▁contents	-2991
▁ddpublic	-2992
▁deleting	-2993
▁desLabel	-2994
▁displays	-2995
▁distinct	-2996
▁division	-2997
▁exercise	-2998
▁existing	-2999
▁extracts	-3000
▁finalize	-3001
▁getToken	-3002
▁ifpublic	-3003
▁inSymbol	-3004
▁includes	-3005
▁injectVa	-3006
▁intValue	-3007
▁internal	-3008
▁isIdChar	-3009
▁isJavaId	-3010
▁iterator	-3011
▁location	-3012
▁mProject	-3013
▁mReqtext	-3014
▁nProject	-3015
▁performs	-3016
▁possible	-3017
▁prevents	-3018
▁publicly	-3019
▁querying	-3020
▁refining	-3021
▁returned	-3022
▁routines	-3023
▁speculat	-3024
▁standard	-3025
▁tLEAVING	-3026
▁topPanel	-3027
▁unrecogn	-3028
()$$$$$$$$	-3029
()&&&&&&&&	-3030
(20,70,1);	-3031
(60,70,1);	-3032
Dependency	-3033
EBTprivate	-3034
IgnoreCase	-3035
ModelTable	-3036
Notificati	-3037
Subscribed	-3038
ThreadPool	-3039
subscriber	-3040
utionGraph	-3041
▁Character	-3042
▁ClearData	-3043
▁Decompose	-3044
▁Dependent	-3045
▁Exception	-3046
▁Execution	-3047
▁GetModule	-3048
▁JTextArea	-3049
▁MenuPanel	-3050
▁Otherwise	-3051
▁PrecTable	-3052
▁Processor	-3053
▁RedrawAll	-3054
▁Selection	-3055
▁Standards	-3056
▁Variables	-3057
▁according	-3058
▁addDriver	-3059
▁algorithm	-3060
▁arguments	-3061
▁bandWidth	-3062
▁beginning	-3063
▁calcValue	-3064
▁chartoken	-3065
▁completed	-3066
▁contained	-3067
▁evaluator	-3068
▁executing	-3069
▁fromLabel	-3070
▁fromValue	-3071
▁getNextID	-3072
▁getpublic	-3073
▁interrupt	-3074
▁lastToken	-3075
▁modifying	-3076
▁mouseDown	-3077
▁popupView	-3078
▁precTable	-3079
▁processed	-3080
▁prototype	-3081
▁represent	-3082
▁saveModel	-3083
▁setBounds	-3084
▁showInput	-3085
▁solveStru	-3086
▁something	-3087
▁speculate	-3088
▁statement	-3089
▁temporary	-3090
▁topAndPop	-3091
▁typeLabel	-3092
▁workerEnd	-3093
$$$$$$$"");	-3094
&&&&&&&"");	-3095
(60,120,1);	-3096
(60,60,225,	-3097
(90,220,1);	-3098
DeleteEvent	-3099
EventParser	-3100
LIGHTpublic	-3101
StructureId	-3102
edArrtibute	-3103
▁"",20,25);	-3104
▁"",20,40);	-3105
▁Collection	-3106
▁CurrentEve	-3107
▁GetProject	-3108
▁GridLayout	-3109
▁MergeCount	-3110
▁Processing	-3111
▁ShapeColor	-3112
▁Subscribed	-3113
▁assumption	-3114
▁calculated	-3115
▁checkMatch	-3116
▁commandStr	-3117
▁connpublic	-3118
▁conversion	-3119
▁customized	-3120
▁dateString	-3121
▁dateVector	-3122
▁driverLoop	-3123
▁evaluation	-3124
▁expression	-3125
▁getDrivers	-3126
▁getGraphId	-3127
▁getProject	-3128
▁getValueTo	-3129
▁indicating	-3130
▁initialize	-3131
▁insertData	-3132
▁modelField	-3133
▁modelLabel	-3134
▁negatively	-3135
▁nullpublic	-3136
▁opStackTop	-3137
▁parameters	-3138
▁registered	-3139
▁represents	-3140
▁searchDate	-3141
▁setDefault	-3142
▁setProject	-3143
▁setValueTo	-3144
▁startsWith	-3145
▁thepostfix	-3146
▁thispublic	-3147
▁topOfStack	-3148
▁unbalanced	-3149
SearchString	-3150
entifierPart	-3151
▁CONSTRAINTs	-3152
▁ConstString	-3153
▁DOORsThread	-3154
▁DeleteEvent	-3155
▁Enumeration	-3156
▁ModifyModel	-3157
▁RefineModel	-3158
▁Speculative	-3159
▁Strinpublic	-3160
▁StructureID	-3161
▁aboutDialog	-3162
▁changeLabel	-3163
▁constructed	-3164
▁createPanel	-3165
▁decomposing	-3166
▁displayMode	-3167
▁displayStri	-3168
▁eliminating	-3169
▁enumeration	-3170
▁eventServer	-3171
▁implemented	-3172
▁initializes	-3173
▁inputSymbol	-3174
▁logicpublic	-3175
▁mouseExited	-3176
▁outstanding	-3177
▁parentheses	-3178
▁parenthesis	-3179
▁queryVector	-3180
▁searchQuery	-3181
▁setLocation	-3182
▁showConfirm	-3183
▁temporarily	-3184
▁toLowerCase	-3185
▁unnecessary	-3186
▁updateEvent	-3187
ExecuteString	-3188
RelatedEvents	-3189
ToEventServer	-3190
▁""140.192.37	-3191
▁255,255,255)	-3192
▁BorderLayout	-3193
▁EventDetails	-3194
▁Modelprivate	-3195
▁Requirements	-3196
▁StringTokeni	-3197
▁Threadstatic	-3198
▁checkBalance	-3199
▁currentValue	-3200
▁driverString	-3201
▁establishing	-3202
▁executeModel	-3203
▁executeQuery	-3204
▁exitMenuItem	-3205
▁getConnectio	-3206
▁getRemaining	-3207
▁getSplitPane	-3208
▁getValueFrom	-3209
▁mouseClicked	-3210
▁mouseEntered	-3211
▁mousePressed	-3212
▁mrequirement	-3213
▁navgTextSize	-3214
▁openMenuItem	-3215
▁processSlash	-3216
▁processToken	-3217
▁projecpublic	-3218
▁quantitative	-3219
▁registration	-3220
▁removeDriver	-3221
▁saveMenuItem	-3222
▁setElementAt	-3223
▁setValueFrom	-3224
▁structVector	-3225
▁unrecognized	-3226
(35,97,59,97);	-3227
CloseOperation	-3228
SubscriberList	-3229
▁EventNotifier	-3230
▁GridBagLayout	-3231
▁ListSelection	-3232
▁ObsoleteModel	-3233
▁UserNameLabel	-3234
▁ValueReporter	-3235
▁aboutMenuItem	-3236
▁addConstraint	-3237
▁automatically	-3238
▁configuration	-3239
▁currentIdNode	-3240
▁driversVector	-3241
▁getErrorCount	-3242
▁getLineNumber	-3243
▁getModulePath	-3244
▁injectDrivers	-3245
▁mouseReleased	-3246
▁navgShapeSize	-3247
▁pendingTokens	-3248
▁searchQueryID	-3249
▁setBackground	-3250
▁setForeground	-3251
▁setModulePath	-3252
▁subscriptions	-3253
▁txtModulePath	-3254
EventServerPort	-3255
LeftSideprivate	-3256
requirementwill	-3257
|1015818161020|	-3258
▁(190,190,190);	-3259
▁DecomposeModel	-3260
▁SpeculateValue	-3261
▁Subscribervoid	-3262
▁WhiteBoardExec	-3263
▁containsDriver	-3264
▁equationParser	-3265
▁getConstraints	-3266
▁getDescription	-3267
▁getProjectName	-3268
▁getQueryString	-3269
▁getToAttribute	-3270
▁insertValuesIn	-3271
▁parseSpeculate	-3272
▁setDescription	-3273
▁setProjectName	-3274
▁setQueryString	-3275
▁setToAttribute	-3276
(305,265,80,25);	-3277
(60,135,225,60);	-3278
(60,60,225,135);	-3279
Evaluatorprivate	-3280
ModulePathpublic	-3281
TableEnumeration	-3282
▁EventsProcessor	-3283
▁LeftListClicked	-3284
▁QueryConnection	-3285
▁SubscribedModel	-3286
▁changeAttribute	-3287
▁getErrorMessage	-3288
▁getImpactReport	-3289
▁injectVariables	-3290
▁modulePathLabel	-3291
▁numberOfThreads	-3292
▁pullInformation	-3293
▁showInputDialog	-3294
!=0	-3295
(5,	-3296
-1;	-3297
.15	-3298
//"	-3299
01;	-3300
05,	-3301
101	-3302
255	-3303
2;}	-3304
5,1	-3305
5,6	-3306
5,9	-3307
55,	-3308
581	-3309
65,	-3310
>>>	-3311
AIN	-3312
ASS	-3313
Adj	-3314
Che	-3315
EMO	-3316
ERs	-3317
HIN	-3318
HOD	-3319
InD	-3320
Ind	-3321
Inp	-3322
JEC	-3323
Jav	-3324
Loo	-3325
Mou	-3326
ODE	-3327
ODI	-3328
ONS	-3329
ORs	-3330
OTH	-3331
POR	-3332
SCR	-3333
SER	-3334
STR	-3335
SUB	-3336
Spl	-3337
TAR	-3338
TES	-3339
VER	-3340
ayV	-3341
ays	-3342
dPo	-3343
eep	-3344
fir	-3345
ght	-3346
htS	-3347
lac	-3348
nly	-3349
oke	-3350
omb	-3351
oss	-3352
owA	-3353
owC	-3354
owE	-3355
owI	-3356
own	-3357
pSt	-3358
pla	-3359
ply	-3360
rrt	-3361
sAd	-3362
sTh	-3363
teg	-3364
tom	-3365
ude	-3366
umn	-3367
xSt	-3368
xec	-3369
xtP	-3370
ymb	-3371
you	-3372
yte	-3373
▁14	-3374
▁15	-3375
▁19	-3376
▁2/	-3377
▁23	-3378
▁EO	-3379
▁FR	-3380
▁Fi	-3381
▁Le	-3382
▁Ob	-3383
▁Qu	-3384
▁Un	-3385
▁ho	-3386
▁ja	-3387
▁yp	-3388
()$$	-3389
()>>	-3390
0));	-3391
0,12	-3392
0,22	-3393
0,25	-3394
00,1	-3395
05,2	-3396
100,	-3397
1015	-3398
1020	-3399
ASH	-3400
Aft	-3401
INS	-3402
aId	-3403
bcD	-3404
clu	-3405
eft	-3406
ftA	-3407
ftS	-3408
hId	-3409
igD	-3410
igh	-3411
ilD	-3412
ils	-3413
lig	-3414
lus	-3415
num	-3416
sig	-3417
sum	-3418
wil	-3419
140.	-3420
2));	-3421
20,7	-3422
25,1	-3423
35);	-3424
40.1	-3425
5,22	-3426
5,97	-3427
60,1	-3428
65,8	-3429
70,1	-3430
80,1	-3431
90,1	-3432
92.3	-3433
97);	-3434
97,5	-3435
AREN	-3436
CLOS	-3437
Canc	-3438
Clic	-3439
Clos	-3440
Comb	-3441
Cont	-3442
Curr	-3443
Defa	-3444
Dial	-3445
EBTp	-3446
EMOV	-3447
Flag	-3448
Hand	-3449
IGHT	-3450
IPTI	-3451
IVER	-3452
IdCh	-3453
NOTH	-3454
ODEL	-3455
OORS	-3456
OORs	-3457
RAIN	-3458
Reqt	-3459
SCur	-3460
SLAS	-3461
STRA	-3462
User	-3463
VING	-3464
ails	-3465
alsI	-3466
ange	-3467
argu	-3468
askN	-3469
ataB	-3470
atus	-3471
aveC	-3472
bcod	-3473
blre	-3474
ceiv	-3475
chQu	-3476
curs	-3477
eckM	-3478
eckS	-3479
ecut	-3480
edAt	-3481
elds	-3482
enCl	-3483
endI	-3484
enuI	-3485
enum	-3486
errM	-3487
erru	-3488
eteS	-3489
etre	-3490
hang	-3491
heck	-3492
ideM	-3493
idep	-3494
ierP	-3495
igur	-3496
inds	-3497
iteB	-3498
iveT	-3499
0,4	-3500
0,6	-3501
0,7	-3502
0,8	-3503
00,	-3504
60,	-3505
70,	-3506
80,	-3507
90,	-3508
ARE	-3509
bcO	-3510
eAt	-3511
htl	-3512
imu	-3513
xtC	-3514
▁ME	-3515
▁MO	-3516
▁rn	-3517
▁xp	-3518
ELEC	-3519
ackl	-3520
acks	-3521
ainf	-3522
dbcO	-3523
elim	-3524
ffer	-3525
iliz	-3526
inim	-3527
ixSt	-3528
izeH	-3529
izep	-3530
lEle	-3531
lace	-3532
lass	-3533
left	-3534
lete	-3535
lock	-3536
lone	-3537
lose	-3538
main	-3539
meth	-3540
nore	-3541
okes	-3542
olum	-3543
orSt	-3544
ored	-3545
oreg	-3546
ores	-3547
orkA	-3548
orks	-3549
osit	-3550
ound	-3551
ount	-3552
outD	-3553
outM	-3554
ower	-3555
pAnd	-3556
pStr	-3557
pdat	-3558
pend	-3559
phic	-3560
play	-3561
pose	-3562
pupM	-3563
pupO	-3564
pupV	-3565
putD	-3566
putS	-3567
rayL	-3568
reId	-3569
recT	-3570
ridB	-3571
rigg	-3572
rray	-3573
rror	-3574
seLe	-3575
side	-3576
ssed	-3577
stom	-3578
tack	-3579
terr	-3580
trie	-3581
user	-3582
ushb	-3583
util	-3584
vant	-3585
ween	-3586
wner	-3587
word	-3588
xtre	-3589
yStr	-3590
ypes	-3591
▁(((	-3592
▁234	-3593
▁Aft	-3594
▁Bal	-3595
▁Buf	-3596
▁CON	-3597
▁Cop	-3598
▁Dep	-3599
40.	-3600
7.1	-3601
Bui	-3602
Sup	-3603
TIN	-3604
alP	-3605
apt	-3606
bol	-3607
ddA	-3608
ddE	-3609
ddL	-3610
ddS	-3611
dds	-3612
rap	-3613
sag	-3614
upO	-3615
upV	-3616
upd	-3617
▁Gu	-3618
▁MU	-3619
▁RE	-3620
▁Ri	-3621
▁Ro	-3622
0"";	-3623
Shap	-3624
ainF	-3625
arra	-3626
ault	-3627
dLab	-3628
dded	-3629
ddit	-3630
ddre	-3631
mLab	-3632
nfor	-3633
romA	-3634
romV	-3635
tifi	-3636
uctV	-3637
uctu	-3638
ultS	-3639
ults	-3640
▁102	-3641
▁FRO	-3642
▁Fet	-3643
▁Fir	-3644
▁Gri	-3645
▁Han	-3646
▁INJ	-3647
▁Ign	-3648
▁Inn	-3649
▁Jav	-3650
▁Lab	-3651
▁MET	-3652
▁MOD	-3653
▁Men	-3654
▁Mer	-3655
▁PAR	-3656
▁Rec	-3657
▁Ref	-3658
▁Rig	-3659
▁SEN	-3660
▁Tak	-3661
▁aft	-3662
▁alg	-3663
▁als	-3664
▁boo	-3665
▁bot	-3666
▁che	-3667
▁clS	-3668
▁cli	-3669
▁clo	-3670
▁dec	-3671
▁div	-3672
▁dra	-3673
▁dum	-3674
▁ele	-3675
▁fil	-3676
▁fir	-3677
▁giv	-3678
▁her	-3679
▁hid	-3680
▁imm	-3681
▁isI	-3682
▁isJ	-3683
▁jav	-3684
▁kee	-3685
▁loo	-3686
▁mou	-3687
▁nav	-3688
▁num	-3689
▁ont	-3690
▁opS	-3691
▁pee	-3692
▁pus	-3693
▁quo	-3694
▁syn	-3695
▁tim	-3696
▁und	-3697
▁unn	-3698
▁unt	-3699
86	-3700
90	-3701
=0	-3702
Tp	-3703
eH	-3704
ei	-3705
oV	-3706
pi	-3707
tu	-3708
we	-3709
xT	-3710
age	-3711
ddW	-3712
elL	-3713
hap	-3714
hin	-3715
imp	-3716
mNo	-3717
mpa	-3718
nen	-3719
niz	-3720
omp	-3721
sNo	-3722
tNo	-3723
veA	-3724
veC	-3725
veM	-3726
veS	-3727
veT	-3728
▁Am	-3729
▁JM	-3730
▁Sk	-3731
▁li	-3732
▁pe	-3733
ches	-3734
ectD	-3735
entP	-3736
eryV	-3737
extA	-3738
extI	-3739
extL	-3740
extO	-3741
mput	-3742
once	-3743
owIn	-3744
tSha	-3745
▁Imp	-3746
▁Sha	-3747
▁Sym	-3748
▁fin	-3749
▁sam	-3750
▁whi	-3751
"""",	-3752
(20,7	-3753
(60,6	-3754
(60,7	-3755
0,100	-3756
100,1	-3757
140.1	-3758
20,25	-3759
20,40	-3760
5,255	-3761
5,5);	-3762
5,97,	-3763
50"";	-3764
59,97	-3765
92.37	-3766
AVING	-3767
Adapt	-3768
AndPo	-3769
Backg	-3770
Bound	-3771
DataB	-3772
EBSha	-3773
EMOVE	-3774
EPORT	-3775
False	-3776
Ident	-3777
Inser	-3778
JdbcO	-3779
LeftA	-3780
LineS	-3781
Lists	-3782
NSIDE	-3783
Pathp	-3784
Popup	-3785
RIPTI	-3786
ReadV	-3787
SCurs	-3788
Sidep	-3789
TextA	-3790
TextS	-3791
TimeB	-3792
ToBro	-3793
abase	-3794
ablis	-3795
ackCh	-3796
ackRe	-3797
ackTo	-3798
agLay	-3799
+"	-3800
82	-3801
Fr	-3802
GE	-3803
Ta	-3804
hI	-3805
tO	-3806
");	-3807
Col	-3808
Cur	-3809
Siz	-3810
ToB	-3811
cis	-3812
hol	-3813
ifa	-3814
ifi	-3815
nab	-3816
olu	-3817
olv	-3818
onG	-3819
ool	-3820
oun	-3821
reE	-3822
run	-3823
seE	-3824
seL	-3825
seO	-3826
seP	-3827
sed	-3828
unb	-3829
vol	-3830
zed	-3831
▁Ad	-3832
▁Al	-3833
▁Im	-3834
▁JL	-3835
▁JP	-3836
▁Ja	-3837
▁Ot	-3838
▁To	-3839
▁Tr	-3840
()&&	-3841
8181	-3842
Mess	-3843
ackV	-3844
athp	-3845
cute	-3846
eniz	-3847
essR	-3848
ineS	-3849
ixTo	-3850
kens	-3851
odif	-3852
olut	-3853
oniz	-3854
pply	-3855
sult	-3856
unct	-3857
unit	-3858
▁Col	-3859
▁Oth	-3860
▁Siz	-3861
▁VAL	-3862
▁ifp	-3863
▁sol	-3864
▁sto	-3865
▁tra	-3866
ListS	-3867
ainSt	-3868
ained	-3869
ainer	-3870
aking	-3871
allow	-3872
anges	-3873
ardEx	-3874
ariab	-3875
array	-3876
artif	-3877
ateEx	-3878
atedV	-3879
ately	-3880
atere	-3881
atorp	-3882
avaId	-3883
ayMod	-3884
ayStr	-3885
boutM	-3886
ccord	-3887
cessS	-3888
ching	-3889
chron	-3890
ctive	-3891
ctual	-3892
dateD	-3893
dbcod	-3894
dding	-3895
dicat	-3896
djust	-3897
eased	-3898
ecess	-3899
Ob	-3900
UB	-3901
ea	-3902
mE	-3903
nl	-3904
pm	-3905
rk	-3906
sT	-3907
yB	-3908
Fir	-3909
ToA	-3910
Tok	-3911
Wit	-3912
agL	-3913
aly	-3914
cei	-3915
chQ	-3916
cog	-3917
etA	-3918
etC	-3919
han	-3920
hav	-3921
het	-3922
ina	-3923
itB	-3924
itc	-3925
leE	-3926
nce	-3927
onP	-3928
pon	-3929
sTo	-3930
tan	-3931
tit	-3932
tra	-3933
vis	-3934
xce	-3935
▁DR	-3936
▁SL	-3937
▁wi	-3938
alTo	-3939
allB	-3940
alls	-3941
ectN	-3942
ence	-3943
gist	-3944
ingl	-3945
isib	-3946
istS	-3947
ists	-3948
ited	-3949
itle	-3950
naly	-3951
real	-3952
tain	-3953
urce	-3954
▁Del	-3955
▁Des	-3956
▁Don	-3957
▁Lay	-3958
▁imp	-3959
▁pen	-3960
▁ref	-3961
▁siz	-3962
▁win	-3963
▁wri	-3964
(""""	-3965
.37.1	-3966
aintC	-3967
aintD	-3968
aintV	-3969
ceMod	-3970
eckNo	-3971
ecute	-3972
edraw	-3973
elLab	-3974
elong	-3975
empor	-3976
ensit	-3977
entri	-3978
erBeg	-3979
ernal	-3980
esLab	-3981
essTo	-3982
essed	-3983
essor	-3984
esult	-3985
etere	-3986
eters	-3987
extOp	-3988
fered	-3989
ginal	-3990
hapeC	-3991
heses	-3992
hesis	-3993
howIn	-3994
hread	-3995
ializ	-3996
iffer	-3997
ightl	-3998
igned	-3999
OS	-4000
TO	-4001
mS	-4002
rg	-4003
sE	-4004
wn	-4005
1);	-4006
Clo	-4007
adV	-4008
adc	-4009
ady	-4010
ait	-4011
arr	-4012
cce	-4013
ckC	-4014
ckM	-4015
ckN	-4016
ckT	-4017
cks	-4018
det	-4019
dit	-4020
emA	-4021
erR	-4022
fal	-4023
hit	-4024
ipp	-4025
iti	-4026
len	-4027
lit	-4028
lon	-4029
nit	-4030
seD	-4031
sit	-4032
sol	-4033
stF	-4034
utB	-4035
60);	-4036
ModP	-4037
ader	-4038
aliz	-4039
ctor	-4040
eckB	-4041
mpty	-4042
road	-4043
stan	-4044
star	-4045
ullI	-4046
umer	-4047
verP	-4048
verS	-4049
verT	-4050
vers	-4051
▁por	-4052
▁pos	-4053
▁tem	-4054
Manag	-4055
acted	-4056
etMod	-4057
imeTo	-4058
imple	-4059
inary	-4060
ingTo	-4061
isual	-4062
iteBo	-4063
iting	-4064
iveTh	-4065
ively	-4066
ixTop	-4067
keniz	-4068
learD	-4069
light	-4070
llEle	-4071
manag	-4072
matic	-4073
mbols	-4074
mized	-4075
moveA	-4076
mpute	-4077
nalyz	-4078
nform	-4079
nized	-4080
ogicp	-4081
olete	-4082
ometh	-4083
oneNo	-4084
onfir	-4085
onger	-4086
onseT	-4087
onver	-4088
orary	-4089
orker	-4090
ortTo	-4091
orted	-4092
orter	-4093
oseOp	-4094
ouseD	-4095
ouseE	-4096
ouseP	-4097
ouseR	-4098
ouseU	-4099
)&	-4100
1)	-4101
Ma	-4102
co	-4103
lD	-4104
nD	-4105
sI	-4106
=""	-4107
Bas	-4108
Cas	-4109
Def	-4110
Inf	-4111
Opt	-4112
Ref	-4113
Reg	-4114
aba	-4115
alo	-4116
bas	-4117
cas	-4118
eRe	-4119
ept	-4120
erC	-4121
erm	-4122
etD	-4123
etP	-4124
fRe	-4125
isI	-4126
isu	-4127
kRe	-4128
mpt	-4129
oul	-4130
ttr	-4131
yID	-4132
▁Ab	-4133
▁JT	-4134
▁Ta	-4135
▁aw	-4136
▁bu	-4137
▁lb	-4138
▁lo	-4139
90,2	-4140
Modi	-4141
Node	-4142
Subs	-4143
abas	-4144
crib	-4145
ctRe	-4146
cter	-4147
edRe	-4148
etRe	-4149
pted	-4150
subs	-4151
tSup	-4152
udes	-4153
wMod	-4154
▁=""	-4155
▁Dat	-4156
▁bal	-4157
▁bet	-4158
▁cas	-4159
▁las	-4160
▁lin	-4161
▁mRe	-4162
▁sRe	-4163
▁tas	-4164
▁wil	-4165
%"");	-4166
0"");	-4167
LineN	-4168
Modul	-4169
Split	-4170
ateRe	-4171
ceive	-4172
ouble	-4173
paint	-4174
patch	-4175
peLab	-4176
pecif	-4177
place	-4178
press	-4179
pupOp	-4180
query	-4181
readP	-4182
reads	-4183
reced	-4184
recog	-4185
right	-4186
romAt	-4187
rying	-4188
sMenu	-4189
ssion	-4190
sting	-4191
tData	-4192
tLine	-4193
tList	-4194
tText	-4195
teger	-4196
tered	-4197
therw	-4198
tific	-4199
Cu	-4200
Ea	-4201
Sh	-4202
aw	-4203
dB	-4204
eQ	-4205
ld	-4206
ln	-4207
nF	-4208
op	-4209
Spe	-4210
Tab	-4211
ape	-4212
gen	-4213
gin	-4214
has	-4215
peB	-4216
peC	-4217
peL	-4218
pec	-4219
rip	-4220
rra	-4221
tex	-4222
▁Pu	-4223
▁na	-4224
▁ta	-4225
"",5	-4226
Driv	-4227
Find	-4228
Sear	-4229
abel	-4230
aged	-4231
berL	-4232
berM	-4233
berT	-4234
berm	-4235
berv	-4236
cent	-4237
equi	-4238
keni	-4239
lean	-4240
mber	-4241
nent	-4242
onso	-4243
stat	-4244
urns	-4245
▁Cle	-4246
▁Ple	-4247
▁Por	-4248
▁Pro	-4249
▁fal	-4250
▁inS	-4251
▁inc	-4252
▁inp	-4253
▁inv	-4254
▁toV	-4255
▁wer	-4256
aints	-4257
alueI	-4258
alueR	-4259
gName	-4260
hName	-4261
jName	-4262
jectV	-4263
sName	-4264
tract	-4265
tream	-4266
truct	-4267
ucted	-4268
ullIn	-4269
ultCl	-4270
ureID	-4271
ureId	-4272
using	-4273
utStr	-4274
uteQu	-4275
utine	-4276
uting	-4277
utput	-4278
veMod	-4279
wList	-4280
wText	-4281
ymbol	-4282
ystem	-4283
|1015	-4284
▁"",2	-4285
▁""\\	-4286
▁....	-4287
▁1/10	-4288
▁2/10	-4289
▁AddA	-4290
▁AddS	-4291
▁Bord	-4292
▁CLAS	-4293
▁CPAR	-4294
▁Clic	-4295
▁Comb	-4296
▁Conf	-4297
▁Curr	-4298
▁Deco	-4299
63	-4300
CO	-4301
Va	-4302
dA	-4303
hm	-4304
oT	-4305
tF	-4306
Out	-4307
Rep	-4308
arN	-4309
ced	-4310
ctV	-4311
ded	-4312
edA	-4313
edE	-4314
edM	-4315
edr	-4316
era	-4317
ged	-4318
gur	-4319
hed	-4320
itD	-4321
itP	-4322
ked	-4323
led	-4324
nam	-4325
orS	-4326
pub	-4327
reC	-4328
sar	-4329
sto	-4330
ues	-4331
uti	-4332
ved	-4333
wed	-4334
▁CL	-4335
▁Ca	-4336
▁ES	-4337
▁Pa	-4338
▁Pr	-4339
▁aS	-4340
▁af	-4341
▁ap	-4342
▁av	-4343
▁gi	-4344
▁sR	-4345
,"";	-4346
Deco	-4347
Valu	-4348
andW	-4349
arch	-4350
ards	-4351
attr	-4352
crip	-4353
entI	-4354
eses	-4355
etur	-4356
ined	-4357
ingS	-4358
lMod	-4359
oseO	-4360
seRe	-4361
▁""|	-4362
▁0.0	-4363
▁Are	-4364
▁Cal	-4365
▁Cur	-4366
▁aut	-4367
▁fro	-4368
▁gen	-4369
▁ind	-4370
▁mat	-4371
▁neg	-4372
▁sta	-4373
▁tru	-4374
▁wan	-4375
Obsol	-4376
aluat	-4377
ccurs	-4378
chine	-4379
gText	-4380
mentp	-4381
mment	-4382
ument	-4383
▁Enum	-4384
▁GetS	-4385
▁Hand	-4386
▁JLab	-4387
▁METH	-4388
▁Merg	-4389
▁Mess	-4390
▁PARS	-4391
▁Runn	-4392
▁Sear	-4393
▁Sock	-4394
▁Sour	-4395
▁Stan	-4396
▁Valu	-4397
▁Vari	-4398
▁Whit	-4399
16	-4400
Ac	-4401
SL	-4402
aB	-4403
eC	-4404
kB	-4405
lv	-4406
tL	-4407
ti	-4408
wA	-4409
▁L	-4410
7);	-4411
But	-4412
Has	-4413
LOS	-4414
Obs	-4415
agC	-4416
arD	-4417
arV	-4418
atc	-4419
aut	-4420
bat	-4421
bou	-4422
ckS	-4423
ckV	-4424
cod	-4425
cut	-4426
ddC	-4427
elN	-4428
equ	-4429
erE	-4430
fro	-4431
har	-4432
inS	-4433
ket	-4434
las	-4435
les	-4436
odP	-4437
odb	-4438
par	-4439
rin	-4440
rog	-4441
rro	-4442
seU	-4443
sel	-4444
uta	-4445
uto	-4446
▁de	-4447
▁fu	-4448
▁od	-4449
▁}/	-4450
ager	-4451
args	-4452
aril	-4453
arse	-4454
ateD	-4455
cket	-4456
inar	-4457
orar	-4458
qual	-4459
quat	-4460
quer	-4461
utin	-4462
▁Dis	-4463
▁Has	-4464
▁dis	-4465
▁tri	-4466
$"");	-4467
NameL	-4468
TextI	-4469
anced	-4470
andar	-4471
arent	-4472
essar	-4473
ionar	-4474
oText	-4475
putSy	-4476
▁Syst	-4477
▁Wind	-4478
▁acce	-4479
▁addC	-4480
▁algo	-4481
▁blan	-4482
▁bott	-4483
▁clSy	-4484
▁clas	-4485
▁clos	-4486
▁comm	-4487
▁cond	-4488
▁conf	-4489
▁coul	-4490
▁coun	-4491
▁curr	-4492
▁defa	-4493
▁door	-4494
▁elim	-4495
▁empt	-4496
▁errM	-4497
▁exer	-4498
▁getD	-4499
It	-4500
SH	-4501
TE	-4502
dc	-4503
eR	-4504
ng	-4505
nv	-4506
wT	-4507
ze	-4508
Del	-4509
Dep	-4510
LEC	-4511
Mes	-4512
aul	-4513
ban	-4514
bel	-4515
ces	-4516
dEx	-4517
dul	-4518
elF	-4519
elH	-4520
eli	-4521
esI	-4522
esL	-4523
esc	-4524
ges	-4525
icl	-4526
iel	-4527
kes	-4528
lan	-4529
let	-4530
miz	-4531
nch	-4532
odi	-4533
rib	-4534
ses	-4535
sul	-4536
uan	-4537
ula	-4538
unn	-4539
utS	-4540
wan	-4541
zes	-4542
▁..	-4543
▁eI	-4544
▁ef	-4545
20,4	-4546
arts	-4547
dStr	-4548
esis	-4549
esul	-4550
ineN	-4551
ionE	-4552
ionG	-4553
ionL	-4554
ionP	-4555
iona	-4556
ions	-4557
mpos	-4558
odel	-4559
rack	-4560
rawA	-4561
rout	-4562
scri	-4563
tems	-4564
tion	-4565
▁Con	-4566
▁Def	-4567
▁gra	-4568
▁oth	-4569
▁pan	-4570
▁pul	-4571
61020	-4572
FromD	-4573
aintF	-4574
ision	-4575
jectC	-4576
rintl	-4577
ulate	-4578
▁Dial	-4579
▁deco	-4580
▁getF	-4581
▁getG	-4582
▁getL	-4583
▁getM	-4584
▁getQ	-4585
▁getR	-4586
▁getT	-4587
▁incl	-4588
▁intV	-4589
▁inte	-4590
▁isEm	-4591
▁item	-4592
▁iter	-4593
▁mMod	-4594
▁mess	-4595
▁meth	-4596
▁opSt	-4597
▁oper	-4598
▁pend	-4599
ND	-4600
Or	-4601
cO	-4602
eq	-4603
hS	-4604
ia	-4605
kV	-4606
md	-4607
rt	-4608
sJ	-4609
sV	-4610
Han	-4611
Pan	-4612
Tex	-4613
amR	-4614
ana	-4615
cel	-4616
ckB	-4617
ctD	-4618
eNo	-4619
ean	-4620
esp	-4621
gth	-4622
hid	-4623
idt	-4624
inv	-4625
man	-4626
ols	-4627
ove	-4628
qua	-4629
ram	-4630
tar	-4631
teT	-4632
wid	-4633
xam	-4634
▁Di	-4635
▁JF	-4636
▁er	-4637
▁mn	-4638
Vect	-4639
alan	-4640
amet	-4641
amin	-4642
cker	-4643
ectC	-4644
ecte	-4645
ecti	-4646
eteR	-4647
fect	-4648
ibut	-4649
intD	-4650
intF	-4651
intV	-4652
inte	-4653
intl	-4654
ints	-4655
iver	-4656
nect	-4657
oreC	-4658
priv	-4659
tect	-4660
uteS	-4661
verI	-4662
▁Pas	-4663
▁cal	-4664
▁man	-4665
▁nam	-4666
▁rem	-4667
▁ret	-4668
,"");	-4669
RegFl	-4670
alled	-4671
edMod	-4672
etect	-4673
event	-4674
ident	-4675
inter	-4676
nment	-4677
rameP	-4678
riter	-4679
ventI	-4680
ventN	-4681
ventP	-4682
ventS	-4683
▁cent	-4684
▁cust	-4685
▁getI	-4686
▁plac	-4687
▁prog	-4688
▁quer	-4689
▁rele	-4690
▁remo	-4691
▁requ	-4692
▁resp	-4693
▁sMod	-4694
▁sReq	-4695
▁sear	-4696
▁setB	-4697
▁setE	-4698
▁setI	-4699
Be	-4700
gg	-4701
uP	-4702
};	-4703
3);	-4704
Ass	-4705
Fal	-4706
Hid	-4707
Sid	-4708
alS	-4709
alT	-4710
ala	-4711
alg	-4712
ali	-4713
cal	-4714
elT	-4715
esu	-4716
nre	-4717
orC	-4718
oth	-4719
sid	-4720
tal	-4721
use	-4722
▁Af	-4723
▁CP	-4724
▁DO	-4725
▁OP	-4726
▁mD	-4727
▁mE	-4728
▁mM	-4729
▁mP	-4730
▁mR	-4731
▁mS	-4732
▁ma	-4733
▁ml	-4734
▁ms	-4735
▁va	-4736
▁ve	-4737
▁vi	-4738
▁vo	-4739
20,2	-4740
Door	-4741
Merg	-4742
ateE	-4743
ateI	-4744
ateP	-4745
ateR	-4746
ateS	-4747
ateV	-4748
atel	-4749
atem	-4750
eren	-4751
ical	-4752
late	-4753
ontr	-4754
otif	-4755
romD	-4756
tate	-4757
utab	-4758
vate	-4759
▁Dec	-4760
▁Inv	-4761
▁exe	-4762
▁mer	-4763
▁mre	-4764
▁nex	-4765
▁onl	-4766
▁val	-4767
actRe	-4768
erate	-4769
eturn	-4770
icate	-4771
inate	-4772
mentA	-4773
nject	-4774
reate	-4775
ubleC	-4776
▁255,	-4777
▁OPAR	-4778
▁chan	-4779
▁setL	-4780
▁setM	-4781
▁setQ	-4782
▁setT	-4783
▁setV	-4784
▁sing	-4785
▁stan	-4786
▁stat	-4787
▁strE	-4788
▁subs	-4789
▁swit	-4790
▁symb	-4791
▁tTot	-4792
▁targ	-4793
▁theL	-4794
▁theS	-4795
▁thep	-4796
▁thes	-4797
▁toAt	-4798
▁topA	-4799
.0	-4800
87	-4801
Gu	-4802
Hi	-4803
JM	-4804
fe	-4805
gC	-4806
sL	-4807
su	-4808
()$	-4809
()%	-4810
()&	-4811
()>	-4812
ALU	-4813
Cal	-4814
Gri	-4815
NoR	-4816
Por	-4817
Val	-4818
dal	-4819
dis	-4820
elD	-4821
erN	-4822
etG	-4823
etp	-4824
ies	-4825
isJ	-4826
isS	-4827
isi	-4828
lor	-4829
mis	-4830
ntr	-4831
oad	-4832
orM	-4833
orN	-4834
orm	-4835
orp	-4836
por	-4837
ror	-4838
seS	-4839
sis	-4840
tTo	-4841
utD	-4842
utM	-4843
val	-4844
wor	-4845
▁es	-4846
▁mN	-4847
▁nE	-4848
▁nP	-4849
()""	-4850
Vari	-4851
alre	-4852
ckRe	-4853
egin	-4854
else	-4855
extS	-4856
heth	-4857
leas	-4858
noth	-4859
onal	-4860
roug	-4861
▁Det	-4862
▁Gra	-4863
▁Pan	-4864
▁ban	-4865
▁inf	-4866
▁tTo	-4867
▁wit	-4868
LeftS	-4869
Modif	-4870
culat	-4871
extID	-4872
forms	-4873
▁setS	-4874
▁topO	-4875
▁trac	-4876
▁unit	-4877
▁unre	-4878
▁vari	-4879
▁vect	-4880
▁whic	-4881
▁wind	-4882
"""");	-4883
$$$$$$	-4884
%%"");	-4885
%%%%%%	-4886
&&&&&&	-4887
("""",	-4888
()$$$$	-4889
()%%%%	-4890
()&&&&	-4891
()>>>>	-4892
(305,2	-4893
(60,13	-4894
0,225,	-4895
0,25);	-4896
00)));	-4897
0|"");	-4898
100,10	-4899
02	-4900
AI	-4901
An	-4902
El	-4903
PO	-4904
Sl	-4905
kC	-4906
mx	-4907
oe	-4908
qn	-4909
sb	-4910
tP	-4911
▁	-4912
e	-4913
t	-4914
r	-4915
i	-4916
n	-4917
a	-4918
o	-4919
s	-4920
l	-4921
u	-4922
c	-4923
p	-4924
d	-4925
m	-4926
v	-4927
g	-4928
b	-4929
h	-4930
"	-4931
S	-4932
(	-4933
;	-4934
)	-4935
.	-4936
=	-4937
f	-4938
/	-4939
{	-4940
*	-4941
E	-4942
y	-4943
D	-4944
P	-4945
T	-4946
w	-4947
,	-4948
I	-4949
C	-4950
N	-4951
k	-4952
L	-4953
}	-4954
R	-4955
q	-4956
V	-4957
x	-4958
A	-4959
M	-4960
0	-4961
j	-4962
+	-4963
B	-4964
_	-4965
1	-4966
O	-4967
J	-4968
z	-4969
G	-4970
\	-4971
F	-4972
@	-4973
2	-4974
5	-4975
7	-4976
|	-4977
%	-4978
H	-4979
>	-4980
W	-4981
$	-4982
&	-4983
6	-4984
U	-4985
3	-4986
Q	-4987
-	-4988
8	-4989
9	-4990
:	-4991
!	-4992
4	-4993
<	-4994
[	-4995
]	-4996
