<pad>	0
<unk>	0
<s>	0
</s>	0
▁t	-0
in	-1
er	-2
▁a	-3
▁.	-4
on	-5
▁(	-6
▁)	-7
▁,	-8
he	-9
re	-10
▁s	-11
at	-12
en	-13
or	-14
▁the	-15
▁c	-16
▁=	-17
es	-18
▁f	-19
ed	-20
al	-21
is	-22
▁p	-23
an	-24
it	-25
ar	-26
▁w	-27
▁o	-28
▁in	-29
el	-30
et	-31
ing	-32
ion	-33
▁b	-34
▁d	-35
▁re	-36
as	-37
ro	-38
▁n	-39
nd	-40
ic	-41
le	-42
▁m	-43
▁;	-44
ur	-45
▁of	-46
am	-47
▁to	-48
▁"	-49
▁and	-50
ent	-51
▁:	-52
▁l	-53
▁g	-54
▁h	-55
▁i	-56
▁S	-57
ct	-58
▁'	-59
ut	-60
st	-61
ce	-62
il	-63
▁T	-64
▁th	-65
ul	-66
▁e	-67
id	-68
ad	-69
▁{	-70
▁1	-71
om	-72
se	-73
▁}	-74
tr	-75
▁C	-76
▁A	-77
ot	-78
ol	-79
▁for	-80
▁if	-81
un	-82
▁[	-83
ig	-84
▁]	-85
od	-86
elf	-87
▁v	-88
im	-89
▁self	-90
ch	-91
pt	-92
▁get	-93
▁I	-94
▁@	-95
▁M	-96
ame	-97
urn	-98
ter	-99
ra	-100
▁de	-101
ation	-102
▁ret	-103
▁is	-104
ate	-105
pe	-106
▁st	-107
ag	-108
us	-109
iv	-110
▁return	-111
▁B	-112
▁N	-113
um	-114
▁con	-115
ir	-116
▁on	-117
ck	-118
▁was	-119
ue	-120
ew	-121
em	-122
ers	-123
ow	-124
ist	-125
ly	-126
th	-127
ub	-128
▁P	-129
▁be	-130
ith	-131
▁as	-132
ab	-133
▁The	-134
est	-135
▁F	-136
▁R	-137
ay	-138
ect	-139
ver	-140
▁H	-141
▁D	-142
▁2	-143
ex	-144
qu	-145
up	-146
-@	-147
▁@-@	-148
▁L	-149
and	-150
▁ex	-151
▁with	-152
▁wh	-153
end	-154
▁pro	-155
ess	-156
▁E	-157
▁k	-158
▁al	-159
▁it	-160
▁0	-161
▁O	-162
▁new	-163
▁_	-164
if	-165
res	-166
▁that	-167
tring	-168
▁r	-169
▁by	-170
▁+	-171
lo	-172
▁W	-173
▁at	-174
ption	-175
ain	-176
▁G	-177
ile	-178
pp	-179
all	-180
▁an	-181
rom	-182
▁def	-183
▁<	-184
art	-185
▁el	-186
▁not	-187
ere	-188
av	-189
▁he	-190
ass	-191
▁com	-192
▁res	-193
ath	-194
os	-195
ype	-196
ort	-197
lic	-198
ull	-199
ug	-200
ult	-201
▁J	-202
▁>	-203
age	-204
one	-205
▁/	-206
ri	-207
▁#	-208
und	-209
ey	-210
▁se	-211
oc	-212
our	-213
ment	-214
▁int	-215
ore	-216
op	-217
pl	-218
▁from	-219
iz	-220
▁ch	-221
▁String	-222
ap	-223
▁19	-224
ord	-225
ies	-226
ata	-227
alue	-228
ode	-229
00	-230
igh	-231
og	-232
ack	-233
▁In	-234
ity	-235
▁tr	-236
▁ad	-237
▁fin	-238
▁pub	-239
able	-240
ception	-241
ak	-242
ext	-243
▁ar	-244
▁*	-245
ber	-246
Ex	-247
ill	-248
out	-249
ime	-250
ac	-251
▁null	-252
ip	-253
ction	-254
ure	-255
row	-256
▁public	-257
▁sh	-258
ong	-259
ine	-260
per	-261
▁j	-262
▁==	-263
▁his	-264
ud	-265
▁or	-266
ant	-267
ge	-268
ard	-269
ive	-270
▁this	-271
▁U	-272
oun	-273
▁//	-274
rit	-275
ance	-276
▁cl	-277
▁set	-278
int	-279
ject	-280
ial	-281
ff	-282
cl	-283
▁None	-284
ated	-285
▁y	-286
ast	-287
ib	-288
ars	-289
▁cont	-290
nt	-291
ire	-292
ov	-293
orm	-294
▁pl	-295
ust	-296
▁else	-297
ase	-298
ost	-299
ich	-300
▁-	-301
▁K	-302
arg	-303
ror	-304
▁were	-305
are	-306
ight	-307
▁V	-308
act	-309
con	-310
ition	-311
ans	-312
▁final	-313
Exception	-314
ild	-315
▁add	-316
erv	-317
ice	-318
▁app	-319
ok	-320
Con	-321
▁!	-322
▁un	-323
Name	-324
cc	-325
pon	-326
ary	-327
port	-328
▁le	-329
In	-330
put	-331
ugh	-332
▁St	-333
▁out	-334
▁are	-335
name	-336
ide	-337
quest	-338
ory	-339
▁3	-340
iel	-341
atch	-342
▁en	-343
St	-344
ec	-345
ave	-346
▁had	-347
ign	-348
ace	-349
▁which	-350
ell	-351
ress	-352
ize	-353
▁form	-354
▁name	-355
▁sc	-356
▁ro	-357
▁ra	-358
ield	-359
aram	-360
ork	-361
bject	-362
▁len	-363
oul	-364
irst	-365
▁pr	-366
use	-367
ia	-368
ict	-369
▁str	-370
▁value	-371
ical	-372
ould	-373
▁has	-374
ail	-375
ount	-376
ind	-377
ev	-378
ther	-379
▁throw	-380
ence	-381
▁up	-382
ep	-383
▁%	-384
ef	-385
▁pre	-386
▁Ch	-387
ound	-388
▁us	-389
fig	-390
ry	-391
▁key	-392
eg	-393
▁stat	-394
▁im	-395
ource	-396
low	-397
▁Th	-398
Type	-399
▁data	-400
hed	-401
▁fil	-402
eth	-403
▁we	-404
▁first	-405
▁result	-406
ish	-407
fter	-408
▁but	-409
▁col	-410
ens	-411
ise	-412
ld	-413
ous	-414
▁x	-415
ian	-416
▁ind	-417
ree	-418
ax	-419
ph	-420
▁!=	-421
so	-422
▁bu	-423
▁200	-424
▁cre	-425
str	-426
▁ab	-427
ix	-428
own	-429
ang	-430
▁4	-431
ator	-432
vent	-433
▁log	-434
ert	-435
▁time	-436
▁rec	-437
▁dis	-438
▁bo	-439
rror	-440
form	-441
stance	-442
ations	-443
▁do	-444
alse	-445
ray	-446
▁per	-447
▁20	-448
roup	-449
Id	-450
tern	-451
te	-452
ll	-453
ome	-454
▁comp	-455
ions	-456
gth	-457
Error	-458
du	-459
ater	-460
oid	-461
▁path	-462
▁arg	-463
▁try	-464
▁part	-465
wo	-466
ery	-467
ponse	-468
▁sub	-469
▁have	-470
hen	-471
▁its	-472
oint	-473
ach	-474
ear	-475
lass	-476
esc	-477
▁comm	-478
▁append	-479
ames	-480
fo	-481
▁her	-482
ient	-483
▁5	-484
▁one	-485
--	-486
▁off	-487
▁su	-488
ob	-489
Res	-490
▁num	-491
▁their	-492
▁rem	-493
ute	-494
ener	-495
als	-496
ces	-497
▁–	-498
clud	-499
▁also	-500
▁Tr	-501
ings	-502
son	-503
ark	-504
▁writ	-505
amp	-506
▁who	-507
▁He	-508
oth	-509
ann	-510
ty	-511
urre	-512
IN	-513
List	-514
Re	-515
▁end	-516
▁start	-517
pec	-518
▁ent	-519
▁all	-520
erm	-521
▁ag	-522
▁id	-523
Pro	-524
▁&	-525
▁list	-526
ual	-527
▁void	-528
▁format	-529
▁val	-530
▁over	-531
▁co	-532
ER	-533
set	-534
ik	-535
ents	-536
essage	-537
val	-538
old	-539
▁bec	-540
▁been	-541
▁two	-542
▁qu	-543
▁18	-544
ite	-545
ethod	-546
ervice	-547
▁sy	-548
les	-549
fer	-550
type	-551
ange	-552
vel	-553
En	-554
ied	-555
.@	-556
▁@.@	-557
ader	-558
▁mod	-559
▁tra	-560
uring	-561
ick	-562
ues	-563
ON	-564
ole	-565
▁Ar	-566
ade	-567
▁It	-568
che	-569
trib	-570
file	-571
▁sp	-572
args	-573
cept	-574
ely	-575
▁class	-576
▁after	-577
ream	-578
▁other	-579
▁Con	-580
▁lo	-581
▁er	-582
iew	-583
ates	-584
▁201	-585
ection	-586
ms	-587
▁pos	-588
iss	-589
try	-590
,@	-591
▁@,@	-592
▁includ	-593
▁request	-594
mer	-595
▁sup	-596
ake	-597
ough	-598
ced	-599
▁type	-600
Value	-601
eat	-602
▁go	-603
ft	-604
▁Y	-605
▁loc	-606
▁man	-607
▁Un	-608
▁play	-609
▁6	-610
▁work	-611
ss	-612
we	-613
ove	-614
ari	-615
▁static	-616
▁they	-617
▁reg	-618
▁length	-619
▁while	-620
▁call	-621
▁raise	-622
ger	-623
land	-624
Cont	-625
ault	-626
▁inter	-627
path	-628
ward	-629
led	-630
▁into	-631
▁att	-632
ors	-633
▁file	-634
ask	-635
ered	-636
cond	-637
til	-638
urrent	-639
ument	-640
▁param	-641
▁would	-642
aw	-643
cess	-644
▁so	-645
▁ass	-646
ie	-647
ersion	-648
Ar	-649
ember	-650
ific	-651
▁On	-652
ased	-653
▁she	-654
▁char	-655
escri	-656
ccess	-657
url	-658
ric	-659
ron	-660
arn	-661
▁ser	-662
pro	-663
▁True	-664
ited	-665
▁Ex	-666
String	-667
▁op	-668
▁can	-669
▁min	-670
heck	-671
oin	-672
pr	-673
▁False	-674
ool	-675
tt	-676
ever	-677
▁Com	-678
lement	-679
▁more	-680
▁him	-681
▁ob	-682
▁long	-683
way	-684
rough	-685
ink	-686
ason	-687
▁7	-688
▁8	-689
▁only	-690
wargs	-691
Class	-692
stem	-693
read	-694
date	-695
▁prot	-696
ule	-697
com	-698
irect	-699
▁field	-700
▁when	-701
cre	-702
..	-703
▁index	-704
Bu	-705
▁bet	-706
▁act	-707
▁create	-708
att	-709
ash	-710
▁te	-711
▁line	-712
ier	-713
its	-714
▁?	-715
olean	-716
arsh	-717
▁state	-718
▁ap	-719
inal	-720
▁En	-721
▁read	-722
round	-723
app	-724
AT	-725
lock	-726
▁del	-727
sh	-728
▁trans	-729
ren	-730
arch	-731
eb	-732
▁&&	-733
▁Al	-734
▁exp	-735
ale	-736
outh	-737
▁me	-738
▁ext	-739
ose	-740
▁spec	-741
▁args	-742
▁config	-743
▁cons	-744
▁record	-745
▁event	-746
▁rel	-747
▁group	-748
get	-749
ank	-750
arget	-751
▁np	-752
▁An	-753
▁kwargs	-754
pect	-755
▁throws	-756
▁no	-757
Key	-758
ement	-759
▁size	-760
umn	-761
▁build	-762
ession	-763
fore	-764
▁9	-765
ollow	-766
ected	-767
wn	-768
▁und	-769
uth	-770
▁pass	-771
▁item	-772
▁current	-773
▁error	-774
▁met	-775
▁em	-776
▁than	-777
▁Object	-778
gan	-779
▁run	-780
▁next	-781
data	-782
▁fl	-783
▁deb	-784
▁List	-785
ized	-786
▁produ	-787
ween	-788
▁cent	-789
arshall	-790
▁response	-791
red	-792
to	-793
ines	-794
▁again	-795
Com	-796
▁kn	-797
Set	-798
ler	-799
▁during	-800
▁case	-801
Request	-802
▁dec	-803
▁catch	-804
uble	-805
key	-806
ired	-807
co	-808
▁max	-809
▁most	-810
arent	-811
ru	-812
orth	-813
▁clo	-814
ational	-815
▁rele	-816
▁bre	-817
▁ca	-818
ution	-819
ious	-820
▁des	-821
ision	-822
▁second	-823
ower	-824
ivate	-825
eter	-826
▁print	-827
▁found	-828
▁game	-829
▁contin	-830
▁Pro	-831
▁number	-832
▁par	-833
▁equ	-834
ating	-835
yn	-836
▁Over	-837
ache	-838
uct	-839
Ch	-840
ape	-841
To	-842
▁10	-843
▁about	-844
io	-845
▁199	-846
▁between	-847
▁where	-848
ID	-849
pos	-850
▁day	-851
▁Se	-852
▁z	-853
list	-854
ride	-855
▁them	-856
▁before	-857
orn	-858
▁Col	-859
▁except	-860
▁New	-861
ics	-862
ern	-863
RE	-864
▁am	-865
ins	-866
▁later	-867
Data	-868
▁through	-869
abel	-870
__	-871
▁node	-872
▁os	-873
perty	-874
ock	-875
▁boolean	-876
air	-877
▁join	-878
ST	-879
▁film	-880
ike	-881
▁song	-882
ete	-883
▁|	-884
▁__	-885
▁ac	-886
arly	-887
▁acc	-888
ative	-889
▁pe	-890
▁write	-891
ps	-892
▁At	-893
▁back	-894
▁elif	-895
▁ne	-896
ived	-897
back	-898
orld	-899
▁X	-900
az	-901
File	-902
▁there	-903
ou	-904
▁check	-905
▁This	-906
▁three	-907
ve	-908
ffer	-909
Path	-910
raph	-911
▁pol	-912
ody	-913
▁last	-914
▁high	-915
▁Sh	-916
ven	-917
▁match	-918
▁open	-919
▁put	-920
ures	-921
ton	-922
vid	-923
▁true	-924
man	-925
▁+=	-926
▁under	-927
▁private	-928
instance	-929
▁conn	-930
ek	-931
ndex	-932
time	-933
▁find	-934
rid	-935
sc	-936
▁pop	-937
ished	-938
▁some	-939
▁hand	-940
▁Q	-941
▁follow	-942
▁user	-943
▁method	-944
▁season	-945
▁orig	-946
▁use	-947
meric	-948
▁ep	-949
▁feat	-950
▁then	-951
ram	-952
At	-953
press	-954
ond	-955
ME	-956
LE	-957
ages	-958
ml	-959
▁Override	-960
▁used	-961
▁Americ	-962
yp	-963
ral	-964
▁contain	-965
By	-966
ists	-967
ally	-968
▁year	-969
▁text	-970
▁gener	-971
▁ord	-972
ears	-973
reat	-974
hip	-975
▁sign	-976
▁show	-977
dict	-978
unction	-979
Param	-980
▁Jo	-981
cy	-982
▁u	-983
ared	-984
▁instance	-985
Map	-986
▁break	-987
aid	-988
."	-989
plit	-990
iver	-991
▁made	-992
▁inv	-993
▁false	-994
▁any	-995
ily	-996
----	-997
▁url	-998
ants	-999
bum	-1000
▁sing	-1001
ause	-1002
▁child	-1003
▁such	-1004
▁head	-1005
any	-1006
▁descri	-1007
OR	-1008
ptions	-1009
ters	-1010
▁input	-1011
▁four	-1012
ities	-1013
▁mon	-1014
▁As	-1015
▁init	-1016
▁target	-1017
tribute	-1018
▁000	-1019
by	-1020
ince	-1021
▁pres	-1022
ts	-1023
of	-1024
ible	-1025
par	-1026
▁Ro	-1027
ten	-1028
ys	-1029
ner	-1030
mp	-1031
▁object	-1032
▁tem	-1033
dd	-1034
▁dif	-1035
bo	-1036
▁charact	-1037
▁output	-1038
Stream	-1039
▁flo	-1040
▁isinstance	-1041
▁team	-1042
ser	-1043
▁enc	-1044
ma	-1045
▁++	-1046
▁point	-1047
Index	-1048
lection	-1049
que	-1050
Config	-1051
▁years	-1052
ilder	-1053
sg	-1054
▁direct	-1055
▁main	-1056
itt	-1057
▁ed	-1058
load	-1059
abled	-1060
ane	-1061
▁being	-1062
▁debug	-1063
▁album	-1064
▁default	-1065
aj	-1066
owever	-1067
ices	-1068
ular	-1069
ttp	-1070
min	-1071
▁Re	-1072
uration	-1073
other	-1074
ager	-1075
Context	-1076
rop	-1077
▁repl	-1078
AR	-1079
▁Sc	-1080
Object	-1081
usic	-1082
▁logger	-1083
▁12	-1084
▁oper	-1085
Node	-1086
mb	-1087
▁rep	-1088
ename	-1089
uch	-1090
ified	-1091
▁model	-1092
Element	-1093
Un	-1094
sp	-1095
▁perform	-1096
ments	-1097
Cl	-1098
▁De	-1099
▁epis	-1100
▁appe	-1101
▁Exception	-1102
unc	-1103
ury	-1104
action	-1105
▁old	-1106
▁message	-1107
▁vari	-1108
▁sur	-1109
oot	-1110
▁against	-1111
pty	-1112
ister	-1113
▁context	-1114
AL	-1115
▁17	-1116
olog	-1117
tes	-1118
ife	-1119
▁double	-1120
Time	-1121
der	-1122
▁sever	-1123
Util	-1124
▁ref	-1125
▁series	-1126
▁will	-1127
▁both	-1128
▁obj	-1129
▁values	-1130
iles	-1131
dir	-1132
ties	-1133
▁rev	-1134
▁ph	-1135
▁ann	-1136
▁info	-1137
▁After	-1138
ained	-1139
Response	-1140
ful	-1141
▁mov	-1142
▁split	-1143
ystem	-1144
▁15	-1145
▁inst	-1146
▁16	-1147
line	-1148
▁update	-1149
▁command	-1150
ets	-1151
bers	-1152
valid	-1153
▁rece	-1154
Builder	-1155
Info	-1156
▁parent	-1157
imes	-1158
▁entry	-1159
ured	-1160
ning	-1161
ood	-1162
ported	-1163
▁exec	-1164
▁well	-1165
Message	-1166
▁service	-1167
ised	-1168
ather	-1169
▁sm	-1170
▁did	-1171
▁Wh	-1172
▁Z	-1173
▁version	-1174
▁IO	-1175
▁became	-1176
▁query	-1177
hn	-1178
State	-1179
▁including	-1180
opy	-1181
ons	-1182
▁Brit	-1183
leg	-1184
▁compl	-1185
▁row	-1186
work	-1187
ocol	-1188
▁dep	-1189
▁source	-1190
ross	-1191
utes	-1192
▁could	-1193
▁—	-1194
odes	-1195
▁process	-1196
Col	-1197
▁United	-1198
ran	-1199
▁Class	-1200
▁coun	-1201
EN	-1202
▁Le	-1203
vern	-1204
ident	-1205
Of	-1206
odel	-1207
▁Bo	-1208
▁prev	-1209
▁198	-1210
▁sim	-1211
▁||	-1212
▁msg	-1213
▁range	-1214
ING	-1215
tem	-1216
oken	-1217
erson	-1218
ailed	-1219
▁getS	-1220
▁dest	-1221
▁own	-1222
▁She	-1223
ility	-1224
ouse	-1225
▁may	-1226
▁original	-1227
add	-1228
▁mat	-1229
ponent	-1230
▁base	-1231
ches	-1232
▁mill	-1233
Field	-1234
▁resource	-1235
atus	-1236
▁mem	-1237
▁params	-1238
ined	-1239
▁art	-1240
velop	-1241
▁local	-1242
▁194	-1243
ually	-1244
▁many	-1245
▁equals	-1246
iev	-1247
▁remove	-1248
col	-1249
ird	-1250
▁By	-1251
ote	-1252
▁count	-1253
▁develop	-1254
▁Eng	-1255
▁serv	-1256
▁requ	-1257
▁down	-1258
cont	-1259
▁make	-1260
▁""	-1261
bed	-1262
itions	-1263
ION	-1264
▁top	-1265
value	-1266
▁est	-1267
urs	-1268
▁dat	-1269
let	-1270
my	-1271
▁known	-1272
▁stud	-1273
▁import	-1274
▁left	-1275
▁inf	-1276
yle	-1277
vert	-1278
▁...	-1279
▁fe	-1280
▁episode	-1281
▁same	-1282
▁gr	-1283
▁11	-1284
▁air	-1285
perties	-1286
lish	-1287
size	-1288
Arg	-1289
▁John	-1290
word	-1291
▁ship	-1292
bs	-1293
▁bl	-1294
annel	-1295
▁tok	-1296
ued	-1297
oci	-1298
▁success	-1299
▁Res	-1300
.0	-1301
tract	-1302
▁said	-1303
▁lead	-1304
▁det	-1305
umber	-1306
▁hist	-1307
▁conf	-1308
▁action	-1309
▁column	-1310
Def	-1311
itle	-1312
▁parse	-1313
Tr	-1314
eters	-1315
▁several	-1316
mand	-1317
fix	-1318
▁tri	-1319
▁called	-1320
▁allow	-1321
ting	-1322
▁crit	-1323
actory	-1324
▁bro	-1325
▁Ind	-1326
Array	-1327
ify	-1328
OG	-1329
though	-1330
▁because	-1331
ivers	-1332
▁American	-1333
Enabled	-1334
▁until	-1335
▁US	-1336
▁eff	-1337
▁each	-1338
▁IOException	-1339
An	-1340
▁array	-1341
▁bel	-1342
iam	-1343
▁Cl	-1344
apt	-1345
arser	-1346
ission	-1347
amed	-1348
string	-1349
▁197	-1350
point	-1351
▁car	-1352
arl	-1353
▁File	-1354
iter	-1355
▁system	-1356
ley	-1357
▁cle	-1358
▁design	-1359
▁string	-1360
ended	-1361
▁close	-1362
info	-1363
idth	-1364
af	-1365
▁196	-1366
reg	-1367
▁Aust	-1368
▁byte	-1369
▁ins	-1370
Group	-1371
▁hel	-1372
param	-1373
ism	-1374
AN	-1375
▁load	-1376
▁{}	-1377
IT	-1378
ople	-1379
▁client	-1380
eger	-1381
▁need	-1382
▁sk	-1383
▁began	-1384
▁dr	-1385
ength	-1386
▁Value	-1387
class	-1388
ved	-1389
▁six	-1390
▁gu	-1391
UR	-1392
▁right	-1393
▁Sp	-1394
chool	-1395
▁Map	-1396
▁view	-1397
▁marshall	-1398
lect	-1399
▁sel	-1400
▁map	-1401
▁early	-1402
▁valid	-1403
▁dist	-1404
util	-1405
▁content	-1406
▁100	-1407
▁order	-1408
▁these	-1409
▁near	-1410
ature	-1411
tal	-1412
une	-1413
▁For	-1414
▁$	-1415
▁now	-1416
▁auth	-1417
ES	-1418
▁iter	-1419
ah	-1420
▁host	-1421
▁vis	-1422
Result	-1423
ially	-1424
rol	-1425
▁released	-1426
▁music	-1427
ats	-1428
ector	-1429
ternal	-1430
med	-1431
▁term	-1432
▁project	-1433
▁status	-1434
▁fam	-1435
ags	-1436
▁must	-1437
field	-1438
unk	-1439
▁just	-1440
▁Pl	-1441
▁character	-1442
▁May	-1443
ajor	-1444
▁south	-1445
attern	-1446
attr	-1447
▁av	-1448
very	-1449
ored	-1450
md	-1451
Client	-1452
be	-1453
▁doc	-1454
▁port	-1455
Im	-1456
▁13	-1457
aking	-1458
ush	-1459
▁sl	-1460
ample	-1461
▁single	-1462
adata	-1463
▁occ	-1464
me	-1465
▁Array	-1466
{}	-1467
▁like	-1468
▁along	-1469
ached	-1470
ackage	-1471
enn	-1472
▁post	-1473
ead	-1474
ium	-1475
lleg	-1476
ateg	-1477
gin	-1478
Not	-1479
▁Int	-1480
ait	-1481
used	-1482
ypes	-1483
ources	-1484
ives	-1485
With	-1486
ple	-1487
▁body	-1488
▁War	-1489
▁names	-1490
▁Germ	-1491
Val	-1492
▁war	-1493
▁float	-1494
▁ax	-1495
cing	-1496
iod	-1497
ris	-1498
▁million	-1499
▁toString	-1500
code	-1501
ends	-1502
▁should	-1503
▁rest	-1504
mon	-1505
llegal	-1506
ilter	-1507
ference	-1508
por	-1509
▁British	-1510
plate	-1511
▁sum	-1512
raw	-1513
▁win	-1514
imit	-1515
Entry	-1516
gn	-1517
andler	-1518
Man	-1519
ret	-1520
wards	-1521
ync	-1522
▁block	-1523
▁We	-1524
▁''	-1525
▁level	-1526
play	-1527
SE	-1528
ination	-1529
ling	-1530
aving	-1531
Or	-1532
▁prog	-1533
ript	-1534
▁filter	-1535
face	-1536
▁continue	-1537
▁All	-1538
Size	-1539
▁following	-1540
▁land	-1541
▁session	-1542
▁14	-1543
arge	-1544
ava	-1545
▁table	-1546
pped	-1547
▁med	-1548
uc	-1549
▁env	-1550
▁position	-1551
aced	-1552
ences	-1553
▁govern	-1554
▁Aug	-1555
▁tc	-1556
▁cls	-1557
▁short	-1558
▁since	-1559
▁attack	-1560
▁previous	-1561
▁arr	-1562
▁mark	-1563
config	-1564
▁super	-1565
▁Sept	-1566
▁km	-1567
▁Is	-1568
log	-1569
▁No	-1570
▁q	-1571
▁received	-1572
rc	-1573
▁sw	-1574
aster	-1575
▁around	-1576
▁September	-1577
▁replace	-1578
empt	-1579
▁World	-1580
rame	-1581
ification	-1582
stra	-1583
▁August	-1584
▁States	-1585
ott	-1586
arshaller	-1587
OD	-1588
loc	-1589
▁ValueError	-1590
Service	-1591
pace	-1592
▁people	-1593
ene	-1594
▁Jul	-1595
▁week	-1596
▁total	-1597
▁json	-1598
▁conc	-1599
lished	-1600
▁Or	-1601
uss	-1602
▁Bl	-1603
AC	-1604
ords	-1605
▁offic	-1606
▁batt	-1607
Resource	-1608
▁label	-1609
▁warn	-1610
ization	-1611
lob	-1612
▁though	-1613
##	-1614
ically	-1615
▁protocol	-1616
▁Ad	-1617
▁Pr	-1618
As	-1619
==	-1620
▁small	-1621
▁help	-1622
Marshaller	-1623
▁root	-1624
▁task	-1625
▁took	-1626
▁month	-1627
▁consid	-1628
▁Type	-1629
▁area	-1630
▁25	-1631
raft	-1632
ension	-1633
▁195	-1634
▁provid	-1635
▁LOG	-1636
▁incre	-1637
▁South	-1638
▁items	-1639
▁Oct	-1640
▁However	-1641
▁partic	-1642
▁dict	-1643
▁Austral	-1644
▁north	-1645
ances	-1646
▁Illegal	-1647
▁element	-1648
NA	-1649
iven	-1650
amb	-1651
▁Nov	-1652
ately	-1653
Tra	-1654
struct	-1655
▁Ge	-1656
ta	-1657
etwork	-1658
Property	-1659
▁If	-1660
▁193	-1661
not	-1662
▁cor	-1663
▁remain	-1664
aged	-1665
▁Can	-1666
Loc	-1667
▁job	-1668
▁band	-1669
ober	-1670
▁place	-1671
nection	-1672
▁->	-1673
ements	-1674
ording	-1675
Form	-1676
▁track	-1677
▁Do	-1678
ilt	-1679
bu	-1680
▁October	-1681
ural	-1682
▁best	-1683
▁filename	-1684
▁major	-1685
()	-1686
▁iss	-1687
Item	-1688
▁protected	-1689
oss	-1690
▁Man	-1691
.'	-1692
umer	-1693
Instance	-1694
Out	-1695
▁exception	-1696
▁sort	-1697
itor	-1698
▁shape	-1699
▁eng	-1700
▁191	-1701
map	-1702
▁copy	-1703
Method	-1704
ED	-1705
iving	-1706
▁assert	-1707
ency	-1708
▁five	-1709
ases	-1710
aim	-1711
▁Tra	-1712
uture	-1713
▁code	-1714
pected	-1715
▁support	-1716
▁They	-1717
ugg	-1718
index	-1719
▁30	-1720
▁instanceof	-1721
▁prob	-1722
▁century	-1723
Event	-1724
Argument	-1725
▁date	-1726
▁York	-1727
▁wind	-1728
▁world	-1729
tings	-1730
ook	-1731
itch	-1732
els	-1733
Count	-1734
▁what	-1735
▁does	-1736
▁Ph	-1737
sw	-1738
RO	-1739
▁offset	-1740
▁image	-1741
▁differ	-1742
▁adv	-1743
▁leg	-1744
▁br	-1745
putStream	-1746
▁dev	-1747
▁stream	-1748
▁North	-1749
omet	-1750
▁token	-1751
▁real	-1752
for	-1753
▁city	-1754
eted	-1755
▁poss	-1756
Em	-1757
alt	-1758
Int	-1759
def	-1760
Add	-1761
▁life	-1762
rist	-1763
▁System	-1764
ke	-1765
cket	-1766
ians	-1767
▁June	-1768
ively	-1769
▁Jan	-1770
loy	-1771
urch	-1772
Log	-1773
▁turn	-1774
ideo	-1775
▁based	-1776
▁pra	-1777
uction	-1778
Null	-1779
off	-1780
pression	-1781
▁title	-1782
ales	-1783
idd	-1784
▁contains	-1785
▁King	-1786
ina	-1787
▁getP	-1788
▁July	-1789
ging	-1790
Manager	-1791
py	-1792
uro	-1793
text	-1794
▁Will	-1795
▁prom	-1796
▁November	-1797
▁>=	-1798
▁test	-1799
uery	-1800
▁another	-1801
PE	-1802
▁due	-1803
▁large	-1804
▁book	-1805
roll	-1806
▁appro	-1807
ged	-1808
▁exist	-1809
▁ur	-1810
▁Mar	-1811
▁cur	-1812
count	-1813
▁div	-1814
ids	-1815
rec	-1816
alf	-1817
ense	-1818
Met	-1819
ifier	-1820
ean	-1821
▁role	-1822
▁tag	-1823
UT	-1824
▁Apr	-1825
AS	-1826
hel	-1827
uple	-1828
quence	-1829
▁April	-1830
▁care	-1831
resent	-1832
Utils	-1833
▁po	-1834
▁March	-1835
uary	-1836
▁getName	-1837
oding	-1838
ior	-1839
▁person	-1840
▁my	-1841
mod	-1842
▁full	-1843
cent	-1844
reen	-1845
▁included	-1846
pper	-1847
▁cap	-1848
▁named	-1849
▁Har	-1850
▁way	-1851
▁period	-1852
▁Integer	-1853
▁Ed	-1854
▁include	-1855
Factory	-1856
▁non	-1857
▁attempt	-1858
▁Mc	-1859
mber	-1860
▁ident	-1861
▁Bu	-1862
xy	-1863
▁release	-1864
icy	-1865
FI	-1866
version	-1867
▁cour	-1868
▁options	-1869
atic	-1870
▁power	-1871
▁Cms	-1872
▁send	-1873
rix	-1874
Ref	-1875
lication	-1876
ne	-1877
ently	-1878
UL	-1879
ched	-1880
names	-1881
▁third	-1882
▁cr	-1883
▁much	-1884
From	-1885
lu	-1886
For	-1887
▁util	-1888
ness	-1889
ential	-1890
▁imp	-1891
ready	-1892
▁sent	-1893
ital	-1894
▁When	-1895
▁family	-1896
▁kill	-1897
▁chang	-1898
▁home	-1899
atter	-1900
▁During	-1901
▁larg	-1902
▁addition	-1903
alk	-1904
▁men	-1905
avy	-1906
ague	-1907
▁school	-1908
▁Dece	-1909
▁function	-1910
IND	-1911
▁camp	-1912
rote	-1913
▁Cal	-1914
▁II	-1915
ience	-1916
▁attr	-1917
Empty	-1918
▁December	-1919
Th	-1920
▁won	-1921
ology	-1922
ival	-1923
ql	-1924
▁cal	-1925
evel	-1926
▁mult	-1927
ulation	-1928
aces	-1929
self	-1930
▁played	-1931
annot	-1932
▁Sup	-1933
ony	-1934
ET	-1935
▁192	-1936
0}	-1937
▁lower	-1938
▁even	-1939
Code	-1940
Handler	-1941
--------	-1942
ided	-1943
▁January	-1944
▁Service	-1945
▁fre	-1946
Buffer	-1947
ables	-1948
All	-1949
riter	-1950
▁property	-1951
tributes	-1952
ball	-1953
allback	-1954
▁ver	-1955
ilit	-1956
ograph	-1957
▁still	-1958
▁you	-1959
▁Set	-1960
olution	-1961
state	-1962
▁keys	-1963
▁wrote	-1964
▁government	-1965
ope	-1966
▁ArrayList	-1967
error	-1968
▁spe	-1969
He	-1970
ories	-1971
apan	-1972
▁buffer	-1973
cer	-1974
▁death	-1975
▁present	-1976
met	-1977
▁review	-1978
iet	-1979
ots	-1980
▁initial	-1981
▁Br	-1982
▁members	-1983
▁lay	-1984
▁norm	-1985
ailable	-1986
▁rad	-1987
▁effect	-1988
▁appear	-1989
iron	-1990
▁Japan	-1991
▁opt	-1992
▁look	-1993
hes	-1994
▁story	-1995
▁led	-1996
▁ke	-1997
inc	-1998
▁using	-1999
▁Fr	-2000
ox	-2001
Text	-2002
▁getD	-2003
ont	-2004
yl	-2005
cle	-2006
ining	-2007
urther	-2008
CT	-2009
▁mag	-2010
▁organ	-2011
▁within	-2012
▁cond	-2013
▁Gu	-2014
▁days	-2015
▁aut	-2016
▁header	-2017
▁stand	-2018
▁those	-2019
▁described	-2020
gr	-2021
▁inc	-2022
▁There	-2023
▁And	-2024
tx	-2025
tra	-2026
older	-2027
▁capt	-2028
▁search	-2029
▁exper	-2030
▁gun	-2031
oman	-2032
▁given	-2033
ridge	-2034
▁Euro	-2035
▁very	-2036
na	-2037
▁connection	-2038
ume	-2039
▁force	-2040
angu	-2041
▁abs	-2042
akes	-2043
▁species	-2044
struction	-2045
▁Gener	-2046
inition	-2047
▁Car	-2048
▁opp	-2049
▁sb	-2050
AG	-2051
serv	-2052
ards	-2053
ending	-2054
▁Ser	-2055
▁children	-2056
max	-2057
▁results	-2058
▁Be	-2059
aken	-2060
uck	-2061
lex	-2062
check	-2063
▁Im	-2064
▁want	-2065
iversity	-2066
▁built	-2067
▁video	-2068
Al	-2069
ges	-2070
▁0.	-2071
▁syn	-2072
uments	-2073
▁24	-2074
▁required	-2075
▁<=	-2076
▁mar	-2077
RI	-2078
resh	-2079
ainer	-2080
▁convert	-2081
side	-2082
▁gen	-2083
▁dom	-2084
▁games	-2085
▁feature	-2086
Attribute	-2087
▁Gr	-2088
ights	-2089
oy	-2090
rench	-2091
▁already	-2092
Component	-2093
Table	-2094
▁pay	-2095
▁region	-2096
mbol	-2097
▁cache	-2098
EF	-2099
▁side	-2100
▁dam	-2101
▁mer	-2102
ops	-2103
head	-2104
▁different	-2105
▁clos	-2106
▁delete	-2107
uted	-2108
pre	-2109
▁cast	-2110
▁His	-2111
▁Feb	-2112
mit	-2113
▁Char	-2114
ruary	-2115
▁red	-2116
Status	-2117
▁February	-2118
SON	-2119
dom	-2120
over	-2121
▁"\	-2122
▁take	-2123
▁cover	-2124
▁water	-2125
▁struct	-2126
Lo	-2127
OT	-2128
bert	-2129
▁lines	-2130
▁without	-2131
vers	-2132
rag	-2133
ster	-2134
▁getC	-2135
▁German	-2136
▁decl	-2137
▁Christ	-2138
▁tw	-2139
▁report	-2140
ules	-2141
▁low	-2142
▁Pol	-2143
ift	-2144
▁style	-2145
▁Ab	-2146
stants	-2147
stit	-2148
▁src	-2149
da	-2150
▁finally	-2151
apping	-2152
ampl	-2153
rown	-2154
izer	-2155
Trans	-2156
ilar	-2157
NT	-2158
item	-2159
▁21	-2160
▁late	-2161
ety	-2162
▁history	-2163
ront	-2164
▁every	-2165
mt	-2166
yal	-2167
▁author	-2168
▁bas	-2169
▁common	-2170
▁disc	-2171
roy	-2172
▁begin	-2173
ried	-2174
▁National	-2175
▁Europe	-2176
▁Key	-2177
▁held	-2178
▁State	-2179
CE	-2180
▁control	-2181
▁Run	-2182
nder	-2183
iers	-2184
rior	-2185
▁db	-2186
istr	-2187
ounds	-2188
▁great	-2189
ators	-2190
▁comb	-2191
from	-2192
rew	-2193
Pos	-2194
▁although	-2195
▁French	-2196
▁former	-2197
ustom	-2198
ique	-2199
▁Collection	-2200
▁link	-2201
ours	-2202
Parameter	-2203
inter	-2204
▁2010	-2205
▁clear	-2206
▁writer	-2207
TY	-2208
▁cmd	-2209
Token	-2210
▁prov	-2211
▁Rec	-2212
rl	-2213
▁beh	-2214
oice	-2215
▁storm	-2216
Inter	-2217
group	-2218
pes	-2219
urity	-2220
olved	-2221
AD	-2222
▁estab	-2223
▁sold	-2224
▁diff	-2225
epend	-2226
ublic	-2227
▁IllegalArgument	-2228
params	-2229
▁points	-2230
iff	-2231
▁Par	-2232
rite	-2233
ison	-2234
▁tim	-2235
▁came	-2236
**	-2237
▁production	-2238
order	-2239
▁fact	-2240
▁times	-2241
au	-2242
▁claim	-2243
ropical	-2244
▁West	-2245
uster	-2246
ones	-2247
user	-2248
▁William	-2249
▁page	-2250
▁few	-2251
ested	-2252
ntity	-2253
)"	-2254
▁however	-2255
iment	-2256
▁execute	-2257
Names	-2258
▁accept	-2259
▁failed	-2260
ides	-2261
stant	-2262
itive	-2263
▁sche	-2264
andom	-2265
no	-2266
▁half	-2267
▁cert	-2268
▁say	-2269
ief	-2270
▁polit	-2271
BIND	-2272
▁created	-2273
▁returned	-2274
On	-2275
▁idx	-2276
User	-2277
▁Reg	-2278
obj	-2279
▁tel	-2280
▁hum	-2281
▁fire	-2282
BINDING	-2283
▁Get	-2284
▁exc	-2285
▁access	-2286
▁Acc	-2287
result	-2288
▁fore	-2289
▁Sim	-2290
▁2008	-2291
▁One	-2292
▁dir	-2293
Rec	-2294
rem	-2295
▁register	-2296
▁2009	-2297
▁often	-2298
Next	-2299
pi	-2300
▁<>	-2301
▁town	-2302
▁dim	-2303
Content	-2304
tml	-2305
Model	-2306
//	-2307
▁further	-2308
▁Geor	-2309
▁err	-2310
▁22	-2311
ention	-2312
▁color	-2313
▁continued	-2314
▁among	-2315
Sc	-2316
▁less	-2317
Length	-2318
ivity	-2319
ias	-2320
▁prefix	-2321
▁vol	-2322
Start	-2323
▁2011	-2324
▁aff	-2325
OL	-2326
▁api	-2327
NAME	-2328
▁Air	-2329
Date	-2330
▁Co	-2331
pite	-2332
▁route	-2333
▁la	-2334
ref	-2335
ham	-2336
▁player	-2337
▁Ass	-2338
▁commun	-2339
▁Fl	-2340
istry	-2341
igned	-2342
▁Her	-2343
gnore	-2344
her	-2345
▁never	-2346
thers	-2347
▁Mich	-2348
Up	-2349
start	-2350
ground	-2351
▁El	-2352
▁considered	-2353
▁member	-2354
estern	-2355
Descri	-2356
Column	-2357
view	-2358
day	-2359
abase	-2360
craft	-2361
▁40	-2362
ternational	-2363
▁having	-2364
▁headers	-2365
▁program	-2366
▁location	-2367
▁England	-2368
anc	-2369
etime	-2370
▁law	-2371
sub	-2372
▁written	-2373
Query	-2374
ither	-2375
ittle	-2376
elt	-2377
▁similar	-2378
▁sec	-2379
ump	-2380
▁exists	-2381
ites	-2382
▁pattern	-2383
▁channel	-2384
Connection	-2385
array	-2386
▁Dav	-2387
End	-2388
▁handle	-2389
▁miss	-2390
reet	-2391
▁sys	-2392
▁moved	-2393
64	-2394
ows	-2395
▁ant	-2396
cast	-2397
▁sol	-2398
▁files	-2399
types	-2400
▁timeout	-2401
ways	-2402
object	-2403
ether	-2404
ung	-2405
omen	-2406
ails	-2407
▁2007	-2408
▁country	-2409
▁Min	-2410
▁career	-2411
▁believ	-2412
▁sugg	-2413
▁milit	-2414
▁Not	-2415
df	-2416
rest	-2417
="	-2418
ves	-2419
▁parser	-2420
EX	-2421
anguage	-2422
ese	-2423
ains	-2424
▁Long	-2425
▁server	-2426
Exec	-2427
App	-2428
▁far	-2429
LO	-2430
▁fields	-2431
ude	-2432
▁stop	-2433
▁esc	-2434
▁east	-2435
▁foot	-2436
▁Park	-2437
▁address	-2438
▁Af	-2439
▁23	-2440
enc	-2441
▁seg	-2442
▁become	-2443
▁good	-2444
label	-2445
Filter	-2446
Str	-2447
▁City	-2448
▁express	-2449
▁house	-2450
ULT	-2451
▁ev	-2452
▁English	-2453
▁mode	-2454
ampions	-2455
MP	-2456
opt	-2457
▁west	-2458
gy	-2459
▁bytes	-2460
▁road	-2461
▁Cent	-2462
▁word	-2463
EL	-2464
▁Des	-2465
imal	-2466
ptor	-2467
▁conv	-2468
▁separ	-2469
▁getR	-2470
▁builder	-2471
▁'%	-2472
Ser	-2473
ring	-2474
▁Although	-2475
evision	-2476
▁tro	-2477
▁passed	-2478
formation	-2479
And	-2480
▁With	-2481
▁func	-2482
ably	-2483
Listener	-2484
▁arch	-2485
duct	-2486
▁2012	-2487
▁module	-2488
▁influ	-2489
los	-2490
▁save	-2491
▁bus	-2492
▁prop	-2493
▁isEmpty	-2494
▁Rep	-2495
▁Ang	-2496
AP	-2497
oke	-2498
▁compos	-2499
alth	-2500
▁site	-2501
▁empty	-2502
▁Bar	-2503
▁strong	-2504
imum	-2505
▁Http	-2506
json	-2507
peration	-2508
aff	-2509
▁company	-2510
▁50	-2511
▁comment	-2512
▁fig	-2513
Line	-2514
ech	-2515
▁Lond	-2516
▁announ	-2517
▁suff	-2518
CH	-2519
Source	-2520
▁fri	-2521
▁round	-2522
▁available	-2523
▁London	-2524
▁how	-2525
essages	-2526
▁var	-2527
lobal	-2528
▁parts	-2529
ML	-2530
ality	-2531
ai	-2532
▁strip	-2533
▁club	-2534
ipp	-2535
▁Am	-2536
▁refer	-2537
mission	-2538
itted	-2539
▁rule	-2540
▁entity	-2541
orage	-2542
▁Batt	-2543
Sh	-2544
▁ten	-2545
node	-2546
▁features	-2547
▁To	-2548
▁IN	-2549
nown	-2550
sequ	-2551
▁width	-2552
▁190	-2553
scri	-2554
AX	-2555
▁prim	-2556
Package	-2557
down	-2558
ogn	-2559
Configuration	-2560
▁account	-2561
Version	-2562
▁elements	-2563
ering	-2564
▁"/	-2565
▁cell	-2566
▁characters	-2567
▁High	-2568
estamp	-2569
▁see	-2570
▁prof	-2571
Se	-2572
▁properties	-2573
▁respon	-2574
▁exit	-2575
erc	-2576
ius	-2577
aign	-2578
oung	-2579
Url	-2580
rics	-2581
▁represent	-2582
▁squ	-2583
▁trad	-2584
▁elect	-2585
▁change	-2586
▁River	-2587
uid	-2588
Inner	-2589
▁getM	-2590
▁cy	-2591
ptional	-2592
▁published	-2593
▁tmp	-2594
▁step	-2595
▁java	-2596
▁Canad	-2597
ford	-2598
▁press	-2599
▁yield	-2600
azz	-2601
process	-2602
▁getValue	-2603
lem	-2604
32	-2605
▁While	-2606
▁mean	-2607
▁gave	-2608
▁destroy	-2609
▁redu	-2610
▁rank	-2611
▁parameters	-2612
▁Val	-2613
▁cross	-2614
▁University	-2615
▁went	-2616
▁too	-2617
▁axis	-2618
▁added	-2619
▁building	-2620
ington	-2621
▁buf	-2622
▁vict	-2623
▁Sm	-2624
Address	-2625
ironment	-2626
iness	-2627
▁lost	-2628
default	-2629
ranch	-2630
▁relations	-2631
▁reported	-2632
▁plan	-2633
▁section	-2634
▁extends	-2635
aps	-2636
▁Count	-2637
50	-2638
▁wra	-2639
Format	-2640
iction	-2641
▁produced	-2642
▁raw	-2643
Number	-2644
▁seen	-2645
▁aud	-2646
ries	-2647
▁py	-2648
umb	-2649
▁ft	-2650
sl	-2651
Impl	-2652
▁let	-2653
oon	-2654
▁Div	-2655
Sub	-2656
EFA	-2657
▁mid	-2658
aly	-2659
reate	-2660
▁collection	-2661
dk	-2662
▁network	-2663
▁Mon	-2664
▁Go	-2665
irc	-2666
▁performance	-2667
▁27	-2668
▁don	-2669
▁aw	-2670
▁limit	-2671
▁JSON	-2672
▁getMessage	-2673
▁tf	-2674
View	-2675
▁temp	-2676
▁intro	-2677
▁28	-2678
▁allowed	-2679
▁stated	-2680
▁2006	-2681
IC	-2682
mat	-2683
inary	-2684
▁df	-2685
▁coll	-2686
▁These	-2687
ney	-2688
▁lock	-2689
""	-2690
ocument	-2691
Cache	-2692
▁Bro	-2693
ald	-2694
Task	-2695
▁recorded	-2696
▁attribute	-2697
queue	-2698
▁ide	-2699
cs	-2700
▁Data	-2701
Access	-2702
▁According	-2703
▁successful	-2704
Pre	-2705
▁chart	-2706
augh	-2707
aul	-2708
▁General	-2709
Point	-2710
Reg	-2711
▁graph	-2712
▁sn	-2713
ixed	-2714
▁StringBuilder	-2715
len	-2716
urric	-2717
Off	-2718
▁Trans	-2719
▁Cor	-2720
▁making	-2721
aut	-2722
▁forces	-2723
terator	-2724
UE	-2725
Child	-2726
model	-2727
uff	-2728
▁cred	-2729
▁*/	-2730
icate	-2731
▁Sub	-2732
▁keep	-2733
values	-2734
ambda	-2735
length	-2736
semb	-2737
▁expl	-2738
run	-2739
pth	-2740
▁template	-2741
▁instead	-2742
▁fail	-2743
▁connect	-2744
▁special	-2745
▁eight	-2746
chron	-2747
db	-2748
▁dtype	-2749
▁Sw	-2750
▁remov	-2751
▁callback	-2752
ising	-2753
eder	-2754
aint	-2755
SS	-2756
▁ships	-2757
ENT	-2758
ability	-2759
etch	-2760
▁light	-2761
▁surv	-2762
CON	-2763
▁Act	-2764
▁plot	-2765
▁Hash	-2766
board	-2767
▁provided	-2768
irection	-2769
▁Nor	-2770
Entity	-2771
ensive	-2772
▁sound	-2773
request	-2774
▁engine	-2775
▁document	-2776
▁eas	-2777
inated	-2778
otion	-2779
ae	-2780
Invalid	-2781
ceed	-2782
ategory	-2783
▁Jack	-2784
▁star	-2785
▁expected	-2786
▁2013	-2787
▁Node	-2788
▁aircraft	-2789
);	-2790
▁himself	-2791
▁unit	-2792
andid	-2793
ursor	-2794
Async	-2795
de	-2796
▁cost	-2797
▁military	-2798
▁months	-2799
FF	-2800
▁national	-2801
▁26	-2802
▁songs	-2803
▁Australia	-2804
▁ge	-2805
ebug	-2806
▁"%	-2807
verage	-2808
▁popular	-2809
▁events	-2810
ampionship	-2811
▁development	-2812
▁ground	-2813
▁cut	-2814
undle	-2815
medi	-2816
QL	-2817
method	-2818
▁script	-2819
▁ste	-2820
▁father	-2821
▁neg	-2822
▁Cont	-2823
▁normal	-2824
▁tree	-2825
▁critic	-2826
num	-2827
▁parameter	-2828
▁height	-2829
▁Inter	-2830
urg	-2831
aset	-2832
Bytes	-2833
▁Med	-2834
oll	-2835
▁battle	-2836
ATE	-2837
less	-2838
▁collect	-2839
table	-2840
▁started	-2841
ero	-2842
▁reached	-2843
▁black	-2844
amples	-2845
10	-2846
ened	-2847
search	-2848
ns	-2849
ivid	-2850
EFAULT	-2851
▁move	-2852
▁Pres	-2853
▁pack	-2854
▁away	-2855
most	-2856
▁James	-2857
swith	-2858
atal	-2859
▁189	-2860
▁Per	-2861
▁Log	-2862
Definition	-2863
ibr	-2864
▁'\	-2865
GER	-2866
▁Dis	-2867
▁observ	-2868
ulate	-2869
▁station	-2870
▁ask	-2871
▁Part	-2872
▁Str	-2873
sec	-2874
▁across	-2875
▁Add	-2876
▁possible	-2877
▁remained	-2878
▁campaign	-2879
▁argument	-2880
▁signific	-2881
Del	-2882
▁cannot	-2883
▁died	-2884
▁Army	-2885
ariable	-2886
Properties	-2887
▁groups	-2888
▁comput	-2889
▁metadata	-2890
fil	-2891
Header	-2892
▁ctx	-2893
▁tour	-2894
▁uri	-2895
▁histor	-2896
format	-2897
▁subject	-2898
▁matches	-2899
verse	-2900
rupt	-2901
▁developed	-2902
wh	-2903
▁fav	-2904
▁**	-2905
▁display	-2906
▁son	-2907
▁getB	-2908
sy	-2909
posed	-2910
olve	-2911
▁operation	-2912
▁dig	-2913
Types	-2914
▁bar	-2915
enced	-2916
ender	-2917
▁upper	-2918
▁stage	-2919
files	-2920
urricane	-2921
▁Comp	-2922
▁Qu	-2923
▁League	-2924
▁introdu	-2925
Dis	-2926
▁free	-2927
▁Math	-2928
ln	-2929
▁future	-2930
▁associ	-2931
####	-2932
tain	-2933
tries	-2934
Pr	-2935
▁once	-2936
▁serial	-2937
▁completed	-2938
Action	-2939
▁di	-2940
▁wid	-2941
▁visit	-2942
eting	-2943
lands	-2944
oms	-2945
aring	-2946
hest	-2947
part	-2948
lines	-2949
▁Field	-2950
vider	-2951
Process	-2952
level	-2953
▁official	-2954
eturn	-2955
token	-2956
Session	-2957
rel	-2958
chema	-2959
ests	-2960
ensions	-2961
irectory	-2962
irt	-2963
▁Division	-2964
▁areas	-2965
sum	-2966
pass	-2967
base	-2968
aur	-2969
▁least	-2970
▁front	-2971
▁followed	-2972
andle	-2973
Dir	-2974
SI	-2975
▁felt	-2976
▁--	-2977
▁transform	-2978
▁getClass	-2979
▁noted	-2980
▁earl	-2981
▁namespace	-2982
▁America	-2983
Offset	-2984
▁able	-2985
ael	-2986
▁wait	-2987
omb	-2988
thern	-2989
▁store	-2990
▁mm	-2991
lege	-2992
URL	-2993
▁estim	-2994
▁Time	-2995
AB	-2996
▁description	-2997
▁"""	-2998
▁announced	-2999
▁29	-3000
====	-3001
▁general	-3002
init	-3003
▁lim	-3004
▁writing	-3005
ee	-3006
abor	-3007
oded	-3008
▁device	-3009
change	-3010
chn	-3011
▁Road	-3012
▁Russ	-3013
▁settings	-3014
▁either	-3015
▁pat	-3016
Reader	-3017
▁fac	-3018
print	-3019
oute	-3020
▁Met	-3021
▁performed	-3022
iber	-3023
▁various	-3024
▁County	-3025
▁score	-3026
▁scale	-3027
▁construct	-3028
▁hash	-3029
host	-3030
▁Japanese	-3031
▁tre	-3032
▁television	-3033
▁grad	-3034
Writer	-3035
status	-3036
message	-3037
Values	-3038
▁2005	-3039
▁switch	-3040
istic	-3041
▁broad	-3042
imately	-3043
▁annot	-3044
▁entire	-3045
iol	-3046
▁pair	-3047
▁example	-3048
▁Runtime	-3049
▁arm	-3050
▁Sy	-3051
acy	-3052
Case	-3053
elling	-3054
▁adapt	-3055
Page	-3056
▁taken	-3057
fl	-3058
leet	-3059
arth	-3060
trans	-3061
▁loss	-3062
▁players	-3063
UN	-3064
▁fill	-3065
▁tog	-3066
Constants	-3067
oted	-3068
▁Sdk	-3069
▁'/	-3070
EY	-3071
▁reason	-3072
▁’	-3073
▁voc	-3074
▁disco	-3075
Valid	-3076
▁cult	-3077
alls	-3078
del	-3079
▁political	-3080
▁little	-3081
▁logging	-3082
Link	-3083
▁Street	-3084
aterial	-3085
ula	-3086
ication	-3087
ille	-3088
hent	-3089
▁draw	-3090
ibility	-3091
▁working	-3092
▁anim	-3093
▁space	-3094
▁substring	-3095
▁2014	-3096
▁lambda	-3097
▁age	-3098
iple	-3099
▁nor	-3100
▁served	-3101
mark	-3102
▁East	-3103
Any	-3104
▁types	-3105
▁columns	-3106
RL	-3107
nect	-3108
▁hit	-3109
12	-3110
notation	-3111
▁active	-3112
Tag	-3113
▁Em	-3114
Refer	-3115
Loader	-3116
cret	-3117
lay	-3118
▁req	-3119
output	-3120
▁thread	-3121
▁bit	-3122
▁George	-3123
uation	-3124
Mod	-3125
box	-3126
gen	-3127
▁impro	-3128
▁xml	-3129
itude	-3130
▁killed	-3131
▁Hen	-3132
▁units	-3133
pol	-3134
▁/*	-3135
▁container	-3136
▁synchron	-3137
▁agre	-3138
Tree	-3139
▁center	-3140
Found	-3141
▁significant	-3142
spec	-3143
Get	-3144
▁becom	-3145
▁hold	-3146
▁You	-3147
▁extra	-3148
▁supported	-3149
alled	-3150
straint	-3151
reek	-3152
▁Red	-3153
▁seven	-3154
▁Bill	-3155
▁here	-3156
▁frame	-3157
▁night	-3158
No	-3159
▁Port	-3160
▁Hist	-3161
▁mount	-3162
▁flow	-3163
ATION	-3164
clus	-3165
place	-3166
lin	-3167
client	-3168
▁done	-3169
known	-3170
▁Hol	-3171
{0}	-3172
flow	-3173
ecess	-3174
ularly	-3175
Spec	-3176
...	-3177
Options	-3178
▁throughout	-3179
Block	-3180
new	-3181
iddle	-3182
pen	-3183
▁Mad	-3184
▁validate	-3185
▁Phil	-3186
://	-3187
▁ter	-3188
▁know	-3189
▁expand	-3190
▁http	-3191
Warn	-3192
▁tropical	-3193
▁works	-3194
▁grow	-3195
ugin	-3196
▁white	-3197
▁relationship	-3198
mar	-3199
▁lik	-3200
▁established	-3201
▁ST	-3202
▁remaining	-3203
▁prior	-3204
ighb	-3205
Input	-3206
▁random	-3207
▁fem	-3208
▁calc	-3209
unn	-3210
20	-3211
Unit	-3212
▁population	-3213
TT	-3214
▁rock	-3215
▁Que	-3216
Default	-3217
▁pred	-3218
ounter	-3219
▁Out	-3220
▁Big	-3221
tocol	-3222
▁getA	-3223
▁500	-3224
▁caused	-3225
▁thought	-3226
▁Thom	-3227
▁errors	-3228
▁execut	-3229
aval	-3230
LI	-3231
ming	-3232
▁race	-3233
▁emp	-3234
▁techn	-3235
The	-3236
▁component	-3237
Job	-3238
▁mask	-3239
stream	-3240
▁commit	-3241
▁Dep	-3242
▁appeared	-3243
▁resp	-3244
▁reference	-3245
alys	-3246
itory	-3247
▁together	-3248
parse	-3249
afe	-3250
▁award	-3251
api	-3252
ocial	-3253
▁require	-3254
▁pi	-3255
endar	-3256
ux	-3257
▁David	-3258
eng	-3259
Image	-3260
▁Rich	-3261
▁chunk	-3262
cil	-3263
▁handler	-3264
Tem	-3265
▁Australian	-3266
irl	-3267
oring	-3268
▁option	-3269
▁App	-3270
▁young	-3271
▁miles	-3272
ration	-3273
▁coast	-3274
oney	-3275
ports	-3276
conom	-3277
▁ens	-3278
▁prep	-3279
Part	-3280
▁percent	-3281
▁Mor	-3282
▁eventually	-3283
keys	-3284
ays	-3285
men	-3286
▁Date	-3287
ament	-3288
▁whe	-3289
▁Other	-3290
Hel	-3291
',	-3292
}"	-3293
▁Non	-3294
▁average	-3295
▁es	-3296
▁encode	-3297
▁std	-3298
▁decided	-3299
▁Loc	-3300
▁Element	-3301
ivil	-3302
thon	-3303
▁women	-3304
▁Mal	-3305
▁peak	-3306
▁directory	-3307
pha	-3308
▁important	-3309
asc	-3310
number	-3311
▁sched	-3312
▁Del	-3313
▁First	-3314
▁mass	-3315
▁isD	-3316
▁insert	-3317
▁others	-3318
dat	-3319
▁select	-3320
▁rather	-3321
▁Squ	-3322
▁trace	-3323
▁nom	-3324
dis	-3325
▁60	-3326
rect	-3327
▁nov	-3328
ana	-3329
▁som	-3330
▁located	-3331
▁{}"	-3332
▁House	-3333
▁Afric	-3334
ffic	-3335
CO	-3336
ply	-3337
▁password	-3338
▁leading	-3339
Target	-3340
▁My	-3341
▁objects	-3342
▁31	-3343
▁live	-3344
▁running	-3345
icle	-3346
▁saw	-3347
▁che	-3348
aves	-3349
▁oppos	-3350
VAL	-3351
IL	-3352
▁language	-3353
aled	-3354
▁symbol	-3355
TH	-3356
▁contract	-3357
▁custom	-3358
▁opened	-3359
▁Sch	-3360
▁sql	-3361
▁Royal	-3362
▁lat	-3363
Container	-3364
▁Ag	-3365
earch	-3366
TER	-3367
ignment	-3368
▁feet	-3369
▁individ	-3370
asing	-3371
▁scene	-3372
adron	-3373
istance	-3374
▁formed	-3375
ires	-3376
▁Trace	-3377
▁consist	-3378
▁finished	-3379
link	-3380
mary	-3381
Char	-3382
▁configuration	-3383
▁mi	-3384
▁complete	-3385
ades	-3386
icult	-3387
▁meas	-3388
▁0.0	-3389
▁`	-3390
anged	-3391
▁circ	-3392
BC	-3393
▁modern	-3394
▁188	-3395
▁'_	-3396
▁Check	-3397
Record	-3398
Mode	-3399
▁'-	-3400
Read	-3401
ordin	-3402
▁iterator	-3403
▁Black	-3404
▁reader	-3405
▁generate	-3406
oph	-3407
▁apply	-3408
▁foc	-3409
▁progress	-3410
MS	-3411
▁Sec	-3412
▁fight	-3413
Expression	-3414
input	-3415
rought	-3416
http	-3417
▁plat	-3418
▁schema	-3419
▁Def	-3420
▁Some	-3421
▁warning	-3422
▁our	-3423
▁playing	-3424
response	-3425
▁hasattr	-3426
Rel	-3427
emy	-3428
Check	-3429
ze	-3430
▁Mo	-3431
gress	-3432
PO	-3433
▁getattr	-3434
cel	-3435
TYPE	-3436
▁Pe	-3437
inding	-3438
Store	-3439
▁crew	-3440
▁encoding	-3441
bro	-3442
▁decode	-3443
▁Ne	-3444
▁additional	-3445
pc	-3446
▁hours	-3447
itional	-3448
▁candid	-3449
unch	-3450
▁synchronized	-3451
▁subsequ	-3452
▁batch	-3453
antic	-3454
dim	-3455
▁typ	-3456
inn	-3457
▁tuple	-3458
rypt	-3459
▁San	-3460
▁clean	-3461
▁states	-3462
iation	-3463
▁Indian	-3464
net	-3465
Params	-3466
▁construction	-3467
icket	-3468
▁sequence	-3469
Pl	-3470
▁Me	-3471
sup	-3472
arr	-3473
miss	-3474
Tracing	-3475
▁minutes	-3476
▁quick	-3477
▁2004	-3478
▁behind	-3479
ilities	-3480
ds	-3481
▁product	-3482
ourn	-3483
aching	-3484
anges	-3485
:"	-3486
▁Double	-3487
▁counter	-3488
▁gra	-3489
▁weeks	-3490
}'	-3491
▁hor	-3492
▁verb	-3493
Function	-3494
clude	-3495
▁getL	-3496
▁Michael	-3497
Callback	-3498
▁determ	-3499
▁Byte	-3500
▁recogn	-3501
▁human	-3502
ki	-3503
▁bound	-3504
bserv	-3505
Bean	-3506
▁worked	-3507
▁fif	-3508
▁party	-3509
Local	-3510
▁training	-3511
event	-3512
TracingEnabled	-3513
Ad	-3514
▁respect	-3515
▁2015	-3516
▁Sing	-3517
▁selected	-3518
wood	-3519
▁material	-3520
ClientException	-3521
▁lack	-3522
▁Config	-3523
section	-3524
▁ly	-3525
query	-3526
▁bill	-3527
▁pers	-3528
▁hard	-3529
▁born	-3530
▁heavy	-3531
Metadata	-3532
▁flag	-3533
▁mus	-3534
▁2000	-3535
▁guns	-3536
anned	-3537
▁amount	-3538
▁media	-3539
▁Robert	-3540
ky	-3541
▁isAny	-3542
▁difficult	-3543
Gener	-3544
auth	-3545
filter	-3546
▁desc	-3547
▁hy	-3548
▁runs	-3549
▁upon	-3550
▁France	-3551
▁package	-3552
Sel	-3553
▁payload	-3554
itar	-3555
▁Pre	-3556
▁cause	-3557
▁profile	-3558
Match	-3559
ara	-3560
▁nodes	-3561
DI	-3562
▁structure	-3563
▁Don	-3564
uel	-3565
▁almost	-3566
▁kind	-3567
▁vert	-3568
▁inj	-3569
▁originally	-3570
▁School	-3571
▁pract	-3572
▁",	-3573
asion	-3574
ores	-3575
▁particip	-3576
Failed	-3577
▁changes	-3578
cope	-3579
eline	-3580
▁ever	-3581
era	-3582
Parser	-3583
▁datetime	-3584
Enc	-3585
▁Wash	-3586
▁pot	-3587
pan	-3588
ino	-3589
▁accom	-3590
▁{0}	-3591
▁32	-3592
▁Path	-3593
▁appoint	-3594
Provider	-3595
ips	-3596
▁happ	-3597
▁ip	-3598
▁sample	-3599
▁existing	-3600
▁business	-3601
▁sorted	-3602
ological	-3603
▁scored	-3604
aker	-3605
▁clazz	-3606
▁wanted	-3607
▁changed	-3608
allen	-3609
Pol	-3610
▁der	-3611
▁Henry	-3612
lick	-3613
▁distance	-3614
▁fourth	-3615
▁invest	-3616
▁effort	-3617
▁damage	-3618
▁respons	-3619
▁Boolean	-3620
▁reve	-3621
Reference	-3622
oper	-3623
▁friend	-3624
▁stack	-3625
▁joined	-3626
▁pars	-3627
▁vill	-3628
▁TypeError	-3629
▁Best	-3630
▁above	-3631
▁Play	-3632
ODO	-3633
▁removed	-3634
▁Music	-3635
▁positive	-3636
▁replaced	-3637
ellow	-3638
block	-3639
▁edge	-3640
▁Cour	-3641
▁Dr	-3642
aper	-3643
VER	-3644
▁Paul	-3645
func	-3646
-8	-3647
with	-3648
ferred	-3649
Run	-3650
PT	-3651
▁getF	-3652
▁ordered	-3653
60	-3654
_0	-3655
▁Union	-3656
▁utils	-3657
▁manager	-3658
▁sit	-3659
ighest	-3660
▁placed	-3661
▁internal	-3662
eature	-3663
uccess	-3664
▁Battle	-3665
▁TraceComponent	-3666
idx	-3667
▁ignore	-3668
▁interest	-3669
▁Method	-3670
▁ball	-3671
▁brought	-3672
ells	-3673
Execution	-3674
▁featured	-3675
▁towards	-3676
ialog	-3677
▁pk	-3678
▁Follow	-3679
▁La	-3680
▁deep	-3681
▁box	-3682
▁187	-3683
▁Route	-3684
▁enumer	-3685
▁Command	-3686
unt	-3687
▁king	-3688
context	-3689
▁1.0	-3690
icated	-3691
▁zip	-3692
server	-3693
▁President	-3694
▁starts	-3695
▁extract	-3696
▁gre	-3697
Level	-3698
▁indust	-3699
▁println	-3700
porary	-3701
▁sex	-3702
eh	-3703
▁office	-3704
▁Bel	-3705
▁Washington	-3706
anks	-3707
▁goal	-3708
▁hon	-3709
▁ang	-3710
acity	-3711
▁compet	-3712
ervlet	-3713
urren	-3714
Byte	-3715
Thread	-3716
▁screen	-3717
▁Rev	-3718
▁attributes	-3719
quired	-3720
azine	-3721
ama	-3722
fields	-3723
▁always	-3724
If	-3725
cache	-3726
▁direction	-3727
▁URL	-3728
▁critics	-3729
▁Fran	-3730
arm	-3731
address	-3732
▁ID	-3733
aging	-3734
▁quest	-3735
_1	-3736
▁scen	-3737
▁From	-3738
▁econom	-3739
▁But	-3740
▁upd	-3741
▁issue	-3742
Unable	-3743
rate	-3744
Parameters	-3745
bit	-3746
▁wife	-3747
▁might	-3748
go	-3749
▁generally	-3750
▁troops	-3751
▁speed	-3752
▁transl	-3753
▁admin	-3754
▁enough	-3755
▁evid	-3756
▁highest	-3757
greg	-3758
osp	-3759
Base	-3760
artment	-3761
stand	-3762
right	-3763
▁largest	-3764
▁army	-3765
now	-3766
▁2003	-3767
▁Te	-3768
Stack	-3769
▁Despite	-3770
▁frequ	-3771
tribution	-3772
▁got	-3773
▁immedi	-3774
▁Observ	-3775
Ident	-3776
▁Game	-3777
thing	-3778
▁variable	-3779
▁sett	-3780
▁learn	-3781
▁signed	-3782
oder	-3783
▁big	-3784
agement	-3785
▁rail	-3786
write	-3787
command	-3788
▁better	-3789
▁hom	-3790
ully	-3791
▁LOGGER	-3792
▁tx	-3793
module	-3794
▁unique	-3795
Rep	-3796
▁opening	-3797
▁Atl	-3798
content	-3799
▁mother	-3800
Ass	-3801
▁prevent	-3802
▁fund	-3803
▁Angel	-3804
▁Hill	-3805
▁>>	-3806
Server	-3807
▁Wil	-3808
▁soon	-3809
ica	-3810
▁Two	-3811
elled	-3812
▁pur	-3813
▁eval	-3814
Helper	-3815
▁\	-3816
aries	-3817
▁RE	-3818
evice	-3819
Descriptor	-3820
▁layer	-3821
▁Following	-3822
▁believed	-3823
Sup	-3824
image	-3825
Trace	-3826
▁phys	-3827
▁Cup	-3828
▁Up	-3829
Output	-3830
▁island	-3831
▁needed	-3832
US	-3833
▁dro	-3834
alysis	-3835
▁Vir	-3836
▁Ham	-3837
▁Dan	-3838
null	-3839
stract	-3840
Dec	-3841
atural	-3842
▁past	-3843
uit	-3844
▁rh	-3845
▁forward	-3846
▁primary	-3847
▁Coun	-3848
▁shot	-3849
Update	-3850
ipal	-3851
▁Mary	-3852
▁earlier	-3853
▁Hall	-3854
▁tit	-3855
▁Mark	-3856
▁involved	-3857
▁meta	-3858
▁designed	-3859
▁Attribute	-3860
ios	-3861
▁victory	-3862
utf	-3863
▁earn	-3864
efore	-3865
▁mph	-3866
▁Great	-3867
▁forced	-3868
▁environment	-3869
Rule	-3870
▁getKey	-3871
▁startswith	-3872
▁Fil	-3873
▁insp	-3874
istration	-3875
▁segment	-3876
----------------	-3877
▁threat	-3878
▁phot	-3879
▁deg	-3880
Position	-3881
▁por	-3882
▁European	-3883
west	-3884
▁avoid	-3885
▁president	-3886
ico	-3887
▁Response	-3888
rison	-3889
▁resid	-3890
▁information	-3891
▁"'	-3892
Work	-3893
▁court	-3894
▁going	-3895
ibrary	-3896
ulated	-3897
▁DEFAULT	-3898
utable	-3899
uses	-3900
▁skip	-3901
▁Mac	-3902
▁loop	-3903
Width	-3904
▁outside	-3905
ociety	-3906
▁TODO	-3907
roller	-3908
▁dem	-3909
▁global	-3910
▁username	-3911
ography	-3912
airs	-3913
▁activ	-3914
▁Championship	-3915
▁queue	-3916
▁saying	-3917
▁Ant	-3918
▁Base	-3919
▁complet	-3920
▁vers	-3921
▁resources	-3922
comp	-3923
hib	-3924
▁	-3925
e	-3926
t	-3927
a	-3928
n	-3929
i	-3930
r	-3931
o	-3932
s	-3933
l	-3934
d	-3935
h	-3936
c	-3937
u	-3938
p	-3939
m	-3940
f	-3941
g	-3942
.	-3943
,	-3944
)	-3945
(	-3946
y	-3947
b	-3948
w	-3949
_	-3950
v	-3951
=	-3952
k	-3953
S	-3954
"	-3955
'	-3956
T	-3957
x	-3958
C	-3959
;	-3960
A	-3961
:	-3962
I	-3963
E	-3964
0	-3965
1	-3966
N	-3967
@	-3968
R	-3969
M	-3970
P	-3971
D	-3972
L	-3973
{	-3974
}	-3975
O	-3976
B	-3977
-	-3978
F	-3979
2	-3980
[	-3981
]	-3982
/	-3983
H	-3984
j	-3985
q	-3986
G	-3987
z	-3988
9	-3989
U	-3990
W	-3991
V	-3992
+	-3993
3	-3994
>	-3995
<	-3996
J	-3997
5	-3998
4	-3999
#	-4000
8	-4001
K	-4002
*	-4003
6	-4004
7	-4005
%	-4006
!	-4007
Y	-4008
&	-4009
X	-4010
Q	-4011
\	-4012
–	-4013
|	-4014
?	-4015
Z	-4016
$	-4017
—	-4018
`	-4019
é	-4020
’	-4021
^	-4022
á	-4023
°	-4024
£	-4025
~	-4026
í	-4027
ü	-4028
ö	-4029
ó	-4030
ć	-4031
ō	-4032
è	-4033
ä	-4034
−	-4035
ø	-4036
”	-4037
“	-4038
ł	-4039
×	-4040
š	-4041
的	-4042
ñ	-4043
⁄	-4044
Æ	-4045
ç	-4046
′	-4047
ā	-4048
μ	-4049
č	-4050
ú	-4051
ă	-4052
数	-4053
É	-4054
ë	-4055
₹	-4056
ð	-4057
ū	-4058
à	-4059
Đ	-4060
â	-4061
æ	-4062
å	-4063
ệ	-4064
ô	-4065
不	-4066
是	-4067
ã	-4068
ê	-4069
为	-4070
一	-4071
Á	-4072
‘	-4073
€	-4074
个	-4075
字	-4076
用	-4077
α	-4078
取	-4079
有	-4080
ž	-4081
Š	-4082
文	-4083
果	-4084
件	-4085
♭	-4086
Å	-4087
の	-4088
ń	-4089
Ö	-4090
时	-4091
±	-4092
行	-4093
对	-4094
如	-4095
置	-4096
中	-4097
加	-4098
ī	-4099
→	-4100
在	-4101
类	-4102
‐	-4103
定	-4104
Ó	-4105
据	-4106
ʻ	-4107
а	-4108
·	-4109
е	-4110
đ	-4111
出	-4112
存	-4113
ß	-4114
下	-4115
成	-4116
π	-4117
到	-4118
о	-4119
值	-4120
и	-4121
分	-4122
ș	-4123
接	-4124
获	-4125
ś	-4126
。	-4127
ー	-4128
合	-4129
要	-4130
符	-4131
回	-4132
理	-4133
前	-4134
名	-4135
则	-4136
法	-4137
ả	-4138
Ø	-4139
、	-4140
ï	-4141
る	-4142
空	-4143
点	-4144
β	-4145
式	-4146
后	-4147
列	-4148
入	-4149
§	-4150
表	-4151
†	-4152
处	-4153
配	-4154
方	-4155
Î	-4156
ę	-4157
词	-4158
返	-4159
能	-4160
を	-4161
参	-4162
¥	-4163
・	-4164
ル	-4165
型	-4166
♯	-4167
可	-4168
新	-4169
ş	-4170
н	-4171
्	-4172
始	-4173
ο	-4174
否	-4175
τ	-4176
р	-4177
当	-4178
λ	-4179
了	-4180
Č	-4181
除	-4182
с	-4183
ò	-4184
î	-4185
生	-4186
设	-4187
Ž	-4188
过	-4189
结	-4190
す	-4191
以	-4192
位	-4193
查	-4194
ν	-4195
т	-4196
解	-4197
间	-4198
Ō	-4199
象	-4200
本	-4201
使	-4202
这	-4203
л	-4204
于	-4205
上	-4206
标	-4207
节	-4208
ì	-4209
建	-4210
录	-4211
段	-4212
ơ	-4213
化	-4214
ς	-4215
ý	-4216
ε	-4217
ı	-4218
注	-4219
所	-4220
进	-4221
ン	-4222
需	-4223
い	-4224
重	-4225
度	-4226
最	-4227
没	-4228
码	-4229
和	-4230
〉	-4231
η	-4232
务	-4233
〈	-4234
в	-4235
密	-4236
息	-4237
开	-4238
转	-4239
失	-4240
目	-4241
ễ	-4242
大	-4243
•	-4244
ス	-4245
☉	-4246
し	-4247
应	-4248
算	-4249
‍	-4250
ą	-4251
場	-4252
█	-4253
ư	-4254
信	-4255
к	-4256
ạ	-4257
が	-4258
得	-4259
败	-4260
γ	-4261
性	-4262
ř	-4263
器	-4264
已	-4265
常	-4266
将	-4267
次	-4268
并	-4269
调	-4270
に	-4271
判	-4272
单	-4273
断	-4274
内	-4275
模	-4276
号	-4277
ứ	-4278
换	-4279
无	-4280
会	-4281
载	-4282
́	-4283
ι	-4284
다	-4285
κ	-4286
ッ	-4287
小	-4288
量	-4289
지	-4290
て	-4291
니	-4292
습	-4293
ρ	-4294
包	-4295
自	-4296
Í	-4297
指	-4298
格	-4299
正	-4300
认	-4301
않	-4302
ẩ	-4303
ế	-4304
ク	-4305
日	-4306
ə	-4307
组	-4308
­	-4309
な	-4310
串	-4311
程	-4312
タ	-4313
实	-4314
直	-4315
通	-4316
更	-4317
错	-4318
作	-4319
δ	-4320
ω	-4321
가	-4322
þ	-4323
ト	-4324
找	-4325
第	-4326
计	-4327
连	-4328
õ	-4329
户	-4330
同	-4331
发	-4332
ě	-4333
̪	-4334
部	-4335
θ	-4336
у	-4337
は	-4338
请	-4339
φ	-4340
子	-4341
期	-4342
长	-4343
Þ	-4344
现	-4345
动	-4346
았	-4347
ʿ	-4348
た	-4349
イ	-4350
删	-4351
构	-4352
路	-4353
ا	-4354
ē	-4355
입	-4356
되	-4357
력	-4358
Ż	-4359
п	-4360
关	-4361
属	-4362
先	-4363
ラ	-4364
创	-4365
持	-4366
Ü	-4367
容	-4368
异	-4369
ù	-4370
Ω	-4371
フ	-4372
试	-4373
д	-4374
м	-4375
义	-4376
径	-4377
经	-4378
从	-4379
全	-4380
初	-4381
相	-4382
其	-4383
支	-4384
添	-4385
读	-4386
保	-4387
去	-4388
只	-4389
执	-4390
析	-4391
¢	-4392
υ	-4393
序	-4394
或	-4395
此	-4396
完	-4397
默	-4398
就	-4399
略	-4400
原	-4401
多	-4402
ő	-4403
变	-4404
该	-4405
面	-4406
û	-4407
≤	-4408
集	-4409
ț	-4410
で	-4411
条	-4412
线	-4413
匹	-4414
未	-4415
记	-4416
Ś	-4417
主	-4418
写	-4419
证	-4420
里	-4421
特	-4422
检	-4423
ド	-4424
功	-4425
必	-4426
情	-4427
示	-4428
输	-4429
制	-4430
签	-4431
图	-4432
根	-4433
等	-4434
被	-4435
代	-4436
误	-4437
œ	-4438
ː	-4439
σ	-4440
来	-4441
Ł	-4442
Δ	-4443
别	-4444
键	-4445
ỳ	-4446
之	-4447
번	-4448
ż	-4449
改	-4450
호	-4451
询	-4452
增	-4453
求	-4454
₱	-4455
地	-4456
ل	-4457
元	-4458
服	-4459
因	-4460
ụ	-4461
例	-4462
リ	-4463
缓	-4464
放	-4465
ب	-4466
交	-4467
态	-4468
传	-4469
问	-4470
非	-4471
ồ	-4472
れ	-4473
я	-4474
と	-4475
验	-4476
¡	-4477
ė	-4478
修	-4479
况	-4480
口	-4481
者	-4482
ṇ	-4483
复	-4484
每	-4485
か	-4486
确	-4487
端	-4488
χ	-4489
体	-4490
含	-4491
操	-4492
题	-4493
引	-4494
明	-4495
ジ	-4496
事	-4497
束	-4498
ɣ	-4499
デ	-4500
م	-4501
整	-4502
ы	-4503
掉	-4504
Ş	-4505
่	-4506
ộ	-4507
启	-4508
年	-4509
页	-4510
典	-4511
源	-4512
续	-4513
任	-4514
造	-4515
İ	-4516
库	-4517
忽	-4518
б	-4519
再	-4520
机	-4521
环	-4522
跳	-4523
ό	-4524
ч	-4525
ن	-4526
排	-4527
ầ	-4528
═	-4529
提	-4530
都	-4531
ァ	-4532
与	-4533
͡	-4534
─	-4535
且	-4536
比	-4537
编	-4538
з	-4539
外	-4540
插	-4541
角	-4542
～	-4543
∈	-4544
权	-4545
选	-4546
₤	-4547
头	-4548
状	-4549
识	-4550
관	-4551
리	-4552
й	-4553
二	-4554
语	-4555
ị	-4556
级	-4557
ь	-4558
移	-4559
さ	-4560
打	-4561
超	-4562
オ	-4563
シ	-4564
待	-4565
送	-4566
须	-4567
月	-4568
Ú	-4569
ź	-4570
プ	-4571
册	-4572
钥	-4573
ロ	-4574
历	-4575
统	-4576
起	-4577
د	-4578
≈	-4579
ア	-4580
他	-4581
做	-4582
Π	-4583
消	-4584
称	-4585
致	-4586
テ	-4587
区	-4588
流	-4589
秒	-4590
ま	-4591
也	-4592
値	-4593
句	-4594
按	-4595
高	-4596
Ș	-4597
ọ	-4598
板	-4599
仓	-4600
循	-4601
替	-4602
股	-4603
那	-4604
ɔ	-4605
̄	-4606
函	-4607
尝	-4608
ğ	-4609
்	-4610
ブ	-4611
≥	-4612
う	-4613
抽	-4614
闭	-4615
Â	-4616
セ	-4617
ナ	-4618
两	-4619
步	-4620
»	-4621
カ	-4622
ソ	-4623
向	-4624
征	-4625
报	-4626
版	-4627
还	-4628
ɛ	-4629
片	-4630
遍	-4631
ら	-4632
ィ	-4633
バ	-4634
清	-4635
∞	-4636
メ	-4637
优	-4638
继	-4639
̯	-4640
测	-4641
系	-4642
许	-4643
导	-4644
滤	-4645
种	-4646
Ç	-4647
ر	-4648
マ	-4649
么	-4650
候	-4651
装	-4652
設	-4653
释	-4654
«	-4655
ˈ	-4656
エ	-4657
ム	-4658
给	-4659
ṃ	-4660
人	-4661
反	-4662
客	-4663
止	-4664
ţ	-4665
ḍ	-4666
み	-4667
コ	-4668
知	-4669
素	-4670
邮	-4671
∂	-4672
√	-4673
允	-4674
公	-4675
易	-4676
缩	-4677
̆	-4678
‡	-4679
准	-4680
尾	-4681
形	-4682
限	-4683
̃	-4684
ύ	-4685
ủ	-4686
グ	-4687
票	-4688
规	-4689
ξ	-4690
น	-4691
ร	-4692
ั	-4693
填	-4694
立	-4695
说	-4696
ɪ	-4697
ʃ	-4698
̥	-4699
天	-4700
抛	-4701
索	-4702
結	-4703
达	-4704
Ä	-4705
ʀ	-4706
ц	-4707
き	-4708
印	-4709
随	-4710
้	-4711
ṭ	-4712
め	-4713
带	-4714
心	-4715
然	-4716
看	-4717
≡	-4718
あ	-4719
份	-4720
左	-4721
照	-4722
С	-4723
ῦ	-4724
父	-4725
资	-4726
锁	-4727
Ā	-4728
س	-4729
و	-4730
些	-4731
效	-4732
登	-4733
针	-4734
έ	-4735
ṣ	-4736
右	-4737
距	-4738
身	-4739
免	-4740
址	-4741
样	-4742
隔	-4743
项	-4744
り	-4745
ズ	-4746
它	-4747
対	-4748
考	-4749
်	-4750
【	-4751
】	-4752
ダ	-4753
首	-4754
ح	-4755
ي	-4756
切	-4757
由	-4758
避	-4759
ί	-4760
ะ	-4761
ờ	-4762
但	-4763
停	-4764
即	-4765
г	-4766
ố	-4767
ウ	-4768
控	-4769
時	-4770
殊	-4771
缀	-4772
访	-4773
ŵ	-4774
―	-4775
♥	-4776
志	-4777
描	-4778
而	-4779
ʊ	-4780
ه	-4781
射	-4782
少	-4783
拼	-4784
校	-4785
监	-4786
范	-4787
退	-4788
ƒ	-4789
์	-4790
│	-4791
令	-4792
好	-4793
网	-4794
ợ	-4795
っ	-4796
ớ	-4797
付	-4798
充	-4799
扩	-4800
把	-4801
括	-4802
递	-4803
队	-4804
ท	-4805
「	-4806
〜	-4807
キ	-4808
パ	-4809
三	-4810
市	-4811
总	-4812
扫	-4813
策	-4814
若	-4815
较	-4816
边	-4817
零	-4818
이	-4819
È	-4820
ũ	-4821
พ	-4822
្	-4823
╝	-4824
✓	-4825
こ	-4826
ェ	-4827
ョ	-4828
压	-4829
才	-4830
课	-4831
À	-4832
ζ	-4833
א	-4834
ع	-4835
त	-4836
╗	-4837
周	-4838
备	-4839
展	-4840
留	-4841
ɑ	-4842
ี	-4843
ấ	-4844
∴	-4845
║	-4846
」	-4847
ォ	-4848
冲	-4849
変	-4850
平	-4851
意	-4852
白	-4853
运	-4854
ŷ	-4855
ά	-4856
ж	-4857
ậ	-4858
サ	-4859
基	-4860
辑	-4861
追	-4862
ĩ	-4863
⊙	-4864
つ	-4865
价	-4866
依	-4867
强	-4868
收	-4869
道	-4870
金	-4871
離	-4872
자	-4873
Θ	-4874
ա	-4875
响	-4876
宽	-4877
池	-4878
番	-4879
虑	-4880
链	-4881
®	-4882
ŋ	-4883
╔	-4884
╚	-4885
显	-4886
足	-4887
Σ	-4888
า	-4889
ノ	-4890
命	-4891
일	-4892
Ţ	-4893
ʾ	-4894
Н	-4895
י	-4896
ὶ	-4897
业	-4898
余	-4899
学	-4900
형	-4901
¿	-4902
ÿ	-4903
म	-4904
ở	-4905
└	-4906
剩	-4907
力	-4908
占	-4909
我	-4910
补	-4911
话	-4912
Р	-4913
र	-4914
ギ	-4915
似	-4916
何	-4917
処	-4918
普	-4919
界	-4920
际	-4921
预	-4922
ю	-4923
围	-4924
工	-4925
己	-4926
归	-4927
後	-4928
截	-4929
映	-4930
毕	-4931
音	-4932
르	-4933
바	-4934
올	-4935
̈	-4936
М	-4937
П	-4938
も	-4939
临	-4940
书	-4941
実	-4942
書	-4943
简	-4944
议	-4945
防	-4946
Ã	-4947
̍	-4948
А	-4949
∑	-4950
⋅	-4951
ベ	-4952
产	-4953
像	-4954
安	-4955
換	-4956
서	-4957
Ć	-4958
Μ	-4959
أ	-4960
ت	-4961
เ	-4962
チ	-4963
兼	-4964
局	-4965
布	-4966
星	-4967
率	-4968
订	-4969
逻	-4970
세	-4971
ů	-4972
ὁ	-4973
₩	-4974
ゼ	-4975
ツ	-4976
共	-4977
绘	-4978
维	-4979
補	-4980
触	-4981
ʒ	-4982
Б	-4983
ш	-4984
ی	-4985
⊗	-4986
く	-4987
レ	-4988
伝	-4989
均	-4990
联	-4991
负	-4992
频	-4993
ǫ	-4994
̊	-4995
х	-4996
ј	-4997
ו	-4998
⇌	-4999
そ	-5000
囲	-5001
层	-5002
档	-5003
歌	-5004
真	-5005
щ	-5006
ש	-5007
ก	-5008
ḥ	-5009
ử	-5010
ự	-5011
‰	-5012
よ	-5013
ゴ	-5014
ザ	-5015
料	-5016
短	-5017
评	-5018
赋	-5019
태	-5020
ť	-5021
ɡ	-5022
И	-5023
श	-5024
ῆ	-5025
∗	-5026
⟩	-5027
ん	-5028
ニ	-5029
减	-5030
受	-5031
各	-5032
四	-5033
块	-5034
声	-5035
私	-5036
终	-5037
色	-5038
近	-5039
采	-5040
钟	-5041
ǎ	-5042
̞	-5043
Γ	-5044
ב	-5045
ج	-5046
ز	-5047
स	-5048
ि	-5049
„	-5050
↑	-5051
├	-5052
⟨	-5053
ば	-5054
モ	-5055
供	-5056
具	-5057
割	-5058
旧	-5059
景	-5060
枚	-5061
間	-5062
정	-5063
ψ	-5064
ต	-5065
ắ	-5066
≠	-5067
✗	-5068
ど	-5069
ケ	-5070
举	-5071
们	-5072
你	-5073
卖	-5074
及	-5075
听	-5076
境	-5077
很	-5078
某	-5079
视	-5080
수	-5081
ħ	-5082
̝	-5083
Κ	-5084
ュ	-5085
储	-5086
匙	-5087
十	-5088
卡	-5089
圆	-5090
择	-5091
曲	-5092
母	-5093
毫	-5094
满	-5095
省	-5096
範	-5097
精	-5098
耗	-5099
顺	-5100
전	-5101
ǐ	-5102
Λ	-5103
Φ	-5104
ش	-5105
ป	-5106
་	-5107
ẵ	-5108
ἀ	-5109
ὸ	-5110
ῶ	-5111
ペ	-5112
五	-5113
仅	-5114
便	-5115
個	-5116
几	-5117
刻	-5118
协	-5119
台	-5120
国	-5121
域	-5122
既	-5123
末	-5124
神	-5125
阅	-5126
阻	-5127
ʕ	-5128
Ε	-5129
К	-5130
क	-5131
ピ	-5132
動	-5133
千	-5134
双	-5135
報	-5136
塞	-5137
太	-5138
微	-5139
快	-5140
暂	-5141
独	-5142
盖	-5143
章	-5144
绑	-5145
覆	-5146
説	-5147
论	-5148
資	-5149
開	-5150
静	-5151
🛠	-5152
©	-5153
̠	-5154
̩	-5155
Α	-5156
ு	-5157
₣	-5158
け	-5159
ミ	-5160
万	-5161
乐	-5162
买	-5163
午	-5164
半	-5165
手	-5166
批	-5167
汉	-5168
英	-5169
远	-5170
速	-5171
附	-5172
사	-5173
ň	-5174
ʔ	-5175
☆	-5176
♦	-5177
ず	-5178
び	-5179
ポ	-5180
击	-5181
商	-5182
场	-5183
春	-5184
栈	-5185
画	-5186
突	-5187
管	-5188
账	-5189
销	-5190
顶	-5191
종	-5192
ŭ	-5193
ն	-5194
ת	-5195
ة	-5196
ỹ	-5197
⊕	-5198
お	-5199
ヴ	-5200
差	-5201
搜	-5202
泛	-5203
為	-5204
秋	-5205
老	-5206
至	-5207
赖	-5208
込	-5209
额	-5210
˧	-5211
ή	-5212
Г	-5213
ե	-5214
ո	-5215
ל	-5216
ע	-5217
प	-5218
ย	-5219
ḻ	-5220
ṛ	-5221
じ	-5222
ハ	-5223
死	-5224
水	-5225
申	-5226
离	-5227
约	-5228
络	-5229
见	-5230
逗	-5231
명	-5232
업	-5233
Œ	-5234
Ț	-5235
ʁ	-5236
В	-5237
ъ	-5238
э	-5239
্	-5240
င	-5241
ဆ	-5242
န	-5243
ရ	-5244
え	-5245
ぽ	-5246
む	-5247
低	-5248
傍	-5249
利	-5250
削	-5251
告	-5252
固	-5253
够	-5254
感	-5255
拦	-5256
活	-5257
盘	-5258
缺	-5259
贝	-5260
迭	-5261
逐	-5262
아	-5263
ŏ	-5264
ǔ	-5265
ɬ	-5266
Ψ	-5267
ר	-5268
न	-5269
य	-5270
ง	-5271
ว	-5272
‬	-5273
←	-5274
♣	-5275
ち	-5276
呼	-5277
坐	-5278
美	-5279
背	-5280
越	-5281
송	-5282
¤	-5283
˩	-5284
Ι	-5285
ր	-5286
ा	-5287
อ	-5288
ổ	-5289
ỗ	-5290
ữ	-5291
∩	-5292
ゃ	-5293
ガ	-5294
丢	-5295
今	-5296
傳	-5297
六	-5298
决	-5299
史	-5300
夹	-5301
恢	-5302
拷	-5303
推	-5304
案	-5305
百	-5306
答	-5307
般	-5308
跟	-5309
드	-5310
디	-5311
파	-5312
Ý	-5313
̟	-5314
ם	-5315
ं	-5316
┬	-5317
別	-5318
堆	-5319
往	-5320
戳	-5321
扱	-5322
歧	-5323
练	-5324
花	-5325
菜	-5326
読	-5327
训	-5328
谷	-5329
适	-5330
順	-5331
작	-5332
코	-5333
Ñ	-5334
ľ	-5335
ё	-5336
і	-5337
ह	-5338
ม	-5339
ส	-5340
Ḥ	-5341
ἐ	-5342
‒	-5343
ゅ	-5344
わ	-5345
厂	-5346
员	-5347
女	-5348
影	-5349
晚	-5350
木	-5351
浮	-5352
箭	-5353
纳	-5354
群	-5355
言	-5356
让	-5357
译	-5358
详	-5359
走	-5360
轮	-5361
録	-5362
闰	-5363
阶	-5364
陈	-5365
风	-5366
류	-5367
보	-5368
Ð	-5369
ǂ	-5370
ك	-5371
द	-5372
ल	-5373
ष	-5374
ห	-5375
⁡	-5376
♠	-5377
》	-5378
ボ	-5379
ャ	-5380
什	-5381
刚	-5382
単	-5383
唯	-5384
套	-5385
帐	-5386
掘	-5387
矩	-5388
積	-5389
纯	-5390
習	-5391
訊	-5392
進	-5393
達	-5394
颜	-5395
스	-5396
청	-5397
Ì	-5398
ɾ	-5399
ʌ	-5400
˥	-5401
̂	-5402
̧	-5403
Ο	-5404
Ј	-5405
ג	-5406
ח	-5407
ء	-5408
ன	-5409
್	-5410
ὐ	-5411
⊂	-5412
⟂	-5413
『	-5414
久	-5415
假	-5416
巨	-5417
您	-5418
承	-5419
拟	-5420
挂	-5421
授	-5422
染	-5423
树	-5424
火	-5425
終	-5426
義	-5427
複	-5428
見	-5429
逆	-5430
過	-5431
시	-5432
÷	-5433
ġ	-5434
ķ	-5435
ņ	-5436
ώ	-5437
Д	-5438
Я	-5439
Հ	-5440
կ	-5441
վ	-5442
נ	-5443
ف	-5444
ค	-5445
ล	-5446
ิ	-5447
ุ	-5448
แ	-5449
រ	-5450
Ạ	-5451
ừ	-5452
∆	-5453
✘	-5454
』	-5455
せ	-5456
へ	-5457
ょ	-5458
七	-5459
严	-5460
偏	-5461
八	-5462
刷	-5463
剣	-5464
吧	-5465
士	-5466
姓	-5467
媒	-5468
季	-5469
寻	-5470
封	-5471
干	-5472
弃	-5473
拿	-5474
摘	-5475
敏	-5476
教	-5477
杂	-5478
検	-5479
機	-5480
永	-5481
混	-5482
準	-5483
物	-5484
王	-5485
現	-5486
球	-5487
盐	-5488
费	-5489
阵	-5490
頭	-5491
계	-5492
신	-5493
인	-5494
접	-5495
할	-5496
Ħ	-5497
ŝ	-5498
ɕ	-5499
ɟ	-5500
̲	-5501
Β	-5502
Е	-5503
О	-5504
خ	-5505
ق	-5506
ग	-5507
़	-5508
ற	-5509
ி	-5510
ู	-5511
ត	-5512
だ	-5513
ユ	-5514
予	-5515
京	-5516
住	-5517
划	-5518
另	-5519
品	-5520
张	-5521
戦	-5522
护	-5523
拆	-5524
撤	-5525
擎	-5526
昨	-5527
続	-5528
绝	-5529
虚	-5530
货	-5531
轉	-5532
遇	-5533
魂	-5534
금	-5535
없	-5536
요	-5537
하	-5538
Ư	-5539
ʼ	-5540
Т	-5541
ф	-5542
֫	-5543
מ	-5544
ط	-5545
ூ	-5546
ด	-5547
็	-5548
ᅡ	-5549
ṅ	-5550
ỏ	-5551
₫	-5552
↦	-5553
ヒ	-5554
ヘ	-5555
並	-5556
九	-5557
乱	-5558
助	-5559
底	-5560
投	-5561
李	-5562
核	-5563
桁	-5564
框	-5565
武	-5566
毁	-5567
満	-5568
热	-5569
無	-5570
着	-5571
確	-5572
編	-5573
脚	-5574
視	-5575
警	-5576
难	-5577
雪	-5578
題	-5579
風	-5580
로	-5581
록	-5582
용	-5583
유	-5584
📌	-5585
Ī	-5586
ų	-5587
ɲ	-5588
ʍ	-5589
̌	-5590
յ	-5591
ּ	-5592
ד	-5593
ה	-5594
،	-5595
अ	-5596
उ	-5597
भ	-5598
ी	-5599
े	-5600
॥	-5601
া	-5602
ᄋ	-5603
‚	-5604
‪	-5605
↓	-5606
┤	-5607
➤	-5608
や	-5609
ワ	-5610
世	-5611
休	-5612
價	-5613
办	-5614
升	-5615
南	-5616
却	-5617
君	-5618
守	-5619
挖	-5620
撃	-5621
早	-5622
望	-5623
概	-5624
滑	-5625
班	-5626
発	-5627
研	-5628
究	-5629
箱	-5630
聖	-5631
肯	-5632
該	-5633
质	-5634
跌	-5635
転	-5636
车	-5637
软	-5638
门	-5639
陆	-5640
降	-5641
鬼	-5642
메	-5643
발	-5644
부	-5645
원	-5646
회	-5647
️	-5648
🙂	-5649
¶	-5650
ǒ	-5651
ǣ	-5652
ɒ	-5653
̐	-5654
̽	-5655
Υ	-5656
Χ	-5657
З	-5658
Կ	-5659
Ս	-5660
բ	-5661
إ	-5662
ந	-5663
ர	-5664
ข	-5665
ช	-5666
ณ	-5667
บ	-5668
ศ	-5669
ន	-5670
ព	-5671
ម	-5672
់	-5673
ḷ	-5674
Ộ	-5675
ἄ	-5676
Ἰ	-5677
ὲ	-5678
ὴ	-5679
ῖ	-5680
‫	-5681
※	-5682
∶	-5683
∼	-5684
┌	-5685
★	-5686
♮	-5687
ひ	-5688
ふ	-5689
ビ	-5690
专	-5691
东	-5692
互	-5693
估	-5694
光	-5695
华	-5696
哈	-5697
啥	-5698
奇	-5699
宋	-5700
尽	-5701
屏	-5702
峰	-5703
嵌	-5704
座	-5705
思	-5706
戻	-5707
托	-5708
播	-5709
旋	-5710
旦	-5711
曹	-5712
決	-5713
深	-5714
渲	-5715
益	-5716
組	-5717
繳	-5718
聊	-5719
西	-5720
观	-5721
証	-5722
讯	-5723
較	-5724
透	-5725
銀	-5726
関	-5727
馈	-5728
黑	-5729
경	-5730
에	-5731
을	-5732
Ê	-5733
Ô	-5734
ĉ	-5735
ĝ	-5736
ȳ	-5737
ɐ	-5738
ɨ	-5739
Η	-5740
Ξ	-5741
ւ	-5742
ք	-5743
ص	-5744
ट	-5745
।	-5746
த	-5747
ய	-5748
്	-5749
්	-5750
ไ	-5751
რ	-5752
፡	-5753
ḑ	-5754
ṯ	-5755
ẫ	-5756
Ỏ	-5757
Ổ	-5758
Ủ	-5759
ὼ	-5760
↗	-5761
⇒	-5762
∖	-5763
∪	-5764
≢	-5765
⊥	-5766
┴	-5767
✔	-5768
ご	-5769
丽	-5770
享	-5771
亿	-5772
仍	-5773
众	-5774
係	-5775
倍	-5776
倒	-5777
側	-5778
北	-5779
匿	-5780
叉	-5781
叶	-5782
呢	-5783
宫	-5784
尔	-5785
尚	-5786
州	-5787
希	-5788
幕	-5789
張	-5790
慢	-5791
攻	-5792
政	-5793
故	-5794
施	-5795
极	-5796
標	-5797
民	-5798
游	-5799
滚	-5800
漏	-5801
牌	-5802
環	-5803
納	-5804
累	-5805
聚	-5806
議	-5807
豆	-5808
述	-5809
银	-5810
露	-5811
青	-5812
項	-5813
鼓	-5814
龄	-5815
동	-5816
료	-5817
루	-5818
연	-5819
Ĉ	-5820
Ĝ	-5821
Ĥ	-5822
ĥ	-5823
Ĵ	-5824
ĵ	-5825
Ľ	-5826
Ŝ	-5827
Ŭ	-5828
Ơ	-5829
ɢ	-5830
ɯ	-5831
ɴ	-5832
ʂ	-5833
ˀ	-5834
͘	-5835
͜	-5836
Ν	-5837
Й	-5838
Ш	-5839
ի	-5840
ղ	-5841
ս	-5842
տ	-5843
ց	-5844
כ	-5845
ब	-5846
ক	-5847
ি	-5848
ம	-5849
ல	-5850
్	-5851
ึ	-5852
ื	-5853
ი	-5854
ᄀ	-5855
ḩ	-5856
ḫ	-5857
ặ	-5858
ể	-5859
ἡ	-5860
ἱ	-5861
‵	-5862
∝	-5863
⌈	-5864
⌉	-5865
⌊	-5866
⌋	-5867
┘	-5868
○	-5869
❤	-5870
げ	-5871
ぴ	-5872
ぶ	-5873
ろ	-5874
介	-5875
兴	-5876
冻	-5877
券	-5878
又	-5879
叠	-5880
司	-5881
哪	-5882
國	-5883
委	-5884
官	-5885
宝	-5886
室	-5887
寸	-5888
尺	-5889
帧	-5890
延	-5891
態	-5892
扰	-5893
拉	-5894
暴	-5895
杜	-5896
條	-5897
横	-5898
氏	-5899
浏	-5900
港	-5901
湾	-5902
溢	-5903
瀬	-5904
監	-5905
磁	-5906
积	-5907
红	-5908
纪	-5909
藏	-5910
規	-5911
览	-5912
計	-5913
試	-5914
谓	-5915
跨	-5916
軍	-5917
轴	-5918
野	-5919
闲	-5920
階	-5921
韓	-5922
马	-5923
魔	-5924
거	-5925
국	-5926
목	-5927
산	-5928
설	-5929
승	-5930
택	-5931
홈	-5932
🐛	-5933
🐟	-5934
😷	-5935
Ò	-5936
Ď	-5937
ģ	-5938
Ř	-5939
Ź	-5940
ɵ	-5941
ɸ	-5942
ʇ	-5943
ʎ	-5944
ˌ	-5945
˦	-5946
˨	-5947
̀	-5948
̱	-5949
ֵ	-5950
ן	-5951
ס	-5952
ث	-5953
घ	-5954
ड	-5955
ो	-5956
ள	-5957
จ	-5958
฿	-5959
ใ	-5960
ํ	-5961
჻	-5962
ằ	-5963
ẹ	-5964
ἰ	-5965
ἵ	-5966
ὑ	-5967
ὰ	-5968
ὺ	-5969
ᾶ	-5970
Ῥ	-5971
ῷ	-5972
‹	-5973
₡	-5974
₦	-5975
↔	-5976
∅	-5977
∇	-5978
∕	-5979
┐	-5980
♩	-5981
❄	-5982
❯	-5983
⟦	-5984
⟧	-5985
べ	-5986
ゾ	-5987
丑	-5988
仟	-5989
伯	-5990
佳	-5991
価	-5992
债	-5993
催	-5994
克	-5995
効	-5996
卸	-5997
古	-5998
孙	-5999
宗	-6000
家	-6001
宾	-6002
尤	-6003
币	-6004
广	-6005
废	-6006
弘	-6007
彼	-6008
慮	-6009
房	-6010
探	-6011
敗	-6012
散	-6013
斜	-6014
杠	-6015
松	-6016
架	-6017
污	-6018
波	-6019
洞	-6020
派	-6021
海	-6022
済	-6023
測	-6024
溜	-6025
澳	-6026
激	-6027
焦	-6028
牛	-6029
瓣	-6030
田	-6031
福	-6032
站	-6033
篇	-6034
米	-6035
绩	-6036
育	-6037
舍	-6038
蛍	-6039
街	-6040
裹	-6041
覧	-6042
親	-6043
記	-6044
評	-6045
語	-6046
购	-6047
踪	-6048
連	-6049
钮	-6050
锯	-6051
领	-6052
香	-6053
驼	-6054
齿	-6055
영	-6056
증	-6057
팩	-6058
한	-6059
현	-6060
😄	-6061
	-6062
¬	-6063
Ë	-6064
Ï	-6065
Õ	-6066
Ù	-6067
Û	-6068
ļ	-6069
ɓ	-6070
ɥ	-6071
ʋ	-6072
ʝ	-6073
ʟ	-6074
ˁ	-6075
ˎ	-6076
˔	-6077
˹	-6078
˺	-6079
̚	-6080
̣	-6081
̰	-6082
Τ	-6083
У	-6084
ظ	-6085
غ	-6086
ۆ	-6087
க	-6088
ட	-6089
ப	-6090
ா	-6091
ස	-6092
ญ	-6093
ฯ	-6094
ა	-6095
ე	-6096
ვ	-6097
კ	-6098
ო	-6099
ხ	-6100
ჯ	-6101
ᛋ	-6102
ᛟ	-6103
ក	-6104
ស	-6105
ហ	-6106
ី	-6107
ុ	-6108
ោ	-6109
ṉ	-6110
ṟ	-6111
Ṣ	-6112
ề	-6113
Ọ	-6114
Ợ	-6115
ỵ	-6116
ἶ	-6117
ὡ	-6118
›	-6119
↪	-6120
⇄	-6121
∘	-6122
⋯	-6123
⏯	-6124
┼	-6125
╥	-6126
╪	-6127
♀	-6128
⩽	-6129
々	-6130
〇	-6131
《	-6132
ぎ	-6133
ぐ	-6134
゚	-6135
ゲ	-6136
ヂ	-6137
ヅ	-6138
ネ	-6139
丁	-6140
乘	-6141
乙	-6142
习	-6143
云	-6144
仙	-6145
併	-6146
侠	-6147
侧	-6148
净	-6149
刘	-6150
則	-6151
剔	-6152
副	-6153
勝	-6154
博	-6155
叁	-6156
友	-6157
啊	-6158
善	-6159
嗯	-6160
土	-6161
坚	-6162
奋	-6163
婷	-6164
寔	-6165
對	-6166
居	-6167
幅	-6168
幸	-6169
弧	-6170
忙	-6171
応	-6172
怎	-6173
愛	-6174
憲	-6175
抗	-6176
振	-6177
损	-6178
握	-6179
昵	-6180
植	-6181
椎	-6182
様	-6183
歩	-6184
残	-6185
気	-6186
氣	-6187
泰	-6188
涨	-6189
渡	-6190
漲	-6191
熵	-6192
猜	-6193
电	-6194
異	-6195
皮	-6196
盤	-6197
睡	-6198
破	-6199
礮	-6200
科	-6201
稍	-6202
種	-6203
稳	-6204
竞	-6205
笑	-6206
笔	-6207
箇	-6208
約	-6209
紋	-6210
细	-6211
署	-6212
羊	-6213
羽	-6214
耕	-6215
腾	-6216
舒	-6217
芝	-6218
荷	-6219
蔽	-6220
衡	-6221
裁	-6222
認	-6223
負	-6224
责	-6225
赫	-6226
辅	-6227
辖	-6228
辞	-6229
迟	-6230
途	-6231
遠	-6232
錬	-6233
闻	-6234
阿	-6235
险	-6236
隆	-6237
隐	-6238
際	-6239
隻	-6240
雀	-6241
雄	-6242
雅	-6243
靈	-6244
韩	-6245
類	-6246
馆	-6247
骤	-6248
魄	-6249
齐	-6250
는	-6251
능	-6252
등	-6253
마	-6254
투	-6255
	-6256
	-6257
	-6258
Ă	-6259
Ą	-6260
ĕ	-6261
Ğ	-6262
ĭ	-6263
ŗ	-6264
Ÿ	-6265
Ə	-6266
ƿ	-6267
ǝ	-6268
ɖ	-6269
ɗ	-6270
ɦ	-6271
ɧ	-6272
ɻ	-6273
ʈ	-6274
ʘ	-6275
˞	-6276
˱	-6277
̓	-6278
̤	-6279
̺	-6280
͍	-6281
Ч	-6282
љ	-6283
ў	-6284
Մ	-6285
թ	-6286
հ	-6287
շ	-6288
պ	-6289
֤	-6290
ֶ	-6291
ט	-6292
צ	-6293
ک	-6294
گ	-6295
ँ	-6296
आ	-6297
ङ	-6298
ु	-6299
ত	-6300
ন	-6301
ব	-6302
ম	-6303
ল	-6304
়	-6305
ஆ	-6306
எ	-6307
ஒ	-6308
ண	-6309
ฐ	-6310
ถ	-6311
ธ	-6312
།	-6313
္	-6314
გ	-6315
დ	-6316
ზ	-6317
ს	-6318
უ	-6319
ც	-6320
ძ	-6321
წ	-6322
ᄃ	-6323
ᛃ	-6324
ះ	-6325
᷉	-6326
Ả	-6327
Ầ	-6328
Ế	-6329
Ị	-6330
Ố	-6331
Ἀ	-6332
Ἕ	-6333
Ἠ	-6334
Ὄ	-6335
‣	-6336
‿	-6337
⁊	-6338
∀	-6339
≪	-6340
⏭	-6341
⏹	-6342
━	-6343
░	-6344
▲	-6345
◉	-6346
♪	-6347
⚰	-6348
ⴷ	-6349
ぅ	-6350
ヤ	-6351
丘	-6352
亦	-6353
亮	-6354
伍	-6355
佛	-6356
偿	-6357
儲	-6358
儿	-6359
兆	-6360
兰	-6361
冒	-6362
冴	-6363
凪	-6364
剛	-6365
劇	-6366
卒	-6367
厘	-6368
叫	-6369
哦	-6370
圈	-6371
坂	-6372
城	-6373
夏	-6374
夜	-6375
奖	-6376
姉	-6377
孩	-6378
宁	-6379
宏	-6380
富	-6381
實	-6382
寺	-6383
將	-6384
师	-6385
広	-6386
廷	-6387
弹	-6388
彩	-6389
律	-6390
忘	-6391
念	-6392
想	-6393
懂	-6394
扭	-6395
抄	-6396
抓	-6397
拒	-6398
拡	-6399
挑	-6400
挙	-6401
挿	-6402
摆	-6403
斷	-6404
於	-6405
晓	-6406
晨	-6407
朝	-6408
材	-6409
東	-6410
梁	-6411
業	-6412
楽	-6413
構	-6414
槽	-6415
欧	-6416
殻	-6417
氷	-6418
氾	-6419
江	-6420
河	-6421
浅	-6422
灵	-6423
爬	-6424
瓦	-6425
町	-6426
畫	-6427
硬	-6428
禁	-6429
税	-6430
穷	-6431
窗	-6432
筛	-6433
節	-6434
粒	-6435
綾	-6436
緑	-6437
繁	-6438
肖	-6439
胜	-6440
脸	-6441
膺	-6442
航	-6443
良	-6444
草	-6445
荐	-6446
莊	-6447
落	-6448
號	-6449
虽	-6450
融	-6451
講	-6452
谁	-6453
谢	-6454
财	-6455
贴	-6456
赏	-6457
赛	-6458
跑	-6459
輝	-6460
選	-6461
邪	-6462
邻	-6463
醒	-6464
鉴	-6465
銖	-6466
閏	-6467
阳	-6468
隊	-6469
隴	-6470
韵	-6471
響	-6472
須	-6473
顿	-6474
饰	-6475
驱	-6476
나	-6477
내	-6478
당	-6479
막	-6480
말	-6481
문	-6482
밀	-6483
배	-6484
비	-6485
열	-6486
읽	-6487
장	-6488
짓	-6489
템	-6490
플	-6491
해	-6492
👍	-6493
👎	-6494
🔀	-6495
¦	-6496
Ċ	-6497
ċ	-6498
ď	-6499
Ē	-6500
Ĕ	-6501
Ė	-6502
Ę	-6503
Ě	-6504
Ġ	-6505
Ģ	-6506
Ĩ	-6507
Ĭ	-6508
Į	-6509
į	-6510
Ķ	-6511
ĸ	-6512
Ĺ	-6513
Ļ	-6514
Ń	-6515
Ņ	-6516
Ň	-6517
Ŋ	-6518
Ŏ	-6519
Ő	-6520
Ŕ	-6521
ŕ	-6522
Ŗ	-6523
ŧ	-6524
Ũ	-6525
Ū	-6526
Ů	-6527
Ű	-6528
ű	-6529
Ų	-6530
Ŵ	-6531
Ŷ	-6532
ǖ	-6533
ǘ	-6534
ǚ	-6535
ǜ	-6536
ȝ	-6537
ȥ	-6538
ɹ	-6539
ʞ	-6540
˲	-6541
Ά	-6542
Ρ	-6543
Ё	-6544
Ю	-6545
գ	-6546
մ	-6547
آ	-6548
ख	-6549
छ	-6550
ज	-6551
झ	-6552
ञ	-6553
ढ	-6554
थ	-6555
ध	-6556
फ	-6557
ू	-6558
இ	-6559
ஐ	-6560
ஜ	-6561
ழ	-6562
ක	-6563
ම	-6564
ැ	-6565
ฆ	-6566
ฤ	-6567
ๅ	-6568
๊	-6569
๋	-6570
ນ	-6571
າ	-6572
ბ	-6573
მ	-6574
ტ	-6575
ᄅ	-6576
ᄌ	-6577
ᅥ	-6578
ᅦ	-6579
ᆬ	-6580
ណ	-6581
ា	-6582
ំ	-6583
ᴅ	-6584
ᴇ	-6585
Ḏ	-6586
ḏ	-6587
Ḫ	-6588
Ḳ	-6589
ḳ	-6590
ṡ	-6591
Ṯ	-6592
ṱ	-6593
ṽ	-6594
ẖ	-6595
Ấ	-6596
ẻ	-6597
Ề	-6598
Ễ	-6599
Ờ	-6600
Ự	-6601
ỷ	-6602
⇢	-6603
⋮	-6604
┻	-6605
╡	-6606
╫	-6607
╬	-6608
╯	-6609
▄	-6610
▊	-6611
▋	-6612
▌	-6613
◆	-6614
◊	-6615
◌	-6616
☹	-6617
♫	-6618
♬	-6619
✈	-6620
✖	-6621
❓	-6622
⿱	-6623
ぜ	-6624
ぬ	-6625
ほ	-6626
ぼ	-6627
丝	-6628
両	-6629
丰	-6630
丹	-6631
乎	-6632
乗	-6633
亏	-6634
亚	-6635
亢	-6636
仲	-6637
企	-6638
伊	-6639
佰	-6640
侯	-6641
優	-6642
兄	-6643
养	-6644
军	-6645
冠	-6646
冰	-6647
凤	-6648
刺	-6649
势	-6650
區	-6651
卧	-6652
危	-6653
卷	-6654
县	-6655
吗	-6656
味	-6657
唤	-6658
喔	-6659
噪	-6660
困	-6661
坏	-6662
堵	-6663
壹	-6664
姜	-6665
姬	-6666
學	-6667
宰	-6668
寇	-6669
察	-6670
尋	-6671
尸	-6672
屠	-6673
履	-6674
山	-6675
巫	-6676
席	-6677
帮	-6678
帰	-6679
庚	-6680
康	-6681
廿	-6682
弄	-6683
弟	-6684
忍	-6685
惠	-6686
慎	-6687
慕	-6688
懒	-6689
技	-6690
折	-6691
択	-6692
拓	-6693
拖	-6694
拽	-6695
拾	-6696
挤	-6697
捌	-6698
搞	-6699
救	-6700
斥	-6701
斯	-6702
昌	-6703
暗	-6704
曼	-6705
杭	-6706
林	-6707
柒	-6708
桂	-6709
梅	-6710
梦	-6711
森	-6712
檔	-6713
欄	-6714
欢	-6715
毎	-6716
沒	-6717
沙	-6718
治	-6719
沽	-6720
泄	-6721
浪	-6722
溯	-6723
濮	-6724
燕	-6725
爱	-6726
爸	-6727
玖	-6728
玩	-6729
琴	-6730
甲	-6731
當	-6732
盈	-6733
盛	-6734
盯	-6735
眠	-6736
础	-6737
礼	-6738
祖	-6739
秘	-6740
竟	-6741
籍	-6742
粗	-6743
粘	-6744
純	-6745
紧	-6746
絞	-6747
經	-6748
継	-6749
纵	-6750
织	-6751
绪	-6752
罗	-6753
羯	-6754
翻	-6755
职	-6756
肆	-6757
脏	-6758
荣	-6759
营	-6760
葛	-6761
薄	-6762
處	-6763
蚁	-6764
觉	-6765
诉	-6766
诸	-6767
谨	-6768
谱	-6769
豪	-6770
贡	-6771
贰	-6772
跃	-6773
辛	-6774
辰	-6775
迁	-6776
違	-6777
遗	-6778
適	-6779
遵	-6780
郁	-6781
郭	-6782
钩	-6783
長	-6784
阎	-6785
雷	-6786
食	-6787
饺	-6788
驳	-6789
魏	-6790
鱼	-6791
鲁	-6792
麻	-6793
龙	-6794
값	-6795
개	-6796
구	-6797
딩	-6798
러	-6799
림	-6800
만	-6801
상	-6802
소	-6803
알	-6804
여	-6805
은	-6806
저	-6807
조	-6808
주	-6809
친	-6810
키	-6811
합	-6812
확	-6813
🌲	-6814
🎉	-6815
🔈	-6816
🔉	-6817
🔊	-6818
😀	-6819
😭	-6820
🙁	-6821
ĺ	-6822
Ť	-6823
Ŧ	-6824
ƀ	-6825
Ƃ	-6826
ƃ	-6827
Ƅ	-6828
ƅ	-6829
Ƈ	-6830
ƈ	-6831
Ɖ	-6832
Ɗ	-6833
Ɛ	-6834
Ƒ	-6835
Ɠ	-6836
Ɣ	-6837
Ɩ	-6838
Ɨ	-6839
Ƙ	-6840
ƙ	-6841
ƚ	-6842
Ɲ	-6843
ƞ	-6844
Ɵ	-6845
Ƥ	-6846
Ʀ	-6847
ƫ	-6848
Ƭ	-6849
ƭ	-6850
Ʈ	-6851
Ʊ	-6852
Ʋ	-6853
Ƴ	-6854
ƴ	-6855
Ƶ	-6856
ƶ	-6857
ǀ	-6858
Ǎ	-6859
Ǐ	-6860
Ǒ	-6861
Ǔ	-6862
Ǖ	-6863
Ǘ	-6864
Ǚ	-6865
Ǜ	-6866
Ǟ	-6867
ǟ	-6868
Ǡ	-6869
ǡ	-6870
Ǣ	-6871
Ǥ	-6872
ǥ	-6873
Ǧ	-6874
ǧ	-6875
Ǩ	-6876
ǩ	-6877
Ǫ	-6878
Ǭ	-6879
ǭ	-6880
ǰ	-6881
Ǵ	-6882
ǵ	-6883
Ƿ	-6884
Ǹ	-6885
ǹ	-6886
Ǻ	-6887
ǻ	-6888
Ǽ	-6889
ǽ	-6890
Ǿ	-6891
ǿ	-6892
Ȁ	-6893
ȁ	-6894
Ȃ	-6895
ȃ	-6896
Ȅ	-6897
ȅ	-6898
Ȇ	-6899
ȇ	-6900
Ȉ	-6901
ȉ	-6902
Ȋ	-6903
ȋ	-6904
Ȍ	-6905
ȍ	-6906
Ȏ	-6907
ȏ	-6908
Ȑ	-6909
ȑ	-6910
Ȓ	-6911
ȓ	-6912
Ȕ	-6913
ȕ	-6914
Ȗ	-6915
ȗ	-6916
Ȟ	-6917
ȟ	-6918
Ȥ	-6919
Ȧ	-6920
ȧ	-6921
Ȩ	-6922
ȩ	-6923
Ȫ	-6924
ȫ	-6925
Ȭ	-6926
ȭ	-6927
Ȯ	-6928
ȯ	-6929
Ȱ	-6930
ȱ	-6931
Ȳ	-6932
ȵ	-6933
ɚ	-6934
ɝ	-6935
ɫ	-6936
ɳ	-6937
ʖ	-6938
ˆ	-6939
˗	-6940
̋	-6941
̔	-6942
Έ	-6943
Ή	-6944
Ί	-6945
Ό	-6946
Ύ	-6947
Ώ	-6948
ΐ	-6949
Ζ	-6950
Ϊ	-6951
ΰ	-6952
ϊ	-6953
ϋ	-6954
Ђ	-6955
Є	-6956
Ѕ	-6957
І	-6958
Ї	-6959
Ѝ	-6960
Ж	-6961
Л	-6962
Ф	-6963
Х	-6964
Ц	-6965
Щ	-6966
Ы	-6967
Ь	-6968
ђ	-6969
є	-6970
ї	-6971
њ	-6972
҆	-6973
Ґ	-6974
ґ	-6975
ӿ	-6976
֊	-6977
פ	-6978
ק	-6979
ئ	-6980
٫	-6981
پ	-6982
چ	-6983
च	-6984
ण	-6985
ळ	-6986
ऴ	-6987
ऽ	-6988
ॐ	-6989
॑	-6990
॔	-6991
०	-6992
९	-6993
॰	-6994
அ	-6995
ஏ	-6996
ஓ	-6997
ெ	-6998
ே	-6999
ொ	-7000
ී	-7001
ฉ	-7002
ซ	-7003
ผ	-7004
ฦ	-7005
ษ	-7006
ฬ	-7007
ฮ	-7008
ๆ	-7009
ກ	-7010
ຄ	-7011
ງ	-7012
ຕ	-7013
ອ	-7014
ຮ	-7015
ັ	-7016
ື	-7017
ເ	-7018
່	-7019
້	-7020
პ	-7021
ᄂ	-7022
ᄇ	-7023
ᄉ	-7024
ᅩ	-7025
ሮ	-7026
ቅ	-7027
ብ	-7028
ች	-7029
ን	-7030
ᴏ	-7031
ᴘ	-7032
Ḁ	-7033
ḁ	-7034
Ḃ	-7035
ḃ	-7036
Ḅ	-7037
ḅ	-7038
Ḇ	-7039
ḇ	-7040
Ḉ	-7041
ḉ	-7042
Ḋ	-7043
ḋ	-7044
Ḍ	-7045
Ḑ	-7046
Ḓ	-7047
ḓ	-7048
Ḕ	-7049
ḕ	-7050
Ḗ	-7051
ḗ	-7052
Ḙ	-7053
ḙ	-7054
Ḛ	-7055
ḛ	-7056
Ḝ	-7057
ḝ	-7058
Ḟ	-7059
ḟ	-7060
Ḡ	-7061
ḡ	-7062
Ḣ	-7063
ḣ	-7064
Ḧ	-7065
ḧ	-7066
Ḩ	-7067
Ḭ	-7068
ḭ	-7069
Ḯ	-7070
ḯ	-7071
Ḱ	-7072
ḱ	-7073
Ḵ	-7074
ḵ	-7075
Ḷ	-7076
Ḹ	-7077
ḹ	-7078
Ḻ	-7079
Ḽ	-7080
ḽ	-7081
Ḿ	-7082
ḿ	-7083
Ṁ	-7084
ṁ	-7085
Ṃ	-7086
Ṅ	-7087
Ṇ	-7088
Ṉ	-7089
Ṋ	-7090
ṋ	-7091
Ṍ	-7092
ṍ	-7093
Ṏ	-7094
ṏ	-7095
Ṑ	-7096
ṑ	-7097
Ṓ	-7098
ṓ	-7099
Ṕ	-7100
ṕ	-7101
Ṗ	-7102
ṗ	-7103
Ṙ	-7104
ṙ	-7105
Ṛ	-7106
Ṝ	-7107
ṝ	-7108
Ṟ	-7109
Ṡ	-7110
Ṥ	-7111
ṥ	-7112
Ṧ	-7113
ṧ	-7114
Ṩ	-7115
ṩ	-7116
Ṫ	-7117
ṫ	-7118
Ṭ	-7119
Ṱ	-7120
Ṳ	-7121
ṳ	-7122
Ṵ	-7123
ṵ	-7124
Ṷ	-7125
ṷ	-7126
Ṹ	-7127
ṹ	-7128
Ṻ	-7129
ṻ	-7130
Ṽ	-7131
Ṿ	-7132
ṿ	-7133
Ẁ	-7134
ẁ	-7135
Ẃ	-7136
ẃ	-7137
Ẅ	-7138
ẅ	-7139
Ẇ	-7140
ẇ	-7141
Ẉ	-7142
ẉ	-7143
Ẋ	-7144
ẋ	-7145
Ẍ	-7146
ẍ	-7147
Ẏ	-7148
ẏ	-7149
Ẑ	-7150
ẑ	-7151
Ẓ	-7152
ẓ	-7153
Ẕ	-7154
ẕ	-7155
ẗ	-7156
ẘ	-7157
ẙ	-7158
Ẩ	-7159
Ẫ	-7160
Ậ	-7161
Ắ	-7162
Ằ	-7163
Ẳ	-7164
ẳ	-7165
Ẵ	-7166
Ặ	-7167
Ẹ	-7168
Ẻ	-7169
Ẽ	-7170
ẽ	-7171
Ể	-7172
Ệ	-7173
Ỉ	-7174
ỉ	-7175
Ồ	-7176
Ỗ	-7177
Ớ	-7178
Ở	-7179
Ỡ	-7180
ỡ	-7181
Ụ	-7182
Ứ	-7183
Ừ	-7184
Ử	-7185
Ữ	-7186
Ỳ	-7187
Ỵ	-7188
Ỷ	-7189
Ỹ	-7190
ἁ	-7191
ἂ	-7192
ἃ	-7193
ἅ	-7194
ἆ	-7195
ἇ	-7196
ἑ	-7197
ἒ	-7198
ἓ	-7199
ἔ	-7200
ἕ	-7201
ἠ	-7202
ἢ	-7203
ἣ	-7204
ἤ	-7205
ἥ	-7206
ἦ	-7207
ἧ	-7208
ἲ	-7209
ἳ	-7210
ἴ	-7211
ἷ	-7212
ὀ	-7213
ὂ	-7214
ὃ	-7215
ὄ	-7216
ὅ	-7217
ὒ	-7218
ὓ	-7219
ὔ	-7220
ὕ	-7221
ὖ	-7222
ὗ	-7223
ὠ	-7224
ὢ	-7225
ὣ	-7226
ὤ	-7227
ὥ	-7228
ὦ	-7229
ὧ	-7230
ᾂ	-7231
ᾃ	-7232
ᾆ	-7233
ᾇ	-7234
ᾏ	-7235
ᾐ	-7236
ᾑ	-7237
ᾒ	-7238
ᾓ	-7239
ᾖ	-7240
ᾗ	-7241
ᾠ	-7242
ᾡ	-7243
ᾢ	-7244
ᾣ	-7245
ᾦ	-7246
ᾧ	-7247
ᾳ	-7248
ᾷ	-7249
ῂ	-7250
ῃ	-7251
ῄ	-7252
ῇ	-7253
ῲ	-7254
ῳ	-7255
ῴ	-7256
⁃	-7257
⃣	-7258
↖	-7259
↘	-7260
↙	-7261
↴	-7262
↺	-7263
⇔	-7264
⇝	-7265
⇦	-7266
⇧	-7267
⇩	-7268
⇲	-7269
∉	-7270
∊	-7271
∧	-7272
∨	-7273
∷	-7274
⊑	-7275
⊤	-7276
⌐	-7277
⌟	-7278
⏮	-7279
⏰	-7280
⏴	-7281
⏵	-7282
┄	-7283
╘	-7284
╛	-7285
╜	-7286
▀	-7287
▍	-7288
▏	-7289
▐	-7290
▒	-7291
▓	-7292
□	-7293
►	-7294
▾	-7295
◄	-7296
●	-7297
◐	-7298
☣	-7299
☰	-7300
☱	-7301
☲	-7302
☳	-7303
☴	-7304
☵	-7305
☶	-7306
☷	-7307
☾	-7308
⚐	-7309
⚔	-7310
⚕	-7311
⚖	-7312
⚠	-7313
✅	-7314
❎	-7315
❝	-7316
Ⱡ	-7317
⸗	-7318
⸨	-7319
⸩	-7320
⿰	-7321
⿴	-7322
〚	-7323
ぁ	-7324
ぃ	-7325
ぇ	-7326
ぉ	-7327
ざ	-7328
ぞ	-7329
ぢ	-7330
づ	-7331
ね	-7332
ぱ	-7333
ぷ	-7334
ぺ	-7335
ゆ	-7336
ゐ	-7337
ゑ	-7338
ㄅ	-7339
丙	-7340
乌	-7341
乔	-7342
乜	-7343
争	-7344
亓	-7345
井	-7346
亥	-7347
亨	-7348
亲	-7349
仁	-7350
仇	-7351
仉	-7352
仪	-7353
仮	-7354
仰	-7355
仿	-7356
伏	-7357
伟	-7358
伦	-7359
伪	-7360
佘	-7361
佟	-7362
佴	-7363
俊	-7364
俞	-7365
俟	-7366
俩	-7367
借	-7368
倩	-7369
倪	-7370
健	-7371
偶	-7372
傅	-7373
僵	-7374
党	-7375
兜	-7376
內	-7377
冀	-7378
冉	-7379
农	-7380
冯	-7381
冶	-7382
冷	-7383
凌	-7384
凑	-7385
凝	-7386
凡	-7387
刀	-7388
刁	-7389
刪	-7390
剥	-7391
劈	-7392
励	-7393
劲	-7394
劳	-7395
勇	-7396
勤	-7397
勾	-7398
匡	-7399
卓	-7400
卜	-7401
卞	-7402
卢	-7403
卦	-7404
卫	-7405
卯	-7406
卿	-7407
厉	-7408
厍	-7409
厚	-7410
収	-7411
叔	-7412
叹	-7413
吃	-7414
吉	-7415
吕	-7416
吴	-7417
呀	-7418
呗	-7419
咎	-7420
咏	-7421
咖	-7422
咯	-7423
咸	-7424
哎	-7425
哥	-7426
哲	-7427
唐	-7428
唱	-7429
問	-7430
啡	-7431
啦	-7432
喻	-7433
嘉	-7434
嘗	-7435
园	-7436
圾	-7437
坟	-7438
垃	-7439
堂	-7440
塔	-7441
墙	-7442
墨	-7443
壁	-7444
壊	-7445
壤	-7446
壬	-7447
壮	-7448
夔	-7449
央	-7450
夺	-7451
奈	-7452
奚	-7453
妈	-7454
妍	-7455
妹	-7456
姆	-7457
姚	-7458
姣	-7459
娄	-7460
娅	-7461
娜	-7462
娟	-7463
娣	-7464
娥	-7465
娴	-7466
婉	-7467
婕	-7468
婪	-7469
婵	-7470
媛	-7471
孔	-7472
孟	-7473
孤	-7474
宇	-7475
宓	-7476
宜	-7477
宠	-7478
宣	-7479
宦	-7480
害	-7481
宿	-7482
寅	-7483
寒	-7484
寿	-7485
尉	-7486
尹	-7487
尼	-7488
屈	-7489
岑	-7490
岚	-7491
岩	-7492
岳	-7493
崔	-7494
嵇	-7495
巢	-7496
巧	-7497
巩	-7498
巳	-7499
巴	-7500
巷	-7501
帅	-7502
幂	-7503
庄	-7504
庆	-7505
床	-7506
庞	-7507
廉	-7508
廖	-7509
弓	-7510
彪	-7511
彬	-7512
彭	-7513
徐	-7514
徒	-7515
德	-7516
怀	-7517
怡	-7518
怪	-7519
恶	-7520
悦	-7521
悬	-7522
悲	-7523
惩	-7524
惯	-7525
惰	-7526
慧	-7527
應	-7528
戈	-7529
戊	-7530
戌	-7531
戎	-7532
戏	-7533
战	-7534
戚	-7535
戴	-7536
戶	-7537
扁	-7538
扈	-7539
扎	-7540
扔	-7541
扣	-7542
扳	-7543
扶	-7544
抑	-7545
拔	-7546
招	-7547
拜	-7548
拥	-7549
挣	-7550
捕	-7551
採	-7552
措	-7553
摇	-7554
撮	-7555
敌	-7556
敖	-7557
敬	-7558
數	-7559
斌	-7560
旅	-7561
族	-7562
旭	-7563
昭	-7564
晁	-7565
晋	-7566
晏	-7567
晶	-7568
暨	-7569
曜	-7570
曾	-7571
朋	-7572
朗	-7573
朱	-7574
朵	-7575
杆	-7576
杨	-7577
杰	-7578
枝	-7579
枫	-7580
柄	-7581
柏	-7582
柔	-7583
柯	-7584
柱	-7585
柳	-7586
柴	-7587
栋	-7588
栏	-7589
栾	-7590
桌	-7591
桑	-7592
桓	-7593
械	-7594
楚	-7595
楠	-7596
楼	-7597
榕	-7598
樊	-7599
欠	-7600
欣	-7601
款	-7602
歴	-7603
殳	-7604
殴	-7605
殷	-7606
毅	-7607
毋	-7608
毓	-7609
毛	-7610
气	-7611
汇	-7612
汝	-7613
汤	-7614
汪	-7615
汰	-7616
汲	-7617
汽	-7618
沃	-7619
沈	-7620
沪	-7621
況	-7622
泡	-7623
泽	-7624
洁	-7625
洗	-7626
洪	-7627
洲	-7628
济	-7629
浦	-7630
浩	-7631
涂	-7632
涛	-7633
淑	-7634
淘	-7635
淳	-7636
渐	-7637
減	-7638
温	-7639
湛	-7640
滕	-7641
滞	-7642
滢	-7643
漆	-7644
演	-7645
漫	-7646
潘	-7647
澜	-7648
澹	-7649
濁	-7650
灰	-7651
炎	-7652
烦	-7653
熊	-7654
爵	-7655
爽	-7656
牟	-7657
牡	-7658
牧	-7659
狄	-7660
狐	-7661
狗	-7662
狮	-7663
献	-7664
玉	-7665
玫	-7666
玲	-7667
珊	-7668
珍	-7669
珠	-7670
琛	-7671
琦	-7672
琬	-7673
琰	-7674
琳	-7675
琼	-7676
瑗	-7677
瑞	-7678
瑰	-7679
瑶	-7680
瑾	-7681
璐	-7682
璧	-7683
璩	-7684
瓜	-7685
瓶	-7686
甄	-7687
甘	-7688
甚	-7689
產	-7690
甫	-7691
男	-7692
疏	-7693
癸	-7694
發	-7695
皇	-7696
盟	-7697
眉	-7698
督	-7699
瞿	-7700
石	-7701
碰	-7702
碼	-7703
磊	-7704
社	-7705
祁	-7706
祝	-7707
祥	-7708
禄	-7709
禹	-7710
禾	-7711
秀	-7712
租	-7713
秤	-7714
秦	-7715
稀	-7716
稱	-7717
穆	-7718
窦	-7719
竖	-7720
童	-7721
竹	-7722
竺	-7723
笪	-7724
筐	-7725
筠	-7726
粉	-7727
粤	-7728
粱	-7729
糜	-7730
経	-7731
給	-7732
統	-7733
絶	-7734
網	-7735
線	-7736
縦	-7737
繰	-7738
纠	-7739
纨	-7740
纸	-7741
绍	-7742
综	-7743
缑	-7744
缪	-7745
罚	-7746
羿	-7747
翁	-7748
翔	-7749
翟	-7750
翠	-7751
翰	-7752
耿	-7753
聂	-7754
聪	-7755
肥	-7756
胡	-7757
胥	-7758
腐	-7759
臧	-7760
舌	-7761
艳	-7762
艺	-7763
艾	-7764
芬	-7765
芮	-7766
芳	-7767
芸	-7768
苍	-7769
苏	-7770
苑	-7771
苗	-7772
苹	-7773
茂	-7774
茅	-7775
茗	-7776
茜	-7777
茹	-7778
荀	-7779
荔	-7780
莉	-7781
莎	-7782
莘	-7783
莫	-7784
莲	-7785
莺	-7786
菁	-7787
菊	-7788
菲	-7789
萌	-7790
萍	-7791
萧	-7792
董	-7793
蒋	-7794
蒙	-7795
蒯	-7796
蒲	-7797
蓉	-7798
蓓	-7799
蓝	-7800
蓟	-7801
蓬	-7802
蔚	-7803
蔡	-7804
蔺	-7805
蕊	-7806
薇	-7807
薛	-7808
虞	-7809
蝎	-7810
蟹	-7811
袁	-7812
裕	-7813
裘	-7814
裴	-7815
褚	-7816
註	-7817
訾	-7818
詞	-7819
詰	-7820
詹	-7821
誘	-7822
誤	-7823
課	-7824
請	-7825
識	-7826
譬	-7827
讲	-7828
诚	-7829
谈	-7830
谐	-7831
谣	-7832
谦	-7833
谭	-7834
谯	-7835
貌	-7836
貨	-7837
貫	-7838
質	-7839
贞	-7840
贪	-7841
贲	-7842
贵	-7843
贺	-7844
贾	-7845
赞	-7846
赤	-7847
赵	-7848
践	-7849
踢	-7850
轩	-7851
轻	-7852
辉	-7853
辕	-7854
辣	-7855
辨	-7856
迎	-7857
违	-7858
迷	-7859
逄	-7860
逯	-7861
週	-7862
逼	-7863
邓	-7864
邢	-7865
邦	-7866
邬	-7867
邱	-7868
邴	-7869
邵	-7870
邹	-7871
郎	-7872
郏	-7873
郑	-7874
郗	-7875
郜	-7876
郝	-7877
郦	-7878
鄂	-7879
鄢	-7880
酆	-7881
酉	-7882
钦	-7883
钧	-7884
钭	-7885
钱	-7886
锦	-7887
镇	-7888
镜	-7889
門	-7890
閾	-7891
闵	-7892
闾	-7893
阀	-7894
阈	-7895
阕	-7896
阙	-7897
阚	-7898
阮	-7899
阴	-7900
陋	-7901
陣	-7902
陶	-7903
陷	-7904
隗	-7905
障	-7906
雁	-7907
雍	-7908
雕	-7909
霄	-7910
震	-7911
霍	-7912
霞	-7913
霭	-7914
霸	-7915
靠	-7916
靳	-7917
鞠	-7918
韦	-7919
韶	-7920
頁	-7921
顾	-7922
颖	-7923
颛	-7924
飘	-7925
飞	-7926
饶	-7927
馥	-7928
馨	-7929
馬	-7930
驷	-7931
骆	-7932
鲍	-7933
鲜	-7934
鸟	-7935
鸣	-7936
鹏	-7937
鹿	-7938
麼	-7939
黄	-7940
黎	-7941
黛	-7942
鼠	-7943
龚	-7944
ꜣ	-7945
ꜥ	-7946
각	-7947
객	-7948
검	-7949
것	-7950
곴	-7951
그	-7952
까	-7953
날	-7954
단	-7955
도	-7956
두	-7957
또	-7958
를	-7959
릿	-7960
맷	-7961
모	-7962
무	-7963
므	-7964
방	-7965
변	-7966
본	-7967
빌	-7968
색	-7969
식	-7970
실	-7971
씩	-7972
어	-7973
언	-7974
우	-7975
월	-7976
임	-7977
있	-7978
제	-7979
죄	-7980
쨰	-7981
찾	-7982
체	-7983
초	-7984
추	-7985
콜	-7986
타	-7987
터	-7988
톡	-7989
트	-7990
팝	-7991
패	-7992
포	-7993
표	-7994
퓛	-7995
