<pad>	0
<unk>	0
<s>	0
</s>	0
▁t	-0
in	-1
er	-2
▁a	-3
▁.	-4
on	-5
▁(	-6
▁)	-7
▁,	-8
he	-9
re	-10
▁s	-11
at	-12
en	-13
or	-14
▁the	-15
▁c	-16
▁=	-17
es	-18
▁f	-19
ed	-20
al	-21
is	-22
▁p	-23
an	-24
it	-25
ar	-26
▁w	-27
▁o	-28
▁in	-29
el	-30
et	-31
ing	-32
ion	-33
▁b	-34
▁d	-35
▁re	-36
as	-37
ro	-38
▁n	-39
nd	-40
ic	-41
le	-42
▁m	-43
▁;	-44
ur	-45
▁of	-46
am	-47
▁to	-48
▁"	-49
▁and	-50
ent	-51
▁:	-52
▁l	-53
▁g	-54
▁h	-55
▁i	-56
▁S	-57
ct	-58
▁'	-59
ut	-60
st	-61
ce	-62
il	-63
▁T	-64
▁th	-65
ul	-66
▁e	-67
id	-68
ad	-69
▁{	-70
▁1	-71
om	-72
se	-73
▁}	-74
tr	-75
▁C	-76
▁A	-77
ot	-78
ol	-79
▁for	-80
▁if	-81
un	-82
▁[	-83
ig	-84
▁]	-85
od	-86
elf	-87
▁v	-88
im	-89
▁self	-90
ch	-91
pt	-92
▁get	-93
▁I	-94
▁@	-95
▁M	-96
ame	-97
urn	-98
ter	-99
ra	-100
▁de	-101
ation	-102
▁ret	-103
▁is	-104
ate	-105
pe	-106
▁st	-107
ag	-108
us	-109
iv	-110
▁return	-111
▁B	-112
▁N	-113
um	-114
▁con	-115
ir	-116
▁on	-117
ck	-118
▁was	-119
ue	-120
ew	-121
em	-122
ers	-123
ow	-124
ist	-125
ly	-126
th	-127
ub	-128
▁P	-129
▁be	-130
ith	-131
▁as	-132
ab	-133
▁The	-134
est	-135
▁F	-136
▁R	-137
ay	-138
ect	-139
ver	-140
▁H	-141
▁D	-142
▁2	-143
ex	-144
qu	-145
up	-146
-@	-147
▁@-@	-148
▁L	-149
and	-150
▁ex	-151
▁with	-152
▁wh	-153
end	-154
▁pro	-155
ess	-156
▁E	-157
▁k	-158
▁al	-159
▁it	-160
▁0	-161
▁O	-162
▁new	-163
▁_	-164
if	-165
res	-166
▁that	-167
tring	-168
▁r	-169
▁by	-170
▁+	-171
lo	-172
▁W	-173
▁at	-174
ption	-175
ain	-176
▁G	-177
ile	-178
pp	-179
all	-180
▁an	-181
rom	-182
▁def	-183
▁<	-184
art	-185
▁el	-186
▁not	-187
ere	-188
av	-189
▁he	-190
ass	-191
▁com	-192
▁res	-193
ath	-194
os	-195
ype	-196
ort	-197
lic	-198
ull	-199
ug	-200
ult	-201
▁J	-202
▁>	-203
age	-204
one	-205
▁/	-206
ri	-207
▁#	-208
und	-209
ey	-210
▁se	-211
oc	-212
our	-213
ment	-214
▁int	-215
ore	-216
op	-217
pl	-218
▁from	-219
iz	-220
▁ch	-221
▁String	-222
ap	-223
▁19	-224
ord	-225
ies	-226
ata	-227
alue	-228
ode	-229
00	-230
igh	-231
og	-232
ack	-233
▁In	-234
ity	-235
▁tr	-236
▁ad	-237
▁fin	-238
▁pub	-239
able	-240
ception	-241
ak	-242
ext	-243
▁ar	-244
▁*	-245
ber	-246
Ex	-247
ill	-248
out	-249
ime	-250
ac	-251
▁null	-252
ip	-253
ction	-254
ure	-255
row	-256
▁public	-257
▁sh	-258
ong	-259
ine	-260
per	-261
▁j	-262
▁==	-263
▁his	-264
ud	-265
▁or	-266
ant	-267
ge	-268
ard	-269
ive	-270
▁this	-271
▁U	-272
oun	-273
▁//	-274
rit	-275
ance	-276
▁cl	-277
▁set	-278
int	-279
ject	-280
ial	-281
ff	-282
cl	-283
▁None	-284
ated	-285
▁y	-286
ast	-287
ib	-288
ars	-289
▁cont	-290
nt	-291
ire	-292
ov	-293
orm	-294
▁pl	-295
ust	-296
▁else	-297
ase	-298
ost	-299
ich	-300
▁-	-301
▁K	-302
arg	-303
ror	-304
▁were	-305
are	-306
ight	-307
▁V	-308
act	-309
con	-310
ition	-311
ans	-312
▁final	-313
Exception	-314
ild	-315
▁add	-316
erv	-317
ice	-318
▁app	-319
ok	-320
Con	-321
▁!	-322
▁un	-323
Name	-324
cc	-325
pon	-326
ary	-327
port	-328
▁le	-329
In	-330
put	-331
ugh	-332
▁St	-333
▁out	-334
▁are	-335
name	-336
ide	-337
quest	-338
ory	-339
▁3	-340
iel	-341
atch	-342
▁en	-343
St	-344
ec	-345
ave	-346
▁had	-347
ign	-348
ace	-349
▁which	-350
ell	-351
ress	-352
ize	-353
▁form	-354
▁name	-355
▁sc	-356
▁ro	-357
▁ra	-358
ield	-359
aram	-360
ork	-361
bject	-362
▁len	-363
oul	-364
irst	-365
▁pr	-366
use	-367
ia	-368
ict	-369
▁str	-370
▁value	-371
ical	-372
ould	-373
▁has	-374
ail	-375
ount	-376
ind	-377
ev	-378
ther	-379
▁throw	-380
ence	-381
▁up	-382
ep	-383
▁%	-384
ef	-385
▁pre	-386
▁Ch	-387
ound	-388
▁us	-389
fig	-390
ry	-391
▁key	-392
eg	-393
▁stat	-394
▁im	-395
ource	-396
low	-397
▁Th	-398
Type	-399
▁data	-400
hed	-401
▁fil	-402
eth	-403
▁we	-404
▁first	-405
▁result	-406
ish	-407
fter	-408
▁but	-409
▁col	-410
ens	-411
ise	-412
ld	-413
ous	-414
▁x	-415
ian	-416
▁ind	-417
ree	-418
ax	-419
ph	-420
▁!=	-421
so	-422
▁bu	-423
▁200	-424
▁cre	-425
str	-426
▁ab	-427
ix	-428
own	-429
ang	-430
▁4	-431
ator	-432
vent	-433
▁log	-434
ert	-435
▁time	-436
▁rec	-437
▁dis	-438
▁bo	-439
rror	-440
form	-441
stance	-442
ations	-443
▁do	-444
alse	-445
ray	-446
▁per	-447
▁20	-448
roup	-449
Id	-450
tern	-451
te	-452
ll	-453
ome	-454
▁comp	-455
ions	-456
gth	-457
Error	-458
du	-459
ater	-460
oid	-461
▁path	-462
▁arg	-463
▁try	-464
▁part	-465
wo	-466
ery	-467
ponse	-468
▁sub	-469
▁have	-470
hen	-471
▁its	-472
oint	-473
ach	-474
ear	-475
lass	-476
esc	-477
▁comm	-478
▁append	-479
ames	-480
fo	-481
▁her	-482
ient	-483
▁5	-484
▁one	-485
--	-486
▁off	-487
▁su	-488
ob	-489
Res	-490
▁num	-491
▁their	-492
▁rem	-493
ute	-494
ener	-495
als	-496
ces	-497
▁–	-498
clud	-499
▁also	-500
▁Tr	-501
ings	-502
son	-503
ark	-504
▁writ	-505
amp	-506
▁who	-507
▁He	-508
oth	-509
ann	-510
ty	-511
urre	-512
IN	-513
List	-514
Re	-515
▁end	-516
▁start	-517
pec	-518
▁ent	-519
▁all	-520
erm	-521
▁ag	-522
▁id	-523
Pro	-524
▁&	-525
▁list	-526
ual	-527
▁void	-528
▁format	-529
▁val	-530
▁over	-531
▁co	-532
ER	-533
set	-534
ik	-535
ents	-536
essage	-537
val	-538
old	-539
▁bec	-540
▁been	-541
▁two	-542
▁qu	-543
▁18	-544
ite	-545
ethod	-546
ervice	-547
▁sy	-548
les	-549
fer	-550
type	-551
ange	-552
vel	-553
En	-554
ied	-555
.@	-556
▁@.@	-557
ader	-558
▁mod	-559
▁tra	-560
uring	-561
ick	-562
ues	-563
ON	-564
ole	-565
▁Ar	-566
ade	-567
▁It	-568
che	-569
trib	-570
file	-571
▁sp	-572
args	-573
cept	-574
ely	-575
▁class	-576
▁after	-577
ream	-578
▁other	-579
▁Con	-580
▁lo	-581
▁er	-582
iew	-583
ates	-584
▁201	-585
ection	-586
ms	-587
▁pos	-588
iss	-589
try	-590
,@	-591
▁@,@	-592
▁includ	-593
▁request	-594
mer	-595
▁sup	-596
ake	-597
ough	-598
ced	-599
▁type	-600
Value	-601
eat	-602
▁go	-603
ft	-604
▁Y	-605
▁loc	-606
▁man	-607
▁Un	-608
▁play	-609
▁6	-610
▁work	-611
ss	-612
we	-613
ove	-614
ari	-615
▁static	-616
▁they	-617
▁reg	-618
▁length	-619
▁while	-620
▁call	-621
▁raise	-622
ger	-623
land	-624
Cont	-625
ault	-626
▁inter	-627
path	-628
ward	-629
led	-630
▁into	-631
▁att	-632
ors	-633
▁file	-634
ask	-635
ered	-636
cond	-637
til	-638
urrent	-639
ument	-640
▁param	-641
▁would	-642
aw	-643
cess	-644
▁so	-645
▁ass	-646
ie	-647
ersion	-648
Ar	-649
ember	-650
ific	-651
▁On	-652
ased	-653
▁she	-654
▁char	-655
escri	-656
ccess	-657
url	-658
ric	-659
ron	-660
arn	-661
▁ser	-662
pro	-663
▁True	-664
ited	-665
▁Ex	-666
String	-667
▁op	-668
▁can	-669
▁min	-670
heck	-671
oin	-672
pr	-673
▁False	-674
ool	-675
tt	-676
ever	-677
▁Com	-678
lement	-679
▁more	-680
▁him	-681
▁ob	-682
▁long	-683
way	-684
rough	-685
ink	-686
ason	-687
▁7	-688
▁8	-689
▁only	-690
wargs	-691
Class	-692
stem	-693
read	-694
date	-695
▁prot	-696
ule	-697
com	-698
irect	-699
▁field	-700
▁when	-701
cre	-702
..	-703
▁index	-704
Bu	-705
▁bet	-706
▁act	-707
▁create	-708
att	-709
ash	-710
▁te	-711
▁line	-712
ier	-713
its	-714
▁?	-715
olean	-716
arsh	-717
▁state	-718
▁ap	-719
inal	-720
▁En	-721
▁read	-722
round	-723
app	-724
AT	-725
lock	-726
▁del	-727
sh	-728
▁trans	-729
ren	-730
arch	-731
eb	-732
▁&&	-733
▁Al	-734
▁exp	-735
ale	-736
outh	-737
▁me	-738
▁ext	-739
ose	-740
▁spec	-741
▁args	-742
▁config	-743
▁cons	-744
▁record	-745
▁event	-746
▁rel	-747
▁group	-748
get	-749
ank	-750
arget	-751
▁np	-752
▁An	-753
▁kwargs	-754
pect	-755
▁throws	-756
▁no	-757
Key	-758
ement	-759
▁size	-760
umn	-761
▁build	-762
ession	-763
fore	-764
▁9	-765
ollow	-766
ected	-767
wn	-768
▁und	-769
uth	-770
▁pass	-771
▁item	-772
▁current	-773
▁error	-774
▁met	-775
▁em	-776
▁than	-777
▁Object	-778
gan	-779
▁run	-780
▁next	-781
data	-782
▁fl	-783
▁deb	-784
▁List	-785
ized	-786
▁produ	-787
ween	-788
▁cent	-789
arshall	-790
▁response	-791
red	-792
to	-793
ines	-794
▁again	-795
Com	-796
▁kn	-797
Set	-798
ler	-799
▁during	-800
▁case	-801
Request	-802
▁dec	-803
▁catch	-804
uble	-805
key	-806
ired	-807
co	-808
▁max	-809
▁most	-810
arent	-811
ru	-812
orth	-813
▁clo	-814
ational	-815
▁rele	-816
▁bre	-817
▁ca	-818
ution	-819
ious	-820
▁des	-821
ision	-822
▁second	-823
ower	-824
ivate	-825
eter	-826
▁print	-827
▁found	-828
▁game	-829
▁contin	-830
▁Pro	-831
▁number	-832
▁par	-833
▁equ	-834
ating	-835
yn	-836
▁Over	-837
ache	-838
uct	-839
Ch	-840
ape	-841
To	-842
▁10	-843
▁about	-844
io	-845
▁199	-846
▁between	-847
▁where	-848
ID	-849
pos	-850
▁day	-851
▁Se	-852
▁z	-853
list	-854
ride	-855
▁them	-856
▁before	-857
orn	-858
▁Col	-859
▁except	-860
▁New	-861
ics	-862
ern	-863
RE	-864
▁am	-865
ins	-866
▁later	-867
Data	-868
▁through	-869
abel	-870
__	-871
▁node	-872
▁os	-873
perty	-874
ock	-875
▁boolean	-876
air	-877
▁join	-878
ST	-879
▁film	-880
ike	-881
▁song	-882
ete	-883
▁|	-884
▁__	-885
▁ac	-886
arly	-887
▁acc	-888
ative	-889
▁pe	-890
▁write	-891
ps	-892
▁At	-893
▁back	-894
▁elif	-895
▁ne	-896
ived	-897
back	-898
orld	-899
▁X	-900
az	-901
File	-902
▁there	-903
ou	-904
▁check	-905
▁This	-906
▁three	-907
ve	-908
ffer	-909
Path	-910
raph	-911
▁pol	-912
ody	-913
▁last	-914
▁high	-915
▁Sh	-916
ven	-917
▁match	-918
▁open	-919
▁put	-920
ures	-921
ton	-922
vid	-923
▁true	-924
man	-925
▁+=	-926
▁under	-927
▁private	-928
instance	-929
▁conn	-930
ek	-931
ndex	-932
time	-933
▁find	-934
rid	-935
sc	-936
▁pop	-937
ished	-938
▁some	-939
▁hand	-940
▁Q	-941
▁follow	-942
▁user	-943
▁method	-944
▁season	-945
▁orig	-946
▁use	-947
meric	-948
▁ep	-949
▁feat	-950
▁then	-951
ram	-952
At	-953
press	-954
ond	-955
ME	-956
LE	-957
ages	-958
ml	-959
▁Override	-960
▁used	-961
▁Americ	-962
yp	-963
ral	-964
▁contain	-965
By	-966
ists	-967
ally	-968
▁year	-969
▁text	-970
▁gener	-971
▁ord	-972
ears	-973
reat	-974
hip	-975
▁sign	-976
▁show	-977
dict	-978
unction	-979
Param	-980
▁Jo	-981
cy	-982
▁u	-983
ared	-984
▁instance	-985
Map	-986
▁break	-987
aid	-988
."	-989
plit	-990
iver	-991
▁made	-992
▁inv	-993
▁false	-994
▁any	-995
ily	-996
----	-997
▁url	-998
ants	-999
bum	-1000
▁sing	-1001
ause	-1002
▁child	-1003
▁such	-1004
▁head	-1005
any	-1006
▁descri	-1007
OR	-1008
ptions	-1009
ters	-1010
▁input	-1011
▁four	-1012
ities	-1013
▁mon	-1014
▁As	-1015
▁init	-1016
▁target	-1017
tribute	-1018
▁000	-1019
by	-1020
ince	-1021
▁pres	-1022
ts	-1023
of	-1024
ible	-1025
par	-1026
▁Ro	-1027
ten	-1028
ys	-1029
ner	-1030
mp	-1031
▁object	-1032
▁tem	-1033
dd	-1034
▁dif	-1035
bo	-1036
▁charact	-1037
▁output	-1038
Stream	-1039
▁flo	-1040
▁isinstance	-1041
▁team	-1042
ser	-1043
▁enc	-1044
ma	-1045
▁++	-1046
▁point	-1047
Index	-1048
lection	-1049
que	-1050
Config	-1051
▁years	-1052
ilder	-1053
sg	-1054
▁direct	-1055
▁main	-1056
itt	-1057
▁ed	-1058
load	-1059
abled	-1060
ane	-1061
▁being	-1062
▁debug	-1063
▁album	-1064
▁default	-1065
aj	-1066
owever	-1067
ices	-1068
ular	-1069
ttp	-1070
min	-1071
▁Re	-1072
uration	-1073
other	-1074
ager	-1075
Context	-1076
rop	-1077
▁repl	-1078
AR	-1079
▁Sc	-1080
Object	-1081
usic	-1082
▁logger	-1083
▁12	-1084
▁oper	-1085
Node	-1086
mb	-1087
▁rep	-1088
ename	-1089
uch	-1090
ified	-1091
▁model	-1092
Element	-1093
Un	-1094
sp	-1095
▁perform	-1096
ments	-1097
Cl	-1098
▁De	-1099
▁epis	-1100
▁appe	-1101
▁Exception	-1102
unc	-1103
ury	-1104
action	-1105
▁old	-1106
▁message	-1107
▁vari	-1108
▁sur	-1109
oot	-1110
▁against	-1111
pty	-1112
ister	-1113
▁context	-1114
AL	-1115
▁17	-1116
olog	-1117
tes	-1118
ife	-1119
▁double	-1120
Time	-1121
der	-1122
▁sever	-1123
Util	-1124
▁ref	-1125
▁series	-1126
▁will	-1127
▁both	-1128
▁obj	-1129
▁values	-1130
iles	-1131
dir	-1132
ties	-1133
▁rev	-1134
▁ph	-1135
▁ann	-1136
▁info	-1137
▁After	-1138
ained	-1139
Response	-1140
ful	-1141
▁mov	-1142
▁split	-1143
ystem	-1144
▁15	-1145
▁inst	-1146
▁16	-1147
line	-1148
▁update	-1149
▁command	-1150
ets	-1151
bers	-1152
valid	-1153
▁rece	-1154
Builder	-1155
Info	-1156
▁parent	-1157
imes	-1158
▁entry	-1159
ured	-1160
ning	-1161
ood	-1162
ported	-1163
▁exec	-1164
▁well	-1165
Message	-1166
▁service	-1167
ised	-1168
ather	-1169
▁sm	-1170
▁did	-1171
▁Wh	-1172
▁Z	-1173
▁version	-1174
▁IO	-1175
▁became	-1176
▁query	-1177
hn	-1178
State	-1179
▁including	-1180
opy	-1181
ons	-1182
▁Brit	-1183
leg	-1184
▁compl	-1185
▁row	-1186
work	-1187
ocol	-1188
▁dep	-1189
▁source	-1190
ross	-1191
utes	-1192
▁could	-1193
▁—	-1194
odes	-1195
▁process	-1196
Col	-1197
▁United	-1198
ran	-1199
▁Class	-1200
▁coun	-1201
EN	-1202
▁Le	-1203
vern	-1204
ident	-1205
Of	-1206
odel	-1207
▁Bo	-1208
▁prev	-1209
▁198	-1210
▁sim	-1211
▁||	-1212
▁msg	-1213
▁range	-1214
ING	-1215
tem	-1216
oken	-1217
erson	-1218
ailed	-1219
▁getS	-1220
▁dest	-1221
▁own	-1222
▁She	-1223
ility	-1224
ouse	-1225
▁may	-1226
▁original	-1227
add	-1228
▁mat	-1229
ponent	-1230
▁base	-1231
ches	-1232
▁mill	-1233
Field	-1234
▁resource	-1235
atus	-1236
▁mem	-1237
▁params	-1238
ined	-1239
▁art	-1240
velop	-1241
▁local	-1242
▁194	-1243
ually	-1244
▁many	-1245
▁equals	-1246
iev	-1247
▁remove	-1248
col	-1249
ird	-1250
▁By	-1251
ote	-1252
▁count	-1253
▁develop	-1254
▁Eng	-1255
▁serv	-1256
▁requ	-1257
▁down	-1258
cont	-1259
▁make	-1260
▁""	-1261
bed	-1262
itions	-1263
ION	-1264
▁top	-1265
value	-1266
▁est	-1267
urs	-1268
▁dat	-1269
let	-1270
my	-1271
▁known	-1272
▁stud	-1273
▁import	-1274
▁left	-1275
▁inf	-1276
yle	-1277
vert	-1278
▁...	-1279
▁fe	-1280
▁episode	-1281
▁same	-1282
▁gr	-1283
▁11	-1284
▁air	-1285
perties	-1286
lish	-1287
size	-1288
Arg	-1289
▁John	-1290
word	-1291
▁ship	-1292
bs	-1293
▁bl	-1294
annel	-1295
▁tok	-1296
ued	-1297
oci	-1298
▁success	-1299
▁Res	-1300
.0	-1301
tract	-1302
▁said	-1303
▁lead	-1304
▁det	-1305
umber	-1306
▁hist	-1307
▁conf	-1308
▁action	-1309
▁column	-1310
Def	-1311
itle	-1312
▁parse	-1313
Tr	-1314
eters	-1315
▁several	-1316
mand	-1317
fix	-1318
▁tri	-1319
▁called	-1320
▁allow	-1321
ting	-1322
▁crit	-1323
actory	-1324
▁bro	-1325
▁Ind	-1326
Array	-1327
ify	-1328
OG	-1329
though	-1330
▁because	-1331
ivers	-1332
▁American	-1333
Enabled	-1334
▁until	-1335
▁US	-1336
▁eff	-1337
▁each	-1338
▁IOException	-1339
An	-1340
▁array	-1341
▁bel	-1342
iam	-1343
▁Cl	-1344
apt	-1345
arser	-1346
ission	-1347
amed	-1348
string	-1349
▁197	-1350
point	-1351
▁car	-1352
arl	-1353
▁File	-1354
iter	-1355
▁system	-1356
ley	-1357
▁cle	-1358
▁design	-1359
▁string	-1360
ended	-1361
▁close	-1362
info	-1363
idth	-1364
af	-1365
▁196	-1366
reg	-1367
▁Aust	-1368
▁byte	-1369
▁ins	-1370
Group	-1371
▁hel	-1372
param	-1373
ism	-1374
AN	-1375
▁load	-1376
▁{}	-1377
IT	-1378
ople	-1379
▁client	-1380
eger	-1381
▁need	-1382
▁sk	-1383
▁began	-1384
▁dr	-1385
ength	-1386
▁Value	-1387
class	-1388
ved	-1389
▁six	-1390
▁gu	-1391
UR	-1392
▁right	-1393
▁Sp	-1394
chool	-1395
▁Map	-1396
▁view	-1397
▁marshall	-1398
lect	-1399
▁sel	-1400
▁map	-1401
▁early	-1402
▁valid	-1403
▁dist	-1404
util	-1405
▁content	-1406
▁100	-1407
▁order	-1408
▁these	-1409
▁near	-1410
ature	-1411
tal	-1412
une	-1413
▁For	-1414
▁$	-1415
▁now	-1416
▁auth	-1417
ES	-1418
▁iter	-1419
ah	-1420
▁host	-1421
▁vis	-1422
Result	-1423
ially	-1424
rol	-1425
▁released	-1426
▁music	-1427
ats	-1428
ector	-1429
ternal	-1430
med	-1431
▁term	-1432
▁project	-1433
▁status	-1434
▁fam	-1435
ags	-1436
▁must	-1437
field	-1438
unk	-1439
▁just	-1440
▁Pl	-1441
▁character	-1442
▁May	-1443
ajor	-1444
▁south	-1445
attern	-1446
attr	-1447
▁av	-1448
very	-1449
ored	-1450
md	-1451
Client	-1452
be	-1453
▁doc	-1454
▁port	-1455
Im	-1456
▁13	-1457
aking	-1458
ush	-1459
▁sl	-1460
ample	-1461
▁single	-1462
adata	-1463
▁occ	-1464
me	-1465
▁Array	-1466
{}	-1467
▁like	-1468
▁along	-1469
ached	-1470
ackage	-1471
enn	-1472
▁post	-1473
ead	-1474
ium	-1475
lleg	-1476
ateg	-1477
gin	-1478
Not	-1479
▁Int	-1480
ait	-1481
used	-1482
ypes	-1483
ources	-1484
ives	-1485
With	-1486
ple	-1487
▁body	-1488
▁War	-1489
▁names	-1490
▁Germ	-1491
Val	-1492
▁war	-1493
▁float	-1494
▁ax	-1495
cing	-1496
iod	-1497
ris	-1498
▁million	-1499
▁toString	-1500
code	-1501
ends	-1502
▁should	-1503
▁rest	-1504
mon	-1505
llegal	-1506
ilter	-1507
ference	-1508
por	-1509
▁British	-1510
plate	-1511
▁sum	-1512
raw	-1513
▁win	-1514
imit	-1515
Entry	-1516
gn	-1517
andler	-1518
Man	-1519
ret	-1520
wards	-1521
ync	-1522
▁block	-1523
▁We	-1524
▁''	-1525
▁level	-1526
play	-1527
SE	-1528
ination	-1529
ling	-1530
aving	-1531
Or	-1532
▁prog	-1533
ript	-1534
▁filter	-1535
face	-1536
▁continue	-1537
▁All	-1538
Size	-1539
▁following	-1540
▁land	-1541
▁session	-1542
▁14	-1543
arge	-1544
ava	-1545
▁table	-1546
pped	-1547
▁med	-1548
uc	-1549
▁env	-1550
▁position	-1551
aced	-1552
ences	-1553
▁govern	-1554
▁Aug	-1555
▁tc	-1556
▁cls	-1557
▁short	-1558
▁since	-1559
▁attack	-1560
▁previous	-1561
▁arr	-1562
▁mark	-1563
config	-1564
▁super	-1565
▁Sept	-1566
▁km	-1567
▁Is	-1568
log	-1569
▁No	-1570
▁q	-1571
▁received	-1572
rc	-1573
▁sw	-1574
aster	-1575
▁around	-1576
▁September	-1577
▁replace	-1578
empt	-1579
▁World	-1580
rame	-1581
ification	-1582
stra	-1583
▁August	-1584
▁States	-1585
ott	-1586
arshaller	-1587
OD	-1588
loc	-1589
▁ValueError	-1590
Service	-1591
pace	-1592
▁people	-1593
ene	-1594
▁Jul	-1595
▁week	-1596
▁total	-1597
▁json	-1598
▁conc	-1599
lished	-1600
▁Or	-1601
uss	-1602
▁Bl	-1603
AC	-1604
ords	-1605
▁offic	-1606
▁batt	-1607
Resource	-1608
▁label	-1609
▁warn	-1610
ization	-1611
lob	-1612
▁though	-1613
##	-1614
ically	-1615
▁protocol	-1616
▁Ad	-1617
▁Pr	-1618
As	-1619
==	-1620
▁small	-1621
▁help	-1622
Marshaller	-1623
▁root	-1624
▁task	-1625
▁took	-1626
▁month	-1627
▁consid	-1628
▁Type	-1629
▁area	-1630
▁25	-1631
raft	-1632
ension	-1633
▁195	-1634
▁provid	-1635
▁LOG	-1636
▁incre	-1637
▁South	-1638
▁items	-1639
▁Oct	-1640
▁However	-1641
▁partic	-1642
▁dict	-1643
▁Austral	-1644
▁north	-1645
ances	-1646
▁Illegal	-1647
▁element	-1648
NA	-1649
iven	-1650
amb	-1651
▁Nov	-1652
ately	-1653
Tra	-1654
struct	-1655
▁Ge	-1656
ta	-1657
etwork	-1658
Property	-1659
▁If	-1660
▁193	-1661
not	-1662
▁cor	-1663
▁remain	-1664
aged	-1665
▁Can	-1666
Loc	-1667
▁job	-1668
▁band	-1669
ober	-1670
▁place	-1671
nection	-1672
▁->	-1673
ements	-1674
ording	-1675
Form	-1676
▁track	-1677
▁Do	-1678
ilt	-1679
bu	-1680
▁October	-1681
ural	-1682
▁best	-1683
▁filename	-1684
▁major	-1685
()	-1686
▁iss	-1687
Item	-1688
▁protected	-1689
oss	-1690
▁Man	-1691
.'	-1692
umer	-1693
Instance	-1694
Out	-1695
▁exception	-1696
▁sort	-1697
itor	-1698
▁shape	-1699
▁eng	-1700
▁191	-1701
map	-1702
▁copy	-1703
Method	-1704
ED	-1705
iving	-1706
▁assert	-1707
ency	-1708
▁five	-1709
ases	-1710
aim	-1711
▁Tra	-1712
uture	-1713
▁code	-1714
pected	-1715
▁support	-1716
▁They	-1717
ugg	-1718
index	-1719
▁30	-1720
▁instanceof	-1721
▁prob	-1722
▁century	-1723
Event	-1724
Argument	-1725
▁date	-1726
▁York	-1727
▁wind	-1728
▁world	-1729
tings	-1730
ook	-1731
itch	-1732
els	-1733
Count	-1734
▁what	-1735
▁does	-1736
▁Ph	-1737
sw	-1738
RO	-1739
▁offset	-1740
▁image	-1741
▁differ	-1742
▁adv	-1743
▁leg	-1744
▁br	-1745
putStream	-1746
▁dev	-1747
▁stream	-1748
▁North	-1749
omet	-1750
▁token	-1751
▁real	-1752
for	-1753
▁city	-1754
eted	-1755
▁poss	-1756
Em	-1757
alt	-1758
Int	-1759
def	-1760
Add	-1761
▁life	-1762
rist	-1763
▁System	-1764
ke	-1765
cket	-1766
ians	-1767
▁June	-1768
ively	-1769
▁Jan	-1770
loy	-1771
urch	-1772
Log	-1773
▁turn	-1774
ideo	-1775
▁based	-1776
▁pra	-1777
uction	-1778
Null	-1779
off	-1780
pression	-1781
▁title	-1782
ales	-1783
idd	-1784
▁contains	-1785
▁King	-1786
ina	-1787
▁getP	-1788
▁July	-1789
ging	-1790
Manager	-1791
py	-1792
uro	-1793
text	-1794
▁Will	-1795
▁prom	-1796
▁November	-1797
▁>=	-1798
▁test	-1799
uery	-1800
▁another	-1801
PE	-1802
▁due	-1803
▁large	-1804
▁book	-1805
roll	-1806
▁appro	-1807
ged	-1808
▁exist	-1809
▁ur	-1810
▁Mar	-1811
▁cur	-1812
count	-1813
▁div	-1814
ids	-1815
rec	-1816
alf	-1817
ense	-1818
Met	-1819
ifier	-1820
ean	-1821
▁role	-1822
▁tag	-1823
UT	-1824
▁Apr	-1825
AS	-1826
hel	-1827
uple	-1828
quence	-1829
▁April	-1830
▁care	-1831
resent	-1832
Utils	-1833
▁po	-1834
▁March	-1835
uary	-1836
▁getName	-1837
oding	-1838
ior	-1839
▁person	-1840
▁my	-1841
mod	-1842
▁full	-1843
cent	-1844
reen	-1845
▁included	-1846
pper	-1847
▁cap	-1848
▁named	-1849
▁Har	-1850
▁way	-1851
▁period	-1852
▁Integer	-1853
▁Ed	-1854
▁include	-1855
Factory	-1856
▁non	-1857
▁attempt	-1858
▁Mc	-1859
mber	-1860
▁ident	-1861
▁Bu	-1862
xy	-1863
▁release	-1864
icy	-1865
FI	-1866
version	-1867
▁cour	-1868
▁options	-1869
atic	-1870
▁power	-1871
▁Cms	-1872
▁send	-1873
rix	-1874
Ref	-1875
lication	-1876
ne	-1877
ently	-1878
UL	-1879
ched	-1880
names	-1881
▁third	-1882
▁cr	-1883
▁much	-1884
From	-1885
lu	-1886
For	-1887
▁util	-1888
ness	-1889
ential	-1890
▁imp	-1891
ready	-1892
▁sent	-1893
ital	-1894
▁When	-1895
▁family	-1896
▁kill	-1897
▁chang	-1898
▁home	-1899
atter	-1900
▁During	-1901
▁larg	-1902
▁addition	-1903
alk	-1904
▁men	-1905
avy	-1906
ague	-1907
▁school	-1908
▁Dece	-1909
▁function	-1910
IND	-1911
▁camp	-1912
rote	-1913
▁Cal	-1914
▁II	-1915
ience	-1916
▁attr	-1917
Empty	-1918
▁December	-1919
Th	-1920
▁won	-1921
ology	-1922
ival	-1923
ql	-1924
▁cal	-1925
evel	-1926
▁mult	-1927
ulation	-1928
aces	-1929
self	-1930
▁played	-1931
annot	-1932
▁Sup	-1933
ony	-1934
ET	-1935
▁192	-1936
0}	-1937
▁lower	-1938
▁even	-1939
Code	-1940
Handler	-1941
--------	-1942
ided	-1943
▁January	-1944
▁Service	-1945
▁fre	-1946
Buffer	-1947
ables	-1948
All	-1949
riter	-1950
▁property	-1951
tributes	-1952
ball	-1953
allback	-1954
▁ver	-1955
ilit	-1956
ograph	-1957
▁still	-1958
▁you	-1959
▁Set	-1960
olution	-1961
state	-1962
▁keys	-1963
▁wrote	-1964
▁government	-1965
ope	-1966
▁ArrayList	-1967
error	-1968
▁spe	-1969
He	-1970
ories	-1971
apan	-1972
▁buffer	-1973
cer	-1974
▁death	-1975
▁present	-1976
met	-1977
▁review	-1978
iet	-1979
ots	-1980
▁initial	-1981
▁Br	-1982
▁members	-1983
▁lay	-1984
▁norm	-1985
ailable	-1986
▁rad	-1987
▁effect	-1988
▁appear	-1989
iron	-1990
▁Japan	-1991
▁opt	-1992
▁look	-1993
hes	-1994
▁story	-1995
▁led	-1996
▁ke	-1997
inc	-1998
▁using	-1999
▁Fr	-2000
ox	-2001
Text	-2002
▁getD	-2003
ont	-2004
yl	-2005
cle	-2006
ining	-2007
urther	-2008
CT	-2009
▁mag	-2010
▁organ	-2011
▁within	-2012
▁cond	-2013
▁Gu	-2014
▁days	-2015
▁aut	-2016
▁header	-2017
▁stand	-2018
▁those	-2019
▁described	-2020
gr	-2021
▁inc	-2022
▁There	-2023
▁And	-2024
tx	-2025
tra	-2026
older	-2027
▁capt	-2028
▁search	-2029
▁exper	-2030
▁gun	-2031
oman	-2032
▁given	-2033
ridge	-2034
▁Euro	-2035
▁very	-2036
na	-2037
▁connection	-2038
ume	-2039
▁force	-2040
angu	-2041
▁abs	-2042
akes	-2043
▁species	-2044
struction	-2045
▁Gener	-2046
inition	-2047
▁Car	-2048
▁opp	-2049
▁sb	-2050
AG	-2051
serv	-2052
ards	-2053
ending	-2054
▁Ser	-2055
▁children	-2056
max	-2057
▁results	-2058
▁Be	-2059
aken	-2060
uck	-2061
lex	-2062
check	-2063
▁Im	-2064
▁want	-2065
iversity	-2066
▁built	-2067
▁video	-2068
Al	-2069
ges	-2070
▁0.	-2071
▁syn	-2072
uments	-2073
▁24	-2074
▁required	-2075
▁<=	-2076
▁mar	-2077
RI	-2078
resh	-2079
ainer	-2080
▁convert	-2081
side	-2082
▁gen	-2083
▁dom	-2084
▁games	-2085
▁feature	-2086
Attribute	-2087
▁Gr	-2088
ights	-2089
oy	-2090
rench	-2091
▁already	-2092
Component	-2093
Table	-2094
▁pay	-2095
▁region	-2096
mbol	-2097
▁cache	-2098
EF	-2099
▁side	-2100
▁dam	-2101
▁mer	-2102
ops	-2103
head	-2104
▁different	-2105
▁clos	-2106
▁delete	-2107
uted	-2108
pre	-2109
▁cast	-2110
▁His	-2111
▁Feb	-2112
mit	-2113
▁Char	-2114
ruary	-2115
▁red	-2116
Status	-2117
▁February	-2118
SON	-2119
dom	-2120
over	-2121
▁"\	-2122
▁take	-2123
▁cover	-2124
▁water	-2125
▁struct	-2126
Lo	-2127
OT	-2128
bert	-2129
▁lines	-2130
▁without	-2131
vers	-2132
rag	-2133
ster	-2134
▁getC	-2135
▁German	-2136
▁decl	-2137
▁Christ	-2138
▁tw	-2139
▁report	-2140
ules	-2141
▁low	-2142
▁Pol	-2143
ift	-2144
▁style	-2145
▁Ab	-2146
stants	-2147
stit	-2148
▁src	-2149
da	-2150
▁finally	-2151
apping	-2152
ampl	-2153
rown	-2154
izer	-2155
Trans	-2156
ilar	-2157
NT	-2158
item	-2159
▁21	-2160
▁late	-2161
ety	-2162
▁history	-2163
ront	-2164
▁every	-2165
mt	-2166
yal	-2167
▁author	-2168
▁bas	-2169
▁common	-2170
▁disc	-2171
roy	-2172
▁begin	-2173
ried	-2174
▁National	-2175
▁Europe	-2176
▁Key	-2177
▁held	-2178
▁State	-2179
CE	-2180
▁control	-2181
▁Run	-2182
nder	-2183
iers	-2184
rior	-2185
▁db	-2186
istr	-2187
ounds	-2188
▁great	-2189
ators	-2190
▁comb	-2191
from	-2192
rew	-2193
Pos	-2194
▁although	-2195
▁French	-2196
▁former	-2197
ustom	-2198
ique	-2199
▁Collection	-2200
▁link	-2201
ours	-2202
Parameter	-2203
inter	-2204
▁2010	-2205
▁clear	-2206
▁writer	-2207
TY	-2208
▁cmd	-2209
Token	-2210
▁prov	-2211
▁Rec	-2212
rl	-2213
▁beh	-2214
oice	-2215
▁storm	-2216
Inter	-2217
group	-2218
pes	-2219
urity	-2220
olved	-2221
AD	-2222
▁estab	-2223
▁sold	-2224
▁diff	-2225
epend	-2226
ublic	-2227
▁IllegalArgument	-2228
params	-2229
▁points	-2230
iff	-2231
▁Par	-2232
rite	-2233
ison	-2234
▁tim	-2235
▁came	-2236
**	-2237
▁production	-2238
order	-2239
▁fact	-2240
▁times	-2241
au	-2242
▁claim	-2243
ropical	-2244
▁West	-2245
uster	-2246
ones	-2247
user	-2248
▁William	-2249
▁page	-2250
▁few	-2251
ested	-2252
ntity	-2253
)"	-2254
▁however	-2255
iment	-2256
▁execute	-2257
Names	-2258
▁accept	-2259
▁failed	-2260
ides	-2261
stant	-2262
itive	-2263
▁sche	-2264
andom	-2265
no	-2266
▁half	-2267
▁cert	-2268
▁say	-2269
ief	-2270
▁polit	-2271
BIND	-2272
▁created	-2273
▁returned	-2274
On	-2275
▁idx	-2276
User	-2277
▁Reg	-2278
obj	-2279
▁tel	-2280
▁hum	-2281
▁fire	-2282
BINDING	-2283
▁Get	-2284
▁exc	-2285
▁access	-2286
▁Acc	-2287
result	-2288
▁fore	-2289
▁Sim	-2290
▁2008	-2291
▁One	-2292
▁dir	-2293
Rec	-2294
rem	-2295
▁register	-2296
▁2009	-2297
▁often	-2298
Next	-2299
pi	-2300
▁<>	-2301
▁town	-2302
▁dim	-2303
Content	-2304
tml	-2305
Model	-2306
//	-2307
▁further	-2308
▁Geor	-2309
▁err	-2310
▁22	-2311
ention	-2312
▁color	-2313
▁continued	-2314
▁among	-2315
Sc	-2316
▁less	-2317
Length	-2318
ivity	-2319
ias	-2320
▁prefix	-2321
▁vol	-2322
Start	-2323
▁2011	-2324
▁aff	-2325
OL	-2326
▁api	-2327
NAME	-2328
▁Air	-2329
Date	-2330
▁Co	-2331
pite	-2332
▁route	-2333
▁la	-2334
ref	-2335
ham	-2336
▁player	-2337
▁Ass	-2338
▁commun	-2339
▁Fl	-2340
istry	-2341
igned	-2342
▁Her	-2343
gnore	-2344
her	-2345
▁never	-2346
thers	-2347
▁Mich	-2348
Up	-2349
start	-2350
ground	-2351
▁El	-2352
▁considered	-2353
▁member	-2354
estern	-2355
Descri	-2356
Column	-2357
view	-2358
day	-2359
abase	-2360
craft	-2361
▁40	-2362
ternational	-2363
▁having	-2364
▁headers	-2365
▁program	-2366
▁location	-2367
▁England	-2368
anc	-2369
etime	-2370
▁law	-2371
sub	-2372
▁written	-2373
Query	-2374
ither	-2375
ittle	-2376
elt	-2377
▁similar	-2378
▁sec	-2379
ump	-2380
▁exists	-2381
ites	-2382
▁pattern	-2383
▁channel	-2384
Connection	-2385
array	-2386
▁Dav	-2387
End	-2388
▁handle	-2389
▁miss	-2390
reet	-2391
▁sys	-2392
▁moved	-2393
64	-2394
ows	-2395
▁ant	-2396
cast	-2397
▁sol	-2398
▁files	-2399
types	-2400
▁timeout	-2401
ways	-2402
object	-2403
ether	-2404
ung	-2405
omen	-2406
ails	-2407
▁2007	-2408
▁country	-2409
▁Min	-2410
▁career	-2411
▁believ	-2412
▁sugg	-2413
▁milit	-2414
▁Not	-2415
df	-2416
rest	-2417
="	-2418
ves	-2419
▁parser	-2420
EX	-2421
anguage	-2422
ese	-2423
ains	-2424
▁Long	-2425
▁server	-2426
Exec	-2427
App	-2428
▁far	-2429
LO	-2430
▁fields	-2431
ude	-2432
▁stop	-2433
▁esc	-2434
▁east	-2435
▁foot	-2436
▁Park	-2437
▁address	-2438
▁Af	-2439
▁23	-2440
enc	-2441
▁seg	-2442
▁become	-2443
▁good	-2444
label	-2445
Filter	-2446
Str	-2447
▁City	-2448
▁express	-2449
▁house	-2450
ULT	-2451
▁ev	-2452
▁English	-2453
▁mode	-2454
ampions	-2455
MP	-2456
opt	-2457
▁west	-2458
gy	-2459
▁bytes	-2460
▁road	-2461
▁Cent	-2462
▁word	-2463
EL	-2464
▁Des	-2465
imal	-2466
ptor	-2467
▁conv	-2468
▁separ	-2469
▁getR	-2470
▁builder	-2471
▁'%	-2472
Ser	-2473
ring	-2474
▁Although	-2475
evision	-2476
▁tro	-2477
▁passed	-2478
formation	-2479
And	-2480
▁With	-2481
▁func	-2482
ably	-2483
Listener	-2484
▁arch	-2485
duct	-2486
▁2012	-2487
▁module	-2488
▁influ	-2489
los	-2490
▁save	-2491
▁bus	-2492
▁prop	-2493
▁isEmpty	-2494
▁Rep	-2495
▁Ang	-2496
AP	-2497
oke	-2498
▁compos	-2499
alth	-2500
▁site	-2501
▁empty	-2502
▁Bar	-2503
▁strong	-2504
imum	-2505
▁Http	-2506
json	-2507
peration	-2508
aff	-2509
▁company	-2510
▁50	-2511
▁comment	-2512
▁fig	-2513
Line	-2514
ech	-2515
▁Lond	-2516
▁announ	-2517
▁suff	-2518
CH	-2519
Source	-2520
▁fri	-2521
▁round	-2522
▁available	-2523
▁London	-2524
▁how	-2525
essages	-2526
▁var	-2527
lobal	-2528
▁parts	-2529
ML	-2530
ality	-2531
ai	-2532
▁strip	-2533
▁club	-2534
ipp	-2535
▁Am	-2536
▁refer	-2537
mission	-2538
itted	-2539
▁rule	-2540
▁entity	-2541
orage	-2542
▁Batt	-2543
Sh	-2544
▁ten	-2545
node	-2546
▁features	-2547
▁To	-2548
▁IN	-2549
nown	-2550
sequ	-2551
▁width	-2552
▁190	-2553
scri	-2554
AX	-2555
▁prim	-2556
Package	-2557
down	-2558
ogn	-2559
Configuration	-2560
▁account	-2561
Version	-2562
▁elements	-2563
ering	-2564
▁"/	-2565
▁cell	-2566
▁characters	-2567
▁High	-2568
estamp	-2569
▁see	-2570
▁prof	-2571
Se	-2572
▁properties	-2573
▁respon	-2574
▁exit	-2575
erc	-2576
ius	-2577
aign	-2578
oung	-2579
Url	-2580
rics	-2581
▁represent	-2582
▁squ	-2583
▁trad	-2584
▁elect	-2585
▁change	-2586
▁River	-2587
uid	-2588
Inner	-2589
▁getM	-2590
▁cy	-2591
ptional	-2592
▁published	-2593
▁tmp	-2594
▁step	-2595
▁java	-2596
▁Canad	-2597
ford	-2598
▁press	-2599
▁yield	-2600
azz	-2601
process	-2602
▁getValue	-2603
lem	-2604
32	-2605
▁While	-2606
▁mean	-2607
▁gave	-2608
▁destroy	-2609
▁redu	-2610
▁rank	-2611
▁parameters	-2612
▁Val	-2613
▁cross	-2614
▁University	-2615
▁went	-2616
▁too	-2617
▁axis	-2618
▁added	-2619
▁building	-2620
ington	-2621
▁buf	-2622
▁vict	-2623
▁Sm	-2624
Address	-2625
ironment	-2626
iness	-2627
▁lost	-2628
default	-2629
ranch	-2630
▁relations	-2631
▁reported	-2632
▁plan	-2633
▁section	-2634
▁extends	-2635
aps	-2636
▁Count	-2637
50	-2638
▁wra	-2639
Format	-2640
iction	-2641
▁produced	-2642
▁raw	-2643
Number	-2644
▁seen	-2645
▁aud	-2646
ries	-2647
▁py	-2648
umb	-2649
▁ft	-2650
sl	-2651
Impl	-2652
▁let	-2653
oon	-2654
▁Div	-2655
Sub	-2656
EFA	-2657
▁mid	-2658
aly	-2659
reate	-2660
▁collection	-2661
dk	-2662
▁network	-2663
▁Mon	-2664
▁Go	-2665
irc	-2666
▁performance	-2667
▁27	-2668
▁don	-2669
▁aw	-2670
▁limit	-2671
▁JSON	-2672
▁getMessage	-2673
▁tf	-2674
View	-2675
▁temp	-2676
▁intro	-2677
▁28	-2678
▁allowed	-2679
▁stated	-2680
▁2006	-2681
IC	-2682
mat	-2683
inary	-2684
▁df	-2685
▁coll	-2686
▁These	-2687
ney	-2688
▁lock	-2689
""	-2690
ocument	-2691
Cache	-2692
▁Bro	-2693
ald	-2694
Task	-2695
▁recorded	-2696
▁attribute	-2697
queue	-2698
▁ide	-2699
cs	-2700
▁Data	-2701
Access	-2702
▁According	-2703
▁successful	-2704
Pre	-2705
▁chart	-2706
augh	-2707
aul	-2708
▁General	-2709
Point	-2710
Reg	-2711
▁graph	-2712
▁sn	-2713
ixed	-2714
▁StringBuilder	-2715
len	-2716
urric	-2717
Off	-2718
▁Trans	-2719
▁Cor	-2720
▁making	-2721
aut	-2722
▁forces	-2723
terator	-2724
UE	-2725
Child	-2726
model	-2727
uff	-2728
▁cred	-2729
▁*/	-2730
icate	-2731
▁Sub	-2732
▁keep	-2733
values	-2734
ambda	-2735
length	-2736
semb	-2737
▁expl	-2738
run	-2739
pth	-2740
▁template	-2741
▁instead	-2742
▁fail	-2743
▁connect	-2744
▁special	-2745
▁eight	-2746
chron	-2747
db	-2748
▁dtype	-2749
▁Sw	-2750
▁remov	-2751
▁callback	-2752
ising	-2753
eder	-2754
aint	-2755
SS	-2756
▁ships	-2757
ENT	-2758
ability	-2759
etch	-2760
▁light	-2761
▁surv	-2762
CON	-2763
▁Act	-2764
▁plot	-2765
▁Hash	-2766
board	-2767
▁provided	-2768
irection	-2769
▁Nor	-2770
Entity	-2771
ensive	-2772
▁sound	-2773
request	-2774
▁engine	-2775
▁document	-2776
▁eas	-2777
inated	-2778
otion	-2779
ae	-2780
Invalid	-2781
ceed	-2782
ategory	-2783
▁Jack	-2784
▁star	-2785
▁expected	-2786
▁2013	-2787
▁Node	-2788
▁aircraft	-2789
);	-2790
▁himself	-2791
▁unit	-2792
andid	-2793
ursor	-2794
Async	-2795
de	-2796
▁cost	-2797
▁military	-2798
▁months	-2799
FF	-2800
▁national	-2801
▁26	-2802
▁songs	-2803
▁Australia	-2804
▁ge	-2805
ebug	-2806
▁"%	-2807
verage	-2808
▁popular	-2809
▁events	-2810
ampionship	-2811
▁development	-2812
▁ground	-2813
▁cut	-2814
undle	-2815
medi	-2816
QL	-2817
method	-2818
▁script	-2819
▁ste	-2820
▁father	-2821
▁neg	-2822
▁Cont	-2823
▁normal	-2824
▁tree	-2825
▁critic	-2826
num	-2827
▁parameter	-2828
▁height	-2829
▁Inter	-2830
urg	-2831
aset	-2832
Bytes	-2833
▁Med	-2834
oll	-2835
▁battle	-2836
ATE	-2837
less	-2838
▁collect	-2839
table	-2840
▁started	-2841
ero	-2842
▁reached	-2843
▁black	-2844
amples	-2845
10	-2846
ened	-2847
search	-2848
ns	-2849
ivid	-2850
EFAULT	-2851
▁move	-2852
▁Pres	-2853
▁pack	-2854
▁away	-2855
most	-2856
▁James	-2857
swith	-2858
atal	-2859
▁189	-2860
▁Per	-2861
▁Log	-2862
Definition	-2863
ibr	-2864
▁'\	-2865
GER	-2866
▁Dis	-2867
▁observ	-2868
ulate	-2869
▁station	-2870
▁ask	-2871
▁Part	-2872
▁Str	-2873
sec	-2874
▁across	-2875
▁Add	-2876
▁possible	-2877
▁remained	-2878
▁campaign	-2879
▁argument	-2880
▁signific	-2881
Del	-2882
▁cannot	-2883
▁died	-2884
▁Army	-2885
ariable	-2886
Properties	-2887
▁groups	-2888
▁comput	-2889
▁metadata	-2890
fil	-2891
Header	-2892
▁ctx	-2893
▁tour	-2894
▁uri	-2895
▁histor	-2896
format	-2897
▁subject	-2898
▁matches	-2899
verse	-2900
rupt	-2901
▁developed	-2902
wh	-2903
▁fav	-2904
▁**	-2905
▁display	-2906
▁son	-2907
▁getB	-2908
sy	-2909
posed	-2910
olve	-2911
▁operation	-2912
▁dig	-2913
Types	-2914
▁bar	-2915
enced	-2916
ender	-2917
▁upper	-2918
▁stage	-2919
files	-2920
urricane	-2921
▁Comp	-2922
▁Qu	-2923
▁League	-2924
▁introdu	-2925
Dis	-2926
▁free	-2927
▁Math	-2928
ln	-2929
▁future	-2930
▁associ	-2931
####	-2932
tain	-2933
tries	-2934
Pr	-2935
▁once	-2936
▁serial	-2937
▁completed	-2938
Action	-2939
▁di	-2940
▁wid	-2941
▁visit	-2942
eting	-2943
lands	-2944
oms	-2945
aring	-2946
hest	-2947
part	-2948
lines	-2949
▁Field	-2950
vider	-2951
Process	-2952
level	-2953
▁official	-2954
eturn	-2955
token	-2956
Session	-2957
rel	-2958
chema	-2959
ests	-2960
ensions	-2961
irectory	-2962
irt	-2963
▁Division	-2964
▁areas	-2965
sum	-2966
pass	-2967
base	-2968
aur	-2969
▁least	-2970
▁front	-2971
▁followed	-2972
andle	-2973
Dir	-2974
SI	-2975
▁felt	-2976
▁--	-2977
▁transform	-2978
▁getClass	-2979
▁noted	-2980
▁earl	-2981
▁namespace	-2982
▁America	-2983
Offset	-2984
▁able	-2985
ael	-2986
▁wait	-2987
omb	-2988
thern	-2989
▁store	-2990
▁mm	-2991
lege	-2992
URL	-2993
▁estim	-2994
▁Time	-2995
AB	-2996
▁description	-2997
▁"""	-2998
▁announced	-2999
▁29	-3000
====	-3001
▁general	-3002
init	-3003
▁lim	-3004
▁writing	-3005
ee	-3006
abor	-3007
oded	-3008
▁device	-3009
change	-3010
chn	-3011
▁Road	-3012
▁Russ	-3013
▁settings	-3014
▁either	-3015
▁pat	-3016
Reader	-3017
▁fac	-3018
print	-3019
oute	-3020
▁Met	-3021
▁performed	-3022
iber	-3023
▁various	-3024
▁County	-3025
▁score	-3026
▁scale	-3027
▁construct	-3028
▁hash	-3029
host	-3030
▁Japanese	-3031
▁tre	-3032
▁television	-3033
▁grad	-3034
Writer	-3035
status	-3036
message	-3037
Values	-3038
▁2005	-3039
▁switch	-3040
istic	-3041
▁broad	-3042
imately	-3043
▁annot	-3044
▁entire	-3045
iol	-3046
▁pair	-3047
▁example	-3048
▁Runtime	-3049
▁arm	-3050
▁Sy	-3051
acy	-3052
Case	-3053
elling	-3054
▁adapt	-3055
Page	-3056
▁taken	-3057
fl	-3058
leet	-3059
arth	-3060
trans	-3061
▁loss	-3062
▁players	-3063
UN	-3064
▁fill	-3065
▁tog	-3066
Constants	-3067
oted	-3068
▁Sdk	-3069
▁'/	-3070
EY	-3071
▁reason	-3072
▁’	-3073
▁voc	-3074
▁disco	-3075
Valid	-3076
▁cult	-3077
alls	-3078
del	-3079
▁political	-3080
▁little	-3081
▁logging	-3082
Link	-3083
▁Street	-3084
aterial	-3085
ula	-3086
ication	-3087
ille	-3088
hent	-3089
▁draw	-3090
ibility	-3091
▁working	-3092
▁anim	-3093
▁space	-3094
▁substring	-3095
▁2014	-3096
▁lambda	-3097
▁age	-3098
iple	-3099
▁nor	-3100
▁served	-3101
mark	-3102
▁East	-3103
Any	-3104
▁types	-3105
▁columns	-3106
RL	-3107
nect	-3108
▁hit	-3109
12	-3110
notation	-3111
▁active	-3112
Tag	-3113
▁Em	-3114
Refer	-3115
Loader	-3116
cret	-3117
lay	-3118
▁req	-3119
output	-3120
▁thread	-3121
▁bit	-3122
▁George	-3123
uation	-3124
Mod	-3125
box	-3126
gen	-3127
▁impro	-3128
▁xml	-3129
itude	-3130
▁killed	-3131
▁Hen	-3132
▁units	-3133
pol	-3134
▁/*	-3135
▁container	-3136
▁synchron	-3137
▁agre	-3138
Tree	-3139
▁center	-3140
Found	-3141
▁significant	-3142
spec	-3143
Get	-3144
▁becom	-3145
▁hold	-3146
▁You	-3147
▁extra	-3148
▁supported	-3149
alled	-3150
straint	-3151
reek	-3152
▁Red	-3153
▁seven	-3154
▁Bill	-3155
▁here	-3156
▁frame	-3157
▁night	-3158
No	-3159
▁Port	-3160
▁Hist	-3161
▁mount	-3162
▁flow	-3163
ATION	-3164
clus	-3165
place	-3166
lin	-3167
client	-3168
▁done	-3169
known	-3170
▁Hol	-3171
{0}	-3172
flow	-3173
ecess	-3174
ularly	-3175
Spec	-3176
...	-3177
Options	-3178
▁throughout	-3179
Block	-3180
new	-3181
iddle	-3182
pen	-3183
▁Mad	-3184
▁validate	-3185
▁Phil	-3186
://	-3187
▁ter	-3188
▁know	-3189
▁expand	-3190
▁http	-3191
Warn	-3192
▁tropical	-3193
▁works	-3194
▁grow	-3195
ugin	-3196
▁white	-3197
▁relationship	-3198
mar	-3199
▁lik	-3200
▁established	-3201
▁ST	-3202
▁remaining	-3203
▁prior	-3204
ighb	-3205
Input	-3206
▁random	-3207
▁fem	-3208
▁calc	-3209
unn	-3210
20	-3211
Unit	-3212
▁population	-3213
TT	-3214
▁rock	-3215
▁Que	-3216
Default	-3217
▁pred	-3218
ounter	-3219
▁Out	-3220
▁Big	-3221
tocol	-3222
▁getA	-3223
▁500	-3224
▁caused	-3225
▁thought	-3226
▁Thom	-3227
▁errors	-3228
▁execut	-3229
aval	-3230
LI	-3231
ming	-3232
▁race	-3233
▁emp	-3234
▁techn	-3235
The	-3236
▁component	-3237
Job	-3238
▁mask	-3239
stream	-3240
▁commit	-3241
▁Dep	-3242
▁appeared	-3243
▁resp	-3244
▁reference	-3245
alys	-3246
itory	-3247
▁together	-3248
parse	-3249
afe	-3250
▁award	-3251
api	-3252
ocial	-3253
▁require	-3254
▁pi	-3255
endar	-3256
ux	-3257
▁David	-3258
eng	-3259
Image	-3260
▁Rich	-3261
▁chunk	-3262
cil	-3263
▁handler	-3264
Tem	-3265
▁Australian	-3266
irl	-3267
oring	-3268
▁option	-3269
▁App	-3270
▁young	-3271
▁miles	-3272
ration	-3273
▁coast	-3274
oney	-3275
ports	-3276
conom	-3277
▁ens	-3278
▁prep	-3279
Part	-3280
▁percent	-3281
▁Mor	-3282
▁eventually	-3283
keys	-3284
ays	-3285
men	-3286
▁Date	-3287
ament	-3288
▁whe	-3289
▁Other	-3290
Hel	-3291
',	-3292
}"	-3293
▁Non	-3294
▁average	-3295
▁es	-3296
▁encode	-3297
▁std	-3298
▁decided	-3299
▁Loc	-3300
▁Element	-3301
ivil	-3302
thon	-3303
▁women	-3304
▁Mal	-3305
▁peak	-3306
▁directory	-3307
pha	-3308
▁important	-3309
asc	-3310
number	-3311
▁sched	-3312
▁Del	-3313
▁First	-3314
▁mass	-3315
▁isD	-3316
▁insert	-3317
▁others	-3318
dat	-3319
▁select	-3320
▁rather	-3321
▁Squ	-3322
▁trace	-3323
▁nom	-3324
dis	-3325
▁60	-3326
rect	-3327
▁nov	-3328
ana	-3329
▁som	-3330
▁located	-3331
▁{}"	-3332
▁House	-3333
▁Afric	-3334
ffic	-3335
CO	-3336
ply	-3337
▁password	-3338
▁leading	-3339
Target	-3340
▁My	-3341
▁objects	-3342
▁31	-3343
▁live	-3344
▁running	-3345
icle	-3346
▁saw	-3347
▁che	-3348
aves	-3349
▁oppos	-3350
VAL	-3351
IL	-3352
▁language	-3353
aled	-3354
▁symbol	-3355
TH	-3356
▁contract	-3357
▁custom	-3358
▁opened	-3359
▁Sch	-3360
▁sql	-3361
▁Royal	-3362
▁lat	-3363
Container	-3364
▁Ag	-3365
earch	-3366
TER	-3367
ignment	-3368
▁feet	-3369
▁individ	-3370
asing	-3371
▁scene	-3372
adron	-3373
istance	-3374
▁formed	-3375
ires	-3376
▁Trace	-3377
▁consist	-3378
▁finished	-3379
link	-3380
mary	-3381
Char	-3382
▁configuration	-3383
▁mi	-3384
▁complete	-3385
ades	-3386
icult	-3387
▁meas	-3388
▁0.0	-3389
▁`	-3390
anged	-3391
▁circ	-3392
BC	-3393
▁modern	-3394
▁188	-3395
▁'_	-3396
▁Check	-3397
Record	-3398
Mode	-3399
▁'-	-3400
Read	-3401
ordin	-3402
▁iterator	-3403
▁Black	-3404
▁reader	-3405
▁generate	-3406
oph	-3407
▁apply	-3408
▁foc	-3409
▁progress	-3410
MS	-3411
▁Sec	-3412
▁fight	-3413
Expression	-3414
input	-3415
rought	-3416
http	-3417
▁plat	-3418
▁schema	-3419
▁Def	-3420
▁Some	-3421
▁warning	-3422
▁our	-3423
▁playing	-3424
response	-3425
▁hasattr	-3426
Rel	-3427
emy	-3428
Check	-3429
ze	-3430
▁Mo	-3431
gress	-3432
PO	-3433
▁getattr	-3434
cel	-3435
TYPE	-3436
▁Pe	-3437
inding	-3438
Store	-3439
▁crew	-3440
▁encoding	-3441
bro	-3442
▁decode	-3443
▁Ne	-3444
▁additional	-3445
pc	-3446
▁hours	-3447
itional	-3448
▁candid	-3449
unch	-3450
▁synchronized	-3451
▁subsequ	-3452
▁batch	-3453
antic	-3454
dim	-3455
▁typ	-3456
inn	-3457
▁tuple	-3458
rypt	-3459
▁San	-3460
▁clean	-3461
▁states	-3462
iation	-3463
▁Indian	-3464
net	-3465
Params	-3466
▁construction	-3467
icket	-3468
▁sequence	-3469
Pl	-3470
▁Me	-3471
sup	-3472
arr	-3473
miss	-3474
Tracing	-3475
▁minutes	-3476
▁quick	-3477
▁2004	-3478
▁behind	-3479
ilities	-3480
ds	-3481
▁product	-3482
ourn	-3483
aching	-3484
anges	-3485
:"	-3486
▁Double	-3487
▁counter	-3488
▁gra	-3489
▁weeks	-3490
}'	-3491
▁hor	-3492
▁verb	-3493
Function	-3494
clude	-3495
▁getL	-3496
▁Michael	-3497
Callback	-3498
▁determ	-3499
▁Byte	-3500
▁recogn	-3501
▁human	-3502
ki	-3503
▁bound	-3504
bserv	-3505
Bean	-3506
▁worked	-3507
▁fif	-3508
▁party	-3509
Local	-3510
▁training	-3511
event	-3512
TracingEnabled	-3513
Ad	-3514
▁respect	-3515
▁2015	-3516
▁Sing	-3517
▁selected	-3518
wood	-3519
▁material	-3520
ClientException	-3521
▁lack	-3522
▁Config	-3523
section	-3524
▁ly	-3525
query	-3526
▁bill	-3527
▁pers	-3528
▁hard	-3529
▁born	-3530
▁heavy	-3531
Metadata	-3532
▁flag	-3533
▁mus	-3534
▁2000	-3535
▁guns	-3536
anned	-3537
▁amount	-3538
▁media	-3539
▁Robert	-3540
ky	-3541
▁isAny	-3542
▁difficult	-3543
Gener	-3544
auth	-3545
filter	-3546
▁desc	-3547
▁hy	-3548
▁runs	-3549
▁upon	-3550
▁France	-3551
▁package	-3552
Sel	-3553
▁payload	-3554
itar	-3555
▁Pre	-3556
▁cause	-3557
▁profile	-3558
Match	-3559
ara	-3560
▁nodes	-3561
DI	-3562
▁structure	-3563
▁Don	-3564
uel	-3565
▁almost	-3566
▁kind	-3567
▁vert	-3568
▁inj	-3569
▁originally	-3570
▁School	-3571
▁pract	-3572
▁",	-3573
asion	-3574
ores	-3575
▁particip	-3576
Failed	-3577
▁changes	-3578
cope	-3579
eline	-3580
▁ever	-3581
era	-3582
Parser	-3583
▁datetime	-3584
Enc	-3585
▁Wash	-3586
▁pot	-3587
pan	-3588
ino	-3589
▁accom	-3590
▁{0}	-3591
▁32	-3592
▁Path	-3593
▁appoint	-3594
Provider	-3595
ips	-3596
▁happ	-3597
▁ip	-3598
▁sample	-3599
▁existing	-3600
▁business	-3601
▁sorted	-3602
ological	-3603
▁scored	-3604
aker	-3605
▁clazz	-3606
▁wanted	-3607
▁changed	-3608
allen	-3609
Pol	-3610
▁der	-3611
▁Henry	-3612
lick	-3613
▁distance	-3614
▁fourth	-3615
▁invest	-3616
▁effort	-3617
▁damage	-3618
▁respons	-3619
▁Boolean	-3620
▁reve	-3621
Reference	-3622
oper	-3623
▁friend	-3624
▁stack	-3625
▁joined	-3626
▁pars	-3627
▁vill	-3628
▁TypeError	-3629
▁Best	-3630
▁above	-3631
▁Play	-3632
ODO	-3633
▁removed	-3634
▁Music	-3635
▁positive	-3636
▁replaced	-3637
ellow	-3638
block	-3639
▁edge	-3640
▁Cour	-3641
▁Dr	-3642
aper	-3643
VER	-3644
▁Paul	-3645
func	-3646
-8	-3647
with	-3648
ferred	-3649
Run	-3650
PT	-3651
▁getF	-3652
▁ordered	-3653
60	-3654
_0	-3655
▁Union	-3656
▁utils	-3657
▁manager	-3658
▁sit	-3659
ighest	-3660
▁placed	-3661
▁internal	-3662
eature	-3663
uccess	-3664
▁Battle	-3665
▁TraceComponent	-3666
idx	-3667
▁ignore	-3668
▁interest	-3669
▁Method	-3670
▁ball	-3671
▁brought	-3672
ells	-3673
Execution	-3674
▁featured	-3675
▁towards	-3676
ialog	-3677
▁pk	-3678
▁Follow	-3679
▁La	-3680
▁deep	-3681
▁box	-3682
▁187	-3683
▁Route	-3684
▁enumer	-3685
▁Command	-3686
unt	-3687
▁king	-3688
context	-3689
▁1.0	-3690
icated	-3691
▁zip	-3692
server	-3693
▁President	-3694
▁starts	-3695
▁extract	-3696
▁gre	-3697
Level	-3698
▁indust	-3699
▁println	-3700
porary	-3701
▁sex	-3702
eh	-3703
▁office	-3704
▁Bel	-3705
▁Washington	-3706
anks	-3707
▁goal	-3708
▁hon	-3709
▁ang	-3710
acity	-3711
▁compet	-3712
ervlet	-3713
urren	-3714
Byte	-3715
Thread	-3716
▁screen	-3717
▁Rev	-3718
▁attributes	-3719
quired	-3720
azine	-3721
ama	-3722
fields	-3723
▁always	-3724
If	-3725
cache	-3726
▁direction	-3727
▁URL	-3728
▁critics	-3729
▁Fran	-3730
arm	-3731
address	-3732
▁ID	-3733
aging	-3734
▁quest	-3735
_1	-3736
▁scen	-3737
▁From	-3738
▁econom	-3739
▁But	-3740
▁upd	-3741
▁issue	-3742
Unable	-3743
rate	-3744
Parameters	-3745
bit	-3746
▁wife	-3747
▁might	-3748
go	-3749
▁generally	-3750
▁troops	-3751
▁speed	-3752
▁transl	-3753
▁admin	-3754
▁enough	-3755
▁evid	-3756
▁highest	-3757
greg	-3758
osp	-3759
Base	-3760
artment	-3761
stand	-3762
right	-3763
▁largest	-3764
▁army	-3765
now	-3766
▁2003	-3767
▁Te	-3768
Stack	-3769
▁Despite	-3770
▁frequ	-3771
tribution	-3772
▁got	-3773
▁immedi	-3774
▁Observ	-3775
Ident	-3776
▁Game	-3777
thing	-3778
▁variable	-3779
▁sett	-3780
▁learn	-3781
▁signed	-3782
oder	-3783
▁big	-3784
agement	-3785
▁rail	-3786
write	-3787
command	-3788
▁better	-3789
▁hom	-3790
ully	-3791
▁LOGGER	-3792
▁tx	-3793
module	-3794
▁unique	-3795
Rep	-3796
▁opening	-3797
▁Atl	-3798
content	-3799
▁mother	-3800
Ass	-3801
▁prevent	-3802
▁fund	-3803
▁Angel	-3804
▁Hill	-3805
▁>>	-3806
Server	-3807
▁Wil	-3808
▁soon	-3809
ica	-3810
▁Two	-3811
elled	-3812
▁pur	-3813
▁eval	-3814
Helper	-3815
▁\	-3816
aries	-3817
▁RE	-3818
evice	-3819
Descriptor	-3820
▁layer	-3821
▁Following	-3822
▁believed	-3823
Sup	-3824
image	-3825
Trace	-3826
▁phys	-3827
▁Cup	-3828
▁Up	-3829
Output	-3830
▁island	-3831
▁needed	-3832
US	-3833
▁dro	-3834
alysis	-3835
▁Vir	-3836
▁Ham	-3837
▁Dan	-3838
null	-3839
stract	-3840
Dec	-3841
atural	-3842
▁past	-3843
uit	-3844
▁rh	-3845
▁forward	-3846
▁primary	-3847
▁Coun	-3848
▁shot	-3849
Update	-3850
ipal	-3851
▁Mary	-3852
▁earlier	-3853
▁Hall	-3854
▁tit	-3855
▁Mark	-3856
▁involved	-3857
▁meta	-3858
▁designed	-3859
▁Attribute	-3860
ios	-3861
▁victory	-3862
utf	-3863
▁earn	-3864
efore	-3865
▁mph	-3866
▁Great	-3867
▁forced	-3868
▁environment	-3869
Rule	-3870
▁getKey	-3871
▁startswith	-3872
▁Fil	-3873
▁insp	-3874
istration	-3875
▁segment	-3876
----------------	-3877
▁threat	-3878
▁phot	-3879
▁deg	-3880
Position	-3881
▁por	-3882
▁European	-3883
west	-3884
▁avoid	-3885
▁president	-3886
ico	-3887
▁Response	-3888
rison	-3889
▁resid	-3890
▁information	-3891
▁"'	-3892
Work	-3893
▁court	-3894
▁going	-3895
ibrary	-3896
ulated	-3897
▁DEFAULT	-3898
utable	-3899
uses	-3900
▁skip	-3901
▁Mac	-3902
▁loop	-3903
Width	-3904
▁outside	-3905
ociety	-3906
▁TODO	-3907
roller	-3908
▁dem	-3909
▁global	-3910
▁username	-3911
ography	-3912
airs	-3913
▁activ	-3914
▁Championship	-3915
▁queue	-3916
▁saying	-3917
▁Ant	-3918
▁Base	-3919
▁complet	-3920
▁vers	-3921
▁resources	-3922
comp	-3923
hib	-3924
▁Roman	-3925
update	-3926
lib	-3927
▁itself	-3928
ometry	-3929
RA	-3930
▁extend	-3931
▁according	-3932
chiev	-3933
▁seconds	-3934
uled	-3935
("	-3936
='	-3937
▁den	-3938
▁travel	-3939
Ed	-3940
▁Mart	-3941
▁director	-3942
ecl	-3943
loat	-3944
range	-3945
▁mot	-3946
▁conduct	-3947
▁pool	-3948
▁central	-3949
▁remote	-3950
den	-3951
▁initially	-3952
▁weight	-3953
▁Null	-3954
apter	-3955
lers	-3956
track	-3957
Lock	-3958
irm	-3959
doc	-3960
▁sat	-3961
URI	-3962
lim	-3963
istics	-3964
▁discover	-3965
▁sil	-3966
▁train	-3967
▁Rock	-3968
▁ended	-3969
ago	-3970
Future	-3971
▁cop	-3972
acter	-3973
SP	-3974
▁numer	-3975
mode	-3976
▁southern	-3977
▁highway	-3978
atalog	-3979
▁grid	-3980
▁study	-3981
▁quar	-3982
▁enumerate	-3983
▁missing	-3984
ership	-3985
ething	-3986
tributed	-3987
▁Art	-3988
11	-3989
gs	-3990
▁DE	-3991
▁Scott	-3992
▁getType	-3993
achine	-3994
ayed	-3995
Hash	-3996
▁Entry	-3997
▁park	-3998
rated	-3999
imate	-4000
Per	-4001
Command	-4002
▁fast	-4003
▁2001	-4004
rain	-4005
▁seem	-4006
▁particularly	-4007
▁Rem	-4008
▁employ	-4009
▁Mag	-4010
▁social	-4011
▁ill	-4012
aining	-4013
▁Group	-4014
ought	-4015
▁arguments	-4016
eff	-4017
antry	-4018
▁Republic	-4019
rapper	-4020
Ext	-4021
gor	-4022
▁liter	-4023
▁regard	-4024
pack	-4025
mitted	-4026
▁Request	-4027
▁ey	-4028
atrix	-4029
han	-4030
▁turned	-4031
▁numpy	-4032
▁pain	-4033
Row	-4034
▁slow	-4035
▁render	-4036
▁scope	-4037
▁closed	-4038
items	-4039
eros	-4040
▁Associ	-4041
lice	-4042
fall	-4043
KEY	-4044
▁fr	-4045
▁database	-4046
ponents	-4047
och	-4048
ipped	-4049
▁International	-4050
▁Json	-4051
mun	-4052
olver	-4053
▁".	-4054
▁Kingdom	-4055
▁Charles	-4056
ha	-4057
burg	-4058
▁°	-4059
▁Navy	-4060
▁viol	-4061
▁rid	-4062
▁previously	-4063
rs	-4064
arily	-4065
InputStream	-4066
▁Rel	-4067
filename	-4068
▁White	-4069
fs	-4070
ett	-4071
Option	-4072
▁independ	-4073
env	-4074
PER	-4075
Location	-4076
ks	-4077
ware	-4078
▁actual	-4079
▁qual	-4080
▁policy	-4081
ificate	-4082
▁Ber	-4083
▁Thomas	-4084
▁Lou	-4085
▁increased	-4086
▁course	-4087
▁studio	-4088
rowable	-4089
width	-4090
▁Star	-4091
GroupName	-4092
▁cm	-4093
▁Page	-4094
▁yet	-4095
iforn	-4096
▁condition	-4097
▁adj	-4098
▁give	-4099
▁ast	-4100
▁Smith	-4101
▁depend	-4102
heast	-4103
▁Virgin	-4104
▁praised	-4105
igger	-4106
create	-4107
▁educ	-4108
▁northern	-4109
▁services	-4110
▁novel	-4111
▁surface	-4112
▁beginning	-4113
▁sle	-4114
▁hurricane	-4115
call	-4116
Rem	-4117
tee	-4118
▁treat	-4119
position	-4120
EntryEnabled	-4121
▁words	-4122
tag	-4123
▁bi	-4124
▁cluster	-4125
ship	-4126
▁2002	-4127
▁opts	-4128
25	-4129
▁Sen	-4130
▁taking	-4131
▁international	-4132
▁appearance	-4133
▁journ	-4134
wise	-4135
space	-4136
▁isEntryEnabled	-4137
▁minor	-4138
service	-4139
Lay	-4140
▁recording	-4141
30	-4142
▁Church	-4143
erve	-4144
Order	-4145
▁bool	-4146
▁atom	-4147
ointer	-4148
Warnings	-4149
bound	-4150
▁Pal	-4151
▁wat	-4152
▁Canada	-4153
▁beg	-4154
bar	-4155
using	-4156
▁relig	-4157
Host	-4158
ises	-4159
▁Form	-4160
aling	-4161
apper	-4162
Dat	-4163
▁Californ	-4164
▁Message	-4165
ynam	-4166
UM	-4167
ergy	-4168
▁provide	-4169
ii	-4170
▁Bay	-4171
ensor	-4172
atory	-4173
▁Back	-4174
▁neighb	-4175
▁come	-4176
gorith	-4177
Annotation	-4178
lose	-4179
actions	-4180
ometimes	-4181
OK	-4182
▁church	-4183
▁cursor	-4184
▁rows	-4185
▁window	-4186
▁alt	-4187
▁related	-4188
fact	-4189
▁gl	-4190
▁35	-4191
▁achiev	-4192
▁extension	-4193
▁Resource	-4194
▁Sam	-4195
▁resolve	-4196
▁Suppress	-4197
utton	-4198
▁records	-4199
IME	-4200
▁tokens	-4201
ROR	-4202
icode	-4203
▁depth	-4204
offset	-4205
Operation	-4206
▁operations	-4207
▁listener	-4208
urred	-4209
Auth	-4210
▁Optional	-4211
▁Point	-4212
▁Richard	-4213
van	-4214
)'	-4215
Det	-4216
stitution	-4217
▁love	-4218
Pool	-4219
vention	-4220
▁Alex	-4221
▁tax	-4222
▁secret	-4223
encies	-4224
▁Jer	-4225
▁think	-4226
err	-4227
pose	-4228
▁winds	-4229
uk	-4230
column	-4231
▁Tri	-4232
ros	-4233
▁Create	-4234
options	-4235
atives	-4236
▁California	-4237
iqu	-4238
▁transport	-4239
indow	-4240
reak	-4241
kwargs	-4242
▁inn	-4243
rab	-4244
▁HashMap	-4245
▁research	-4246
▁prec	-4247
▁Observable	-4248
",	-4249
▁concern	-4250
▁bad	-4251
▁SQL	-4252
▁room	-4253
▁Govern	-4254
▁commerc	-4255
▁spent	-4256
System	-4257
▁Sib	-4258
▁Island	-4259
▁ServiceResponse	-4260
lying	-4261
II	-4262
sel	-4263
edy	-4264
aded	-4265
▁Span	-4266
session	-4267
function	-4268
▁finish	-4269
pid	-4270
TE	-4271
Range	-4272
▁directed	-4273
iting	-4274
lems	-4275
AF	-4276
▁186	-4277
▁seq	-4278
▁AP	-4279
▁fn	-4280
▁told	-4281
Attributes	-4282
Label	-4283
mi	-4284
ategy	-4285
▁sus	-4286
▁cycl	-4287
▁feel	-4288
▁Mill	-4289
▁Court	-4290
▁Company	-4291
cluded	-4292
rt	-4293
▁whether	-4294
▁compare	-4295
▁sig	-4296
▁God	-4297
otal	-4298
▁standard	-4299
▁Ac	-4300
▁1.	-4301
▁Tom	-4302
▁trim	-4303
hash	-4304
Num	-4305
▁evidence	-4306
bytes	-4307
▁films	-4308
SION	-4309
▁Mount	-4310
apsh	-4311
▁defeat	-4312
▁bridge	-4313
▁hour	-4314
reshold	-4315
▁football	-4316
copy	-4317
▁Vict	-4318
▁chain	-4319
ped	-4320
▁Award	-4321
▁approx	-4322
OM	-4323
▁daugh	-4324
▁statement	-4325
▁Cong	-4326
inct	-4327
▁domain	-4328
▁1990	-4329
ocket	-4330
▁nine	-4331
16	-4332
▁cp	-4333
▁endpoint	-4334
▁Ben	-4335
fg	-4336
▁sym	-4337
irth	-4338
▁gold	-4339
▁destination	-4340
▁pick	-4341
▁whose	-4342
imestamp	-4343
▁proxy	-4344
▁instr	-4345
▁80	-4346
▁sea	-4347
▁estimated	-4348
UP	-4349
Acc	-4350
Seg	-4351
Channel	-4352
ottom	-4353
source	-4354
band	-4355
rief	-4356
verter	-4357
▁reviews	-4358
▁reset	-4359
▁stren	-4360
Head	-4361
▁Stud	-4362
▁broadcast	-4363
_2	-4364
resource	-4365
▁terms	-4366
inst	-4367
▁ensure	-4368
AGE	-4369
▁cru	-4370
isl	-4371
▁repe	-4372
▁Mod	-4373
▁Cr	-4374
▁ET	-4375
Fields	-4376
▁valueOf	-4377
xml	-4378
ifact	-4379
▁et	-4380
▁Germany	-4381
▁India	-4382
▁asked	-4383
▁tags	-4384
▁walk	-4385
alion	-4386
▁Times	-4387
▁maximum	-4388
▁consider	-4389
▁fall	-4390
▁delta	-4391
▁'--	-4392
▁interview	-4393
▁dst	-4394
irtual	-4395
▁escape	-4396
▁despite	-4397
ding	-4398
▁Cast	-4399
OutputStream	-4400
▁Brown	-4401
':	-4402
▁decision	-4403
▁Christian	-4404
▁Peter	-4405
▁Force	-4406
escription	-4407
Ids	-4408
▁larger	-4409
ODE	-4410
prefix	-4411
ught	-4412
▁Gold	-4413
▁That	-4414
bl	-4415
▁Day	-4416
anner	-4417
▁extended	-4418
▁hasNext	-4419
▁Bra	-4420
Call	-4421
▁Throwable	-4422
▁rain	-4423
ville	-4424
▁debut	-4425
▁Web	-4426
▁"-	-4427
▁NY	-4428
CL	-4429
build	-4430
▁claimed	-4431
▁hous	-4432
header	-4433
▁£	-4434
▁platform	-4435
▁multiple	-4436
▁rate	-4437
▁usually	-4438
▁cho	-4439
dr	-4440
▁pen	-4441
sey	-4442
hood	-4443
▁something	-4444
Long	-4445
▁occup	-4446
msg	-4447
▁UK	-4448
Mill	-4449
utor	-4450
HE	-4451
do	-4452
root	-4453
entials	-4454
idden	-4455
var	-4456
▁College	-4457
can	-4458
like	-4459
▁via	-4460
▁princ	-4461
▁Operation	-4462
▁Che	-4463
▁idea	-4464
itz	-4465
Do	-4466
▁complex	-4467
anel	-4468
▁async	-4469
▁socket	-4470
ABLE	-4471
urb	-4472
▁sure	-4473
▁sometimes	-4474
scription	-4475
ded	-4476
▁origin	-4477
▁means	-4478
uri	-4479
▁Sov	-4480
▁timestamp	-4481
▁expression	-4482
cade	-4483
▁longer	-4484
org	-4485
▁uns	-4486
shape	-4487
▁introduced	-4488
▁300	-4489
Body	-4490
Que	-4491
Frame	-4492
▁Western	-4493
▁league	-4494
▁election	-4495
ida	-4496
eated	-4497
▁Mex	-4498
▁isDebug	-4499
eed	-4500
isions	-4501
Root	-4502
▁assist	-4503
▁Dem	-4504
Variable	-4505
callback	-4506
▁Just	-4507
▁ends	-4508
▁poor	-4509
gorithm	-4510
▁brother	-4511
99	-4512
▁whom	-4513
▁Hot	-4514
▁radio	-4515
▁verbose	-4516
▁Lo	-4517
ifiers	-4518
▁quickly	-4519
▁regular	-4520
allel	-4521
rian	-4522
▁Work	-4523
▁<<	-4524
Us	-4525
MENT	-4526
▁fort	-4527
40	-4528
▁Rob	-4529
AM	-4530
▁Frank	-4531
Meta	-4532
▁Most	-4533
rows	-4534
▁1970	-4535
▁flags	-4536
▁face	-4537
▁download	-4538
▁Awards	-4539
ensity	-4540
▁community	-4541
▁pressure	-4542
▁annotation	-4543
▁contr	-4544
▁Grand	-4545
▁predict	-4546
▁dead	-4547
NotFound	-4548
▁probably	-4549
Act	-4550
igan	-4551
▁labels	-4552
iece	-4553
▁cat	-4554
▁dataset	-4555
▁SE	-4556
aved	-4557
▁money	-4558
active	-4559
▁pil	-4560
store	-4561
icted	-4562
olute	-4563
ving	-4564
▁leaving	-4565
80	-4566
▁arrived	-4567
▁Pat	-4568
Ob	-4569
▁isDebugEnabled	-4570
▁really	-4571
▁Final	-4572
▁Tem	-4573
▁alpha	-4574
\\	-4575
erce	-4576
frame	-4577
▁'"	-4578
▁minute	-4579
▁factory	-4580
DS	-4581
▁fun	-4582
gt	-4583
▁certain	-4584
▁numbers	-4585
ado	-4586
▁So	-4587
ialize	-4588
cho	-4589
▁pow	-4590
▁altern	-4591
berg	-4592
▁Second	-4593
▁fetch	-4594
Pattern	-4595
▁1980	-4596
▁Di	-4597
utions	-4598
pping	-4599
▁espec	-4600
▁ns	-4601
derr	-4602
▁western	-4603
▁musical	-4604
▁Inf	-4605
ls	-4606
▁Event	-4607
▁portr	-4608
Iterator	-4609
▁deploy	-4610
▁civil	-4611
▁Britain	-4612
▁bean	-4613
▁shows	-4614
▁necess	-4615
▁especially	-4616
▁female	-4617
parator	-4618
useum	-4619
▁UN	-4620
▁effects	-4621
DE	-4622
iler	-4623
▁Invalid	-4624
▁publish	-4625
▁Query	-4626
anning	-4627
▁temper	-4628
▁conditions	-4629
▁food	-4630
▁includes	-4631
▁getT	-4632
iser	-4633
</	-4634
Template	-4635
▁master	-4636
▁Later	-4637
match	-4638
▁sem	-4639
▁entered	-4640
▁Param	-4641
▁Early	-4642
▁below	-4643
▁cs	-4644
▁overall	-4645
ees	-4646
▁hop	-4647
▁lin	-4648
OC	-4649
color	-4650
▁magazine	-4651
win	-4652
▁problems	-4653
▁suggested	-4654
▁activity	-4655
▁cel	-4656
▁SibTr	-4657
Json	-4658
iament	-4659
▁implement	-4660
task	-4661
▁multi	-4662
dec	-4663
elves	-4664
Project	-4665
gent	-4666
izes	-4667
▁carried	-4668
asy	-4669
▁producer	-4670
▁FI	-4671
▁personal	-4672
▁CON	-4673
▁profession	-4674
▁push	-4675
▁Victor	-4676
▁45	-4677
body	-4678
Fl	-4679
▁surround	-4680
▁limited	-4681
aped	-4682
lor	-4683
▁Bet	-4684
urt	-4685
▁guitar	-4686
▁Line	-4687
▁'{}	-4688
DB	-4689
▁Pac	-4690
▁Jackson	-4691
▁tor	-4692
oe	-4693
return	-4694
▁teams	-4695
\"	-4696
▁1999	-4697
▁eastern	-4698
▁division	-4699
▁net	-4700
▁sources	-4701
▁specified	-4702
▁leave	-4703
▁higher	-4704
▁defeated	-4705
▁latter	-4706
idget	-4707
PRO	-4708
Port	-4709
izing	-4710
▁storage	-4711
▁getId	-4712
▁Du	-4713
▁seek	-4714
▁proposed	-4715
SH	-4716
▁Py	-4717
icles	-4718
▁investig	-4719
▁becoming	-4720
▁brief	-4721
▁Virginia	-4722
▁discuss	-4723
Style	-4724
▁Los	-4725
▁board	-4726
▁leader	-4727
▁police	-4728
bes	-4729
▁shut	-4730
▁salt	-4731
▁Sk	-4732
▁Green	-4733
▁await	-4734
▁associated	-4735
▁positions	-4736
ulti	-4737
▁Link	-4738
▁sequ	-4739
▁destroyed	-4740
eal	-4741
acing	-4742
▁students	-4743
pson	-4744
▁middle	-4745
Var	-4746
last	-4747
▁actions	-4748
▁core	-4749
▁web	-4750
▁Iterator	-4751
IG	-4752
▁feed	-4753
lood	-4754
▁shell	-4755
▁merge	-4756
▁shoot	-4757
▁branch	-4758
▁commercial	-4759
checked	-4760
rap	-4761
itect	-4762
ocr	-4763
▁Since	-4764
Sec	-4765
▁invalid	-4766
Max	-4767
cert	-4768
▁security	-4769
▁Arch	-4770
pool	-4771
Statement	-4772
▁Chic	-4773
▁Rh	-4774
target	-4775
ena	-4776
▁stdout	-4777
ulf	-4778
▁rights	-4779
light	-4780
uate	-4781
▁episodes	-4782
▁fit	-4783
tree	-4784
▁rot	-4785
▁har	-4786
▁decor	-4787
▁fleet	-4788
▁methods	-4789
conf	-4790
ederal	-4791
▁river	-4792
Enum	-4793
rd	-4794
▁declared	-4795
▁emer	-4796
rupted	-4797
▁staff	-4798
▁90	-4799
orial	-4800
▁cas	-4801
▁Number	-4802
IP	-4803
▁Association	-4804
▁ben	-4805
▁sq	-4806
▁KeyError	-4807
hentication	-4808
▁prison	-4809
TTP	-4810
▁scenes	-4811
▁compute	-4812
ka	-4813
▁your	-4814
▁Step	-4815
Color	-4816
▁Mem	-4817
▁appointed	-4818
▁charAt	-4819
▁commission	-4820
▁specific	-4821
▁matrix	-4822
▁Cro	-4823
▁application	-4824
▁getProperty	-4825
▁install	-4826
▁contact	-4827
uz	-4828
Interface	-4829
▁winning	-4830
mir	-4831
▁deal	-4832
▁likely	-4833
▁stats	-4834
New	-4835
UID	-4836
inese	-4837
▁Tex	-4838
▁'.	-4839
ands	-4840
▁bur	-4841
▁concert	-4842
▁wood	-4843
enth	-4844
▁McC	-4845
ASS	-4846
▁capital	-4847
▁summer	-4848
▁DB	-4849
shire	-4850
▁Flor	-4851
▁Louis	-4852
lymp	-4853
ao	-4854
▁chars	-4855
▁intended	-4856
atively	-4857
▁Many	-4858
▁classes	-4859
▁wide	-4860
ening	-4861
).	-4862
▁individual	-4863
▁territ	-4864
▁dt	-4865
▁increase	-4866
▁grant	-4867
Document	-4868
Keys	-4869
▁Olymp	-4870
▁Club	-4871
argument	-4872
▁influence	-4873
▁Spanish	-4874
▁tracks	-4875
▁immediately	-4876
icon	-4877
Http	-4878
▁indexOf	-4879
▁setting	-4880
▁Leg	-4881
ctor	-4882
▁watch	-4883
▁establish	-4884
▁favor	-4885
▁purch	-4886
▁rat	-4887
Queue	-4888
▁anti	-4889
iring	-4890
current	-4891
omer	-4892
▁health	-4893
▁defined	-4894
▁parsed	-4895
uing	-4896
▁"/"	-4897
▁dark	-4898
▁Buff	-4899
Internal	-4900
▁recon	-4901
Sequence	-4902
▁Enter	-4903
▁owner	-4904
aily	-4905
uler	-4906
ander	-4907
▁thus	-4908
page	-4909
▁Party	-4910
▁occurred	-4911
▁starting	-4912
Collection	-4913
▁models	-4914
▁whole	-4915
Is	-4916
igade	-4917
orted	-4918
patch	-4919
▁metric	-4920
uous	-4921
▁natural	-4922
▁mom	-4923
▁girl	-4924
▁lib	-4925
▁bow	-4926
▁kil	-4927
cmd	-4928
▁Ref	-4929
▁Stev	-4930
▁movement	-4931
tained	-4932
itting	-4933
ormal	-4934
▁Lat	-4935
▁correct	-4936
▁1960	-4937
Policy	-4938
▁drop	-4939
▁Soviet	-4940
ette	-4941
▁History	-4942
merce	-4943
▁ran	-4944
rey	-4945
▁compared	-4946
▁Index	-4947
▁agreed	-4948
▁nearly	-4949
▁"_	-4950
Wrapper	-4951
▁voice	-4952
apshot	-4953
ragment	-4954
▁jud	-4955
umed	-4956
▁getInstance	-4957
▁problem	-4958
▁critical	-4959
plete	-4960
▁emb	-4961
otes	-4962
Sy	-4963
lict	-4964
▁daughter	-4965
▁challen	-4966
▁sleep	-4967
▁captured	-4968
points	-4969
▁Edward	-4970
▁70	-4971
▁Miss	-4972
▁increasing	-4973
▁figure	-4974
▁Chicago	-4975
▁Chinese	-4976
▁bomb	-4977
>"	-4978
rad	-4979
eners	-4980
Comp	-4981
only	-4982
▁inner	-4983
▁Tim	-4984
orter	-4985
▁36	-4986
step	-4987
▁married	-4988
▁helped	-4989
▁img	-4990
metadata	-4991
▁Mer	-4992
▁1998	-4993
▁bucket	-4994
▁awarded	-4995
abit	-4996
sid	-4997
VE	-4998
CA	-4999
▁Song	-5000
▁inside	-5001
▁Council	-5002
ij	-5003
anger	-5004
▁compar	-5005
▁attrs	-5006
container	-5007
▁cases	-5008
▁InputStream	-5009
licit	-5010
▁roll	-5011
StateException	-5012
Mapping	-5013
▁issues	-5014
▁bird	-5015
entry	-5016
ili	-5017
▁kw	-5018
mselves	-5019
▁simple	-5020
▁stars	-5021
▁zone	-5022
respon	-5023
▁themselves	-5024
parent	-5025
ams	-5026
▁requests	-5027
▁assigned	-5028
▁reb	-5029
teen	-5030
stack	-5031
▁planned	-5032
achment	-5033
▁elev	-5034
▁withd	-5035
▁Off	-5036
▁colon	-5037
!"	-5038
▁levels	-5039
ucle	-5040
▁rs	-5041
open	-5042
hing	-5043
Millis	-5044
uals	-5045
▁question	-5046
▁makes	-5047
▁quarter	-5048
▁partition	-5049
Vis	-5050
▁copies	-5051
mem	-5052
gener	-5053
▁experience	-5054
▁',	-5055
post	-5056
▁poly	-5057
▁Test	-5058
stitute	-5059
▁mixed	-5060
title	-5061
▁cam	-5062
▁html	-5063
▁185	-5064
▁directly	-5065
icro	-5066
supported	-5067
ken	-5068
▁Sever	-5069
html	-5070
▁candidate	-5071
24	-5072
▁category	-5073
▁mostly	-5074
▁180	-5075
▁cook	-5076
OW	-5077
▁takes	-5078
▁approximately	-5079
]"	-5080
ializer	-5081
▁remains	-5082
▁User	-5083
▁Franc	-5084
duction	-5085
▁bind	-5086
▁carry	-5087
andon	-5088
▁fans	-5089
ZE	-5090
▁indent	-5091
▁Johnson	-5092
▁background	-5093
▁fifth	-5094
exp	-5095
▁depart	-5096
agon	-5097
ng	-5098
child	-5099
▁org	-5100
enty	-5101
▁400	-5102
▁living	-5103
▁raised	-5104
ools	-5105
ingle	-5106
ein	-5107
mas	-5108
▁transaction	-5109
Non	-5110
▁Pacific	-5111
Uri	-5112
Prefix	-5113
▁Kore	-5114
▁Ital	-5115
Sum	-5116
▁bring	-5117
EClass	-5118
▁issued	-5119
force	-5120
▁failure	-5121
ipeline	-5122
PAR	-5123
:'	-5124
▁seed	-5125
sect	-5126
▁00	-5127
▁managed	-5128
▁memory	-5129
ceeded	-5130
location	-5131
INT	-5132
IO	-5133
handle	-5134
▁sal	-5135
Doc	-5136
▁countries	-5137
plot	-5138
fn	-5139
▁Billboard	-5140
olt	-5141
▁thr	-5142
Height	-5143
▁fish	-5144
▁selection	-5145
▁concept	-5146
brocade	-5147
▁Ke	-5148
urrency	-5149
adding	-5150
▁border	-5151
▁demand	-5152
▁weap	-5153
▁woman	-5154
▁37	-5155
BU	-5156
▁Both	-5157
PAT	-5158
Logger	-5159
▁ut	-5160
EXT	-5161
▁incor	-5162
▁reverse	-5163
unched	-5164
Directory	-5165
▁'.'	-5166
▁smaller	-5167
oo	-5168
▁lyrics	-5169
ols	-5170
project	-5171
▁Gra	-5172
hold	-5173
▁tail	-5174
het	-5175
▁reach	-5176
sen	-5177
▁theme	-5178
aven	-5179
riage	-5180
Account	-5181
Application	-5182
▁commerce	-5183
▁Old	-5184
paths	-5185
Settings	-5186
apped	-5187
loud	-5188
▁Scot	-5189
▁dram	-5190
▁Emp	-5191
channel	-5192
Elements	-5193
top	-5194
▁suppl	-5195
▁soldiers	-5196
▁Sea	-5197
▁matcher	-5198
▁signature	-5199
▁agent	-5200
▁Call	-5201
▁Abstract	-5202
▁moving	-5203
▁heart	-5204
CC	-5205
▁goals	-5206
▁greater	-5207
▁appears	-5208
Ignore	-5209
▁Fort	-5210
▁letter	-5211
▁buildings	-5212
ECT	-5213
▁Squadron	-5214
0000	-5215
▁square	-5216
▁diss	-5217
-1	-5218
det	-5219
▁1997	-5220
ading	-5221
Servlet	-5222
expected	-5223
▁versions	-5224
astern	-5225
▁Atlantic	-5226
vals	-5227
ections	-5228
IM	-5229
Qu	-5230
UB	-5231
▁parents	-5232
chan	-5233
▁actually	-5234
▁editor	-5235
▁Hel	-5236
▁battles	-5237
Transaction	-5238
▁0.5	-5239
▁Protocol	-5240
▁Ir	-5241
▁Sel	-5242
▁anc	-5243
▁pd	-5244
▁Jim	-5245
▁Internal	-5246
▁zeros	-5247
arse	-5248
test	-5249
▁suffered	-5250
▁volume	-5251
uated	-5252
Mem	-5253
▁impact	-5254
▁breed	-5255
AY	-5256
▁Congress	-5257
▁Sal	-5258
ospital	-5259
Init	-5260
▁How	-5261
▁flat	-5262
ario	-5263
▁Love	-5264
angle	-5265
VALUE	-5266
▁Florida	-5267
▁Thread	-5268
buffer	-5269
Atom	-5270
▁messages	-5271
▁suggest	-5272
vis	-5273
▁Valid	-5274
▁entries	-5275
enant	-5276
▁plans	-5277
▁Law	-5278
rep	-5279
▁Sl	-5280
words	-5281
▁sch	-5282
nes	-5283
▁mapping	-5284
▁MAX	-5285
▁Lake	-5286
umps	-5287
▁officers	-5288
INE	-5289
imple	-5290
▁plant	-5291
▁fell	-5292
▁Jew	-5293
▁interface	-5294
NS	-5295
▁75	-5296
▁lif	-5297
▁compan	-5298
essions	-5299
▁Post	-5300
▁celeb	-5301
eno	-5302
cp	-5303
▁particular	-5304
ORT	-5305
omm	-5306
▁plugin	-5307
template	-5308
VD	-5309
▁Error	-5310
▁choice	-5311
▁Another	-5312
▁Queen	-5313
▁discovered	-5314
gram	-5315
well	-5316
▁1000	-5317
▁subsequently	-5318
▁Texas	-5319
formed	-5320
▁startsWith	-5321
creen	-5322
pute	-5323
▁Tech	-5324
▁Lord	-5325
▁offered	-5326
ills	-5327
wd	-5328
▁Tor	-5329
▁Earth	-5330
Return	-5331
uge	-5332
▁tow	-5333
phere	-5334
▁Bur	-5335
▁relative	-5336
Box	-5337
▁disable	-5338
▁URI	-5339
anced	-5340
▁grand	-5341
▁energy	-5342
Decl	-5343
▁Town	-5344
▁reject	-5345
sumer	-5346
osen	-5347
▁nothing	-5348
▁Spec	-5349
▁doesn	-5350
▁signal	-5351
▁Property	-5352
▁mix	-5353
▁Id	-5354
Obj	-5355
▁China	-5356
▁uses	-5357
▁-=	-5358
▁ren	-5359
▁props	-5360
bury	-5361
▁rules	-5362
▁33	-5363
▁majority	-5364
▁touch	-5365
▁tab	-5366
****	-5367
orning	-5368
▁advance	-5369
▁presence	-5370
▁ds	-5371
rea	-5372
Timeout	-5373
▁Order	-5374
▁fiction	-5375
▁veh	-5376
ibly	-5377
itation	-5378
▁mur	-5379
First	-5380
olk	-5381
▁attention	-5382
▁unknown	-5383
ww	-5384
Aut	-5385
▁provider	-5386
▁ranked	-5387
cean	-5388
▁flight	-5389
ils	-5390
▁equal	-5391
▁invol	-5392
▁accepted	-5393
▁Its	-5394
▁trade	-5395
axis	-5396
▁IS	-5397
▁Spe	-5398
▁duration	-5399
nodes	-5400
▁unable	-5401
▁Gl	-5402
ipping	-5403
▁composed	-5404
icient	-5405
comment	-5406
▁village	-5407
IS	-5408
▁tons	-5409
▁hot	-5410
▁shown	-5411
▁Camp	-5412
▁Level	-5413
mask	-5414
astic	-5415
▁Bow	-5416
parameters	-5417
▁Tre	-5418
iest	-5419
▁Center	-5420
▁notes	-5421
▁UT	-5422
▁Carol	-5423
venue	-5424
▁stderr	-5425
Description	-5426
adium	-5427
▁separate	-5428
▁cos	-5429
▁mut	-5430
Create	-5431
▁professional	-5432
▁plt	-5433
▁nature	-5434
▁Canadian	-5435
ifications	-5436
▁attacks	-5437
▁Fore	-5438
▁respectively	-5439
sign	-5440
uries	-5441
▁Mel	-5442
▁share	-5443
▁meet	-5444
aches	-5445
▁damaged	-5446
▁meeting	-5447
▁artist	-5448
ITY	-5449
▁Return	-5450
iginal	-5451
2_	-5452
ository	-5453
▁Africa	-5454
FO	-5455
plet	-5456
▁Open	-5457
icks	-5458
Graph	-5459
▁Year	-5460
▁Ter	-5461
▁ce	-5462
ATA	-5463
Segment	-5464
▁Dev	-5465
▁Rad	-5466
▁distr	-5467
Back	-5468
onna	-5469
▁birth	-5470
▁Central	-5471
ban	-5472
ersist	-5473
▁Rail	-5474
▁prompt	-5475
Sign	-5476
▁shared	-5477
▁revealed	-5478
▁attempted	-5479
▁launched	-5480
ORM	-5481
▁locale	-5482
▁ps	-5483
########	-5484
Files	-5485
chester	-5486
▁Mont	-5487
▁SubElement	-5488
▁slight	-5489
▁actor	-5490
▁Highway	-5491
▁identity	-5492
ttps	-5493
ogle	-5494
yr	-5495
ares	-5496
▁Kn	-5497
▁Russian	-5498
isk	-5499
▁reduced	-5500
▁listed	-5501
▁Van	-5502
Proxy	-5503
ube	-5504
▁Iter	-5505
▁repo	-5506
amily	-5507
Matrix	-5508
▁III	-5509
▁Mur	-5510
▁charg	-5511
ortun	-5512
'"	-5513
▁lookup	-5514
▁scheme	-5515
▁addAll	-5516
▁dot	-5517
Min	-5518
▁produce	-5519
/{	-5520
Change	-5521
▁quality	-5522
▁Task	-5523
▁restr	-5524
ria	-5525
▁1995	-5526
▁numerous	-5527
▁Super	-5528
uplic	-5529
▁safe	-5530
▁Martin	-5531
▁potential	-5532
▁Kent	-5533
▁architect	-5534
▁184	-5535
OP	-5536
AME	-5537
▁inspired	-5538
ServiceResponse	-5539
▁Angeles	-5540
▁recover	-5541
ansion	-5542
graph	-5543
true	-5544
▁TV	-5545
▁lived	-5546
quire	-5547
▁Sun	-5548
▁sales	-5549
▁Francis	-5550
road	-5551
▁2016	-5552
Term	-5553
reme	-5554
▁paths	-5555
ANG	-5556
ble	-5557
aming	-5558
iate	-5559
local	-5560
Len	-5561
Headers	-5562
bin	-5563
unchecked	-5564
▁mission	-5565
▁getString	-5566
lease	-5567
▁Mus	-5568
▁suffix	-5569
▁elem	-5570
▁audience	-5571
job	-5572
Oper	-5573
olic	-5574
▁shift	-5575
ously	-5576
▁ign	-5577
▁Exec	-5578
▁64	-5579
estival	-5580
▁Under	-5581
▁negative	-5582
▁Tel	-5583
▁attacked	-5584
▁combined	-5585
▁prepare	-5586
▁Det	-5587
▁integ	-5588
STAN	-5589
▁calling	-5590
▁referred	-5591
Only	-5592
▁XML	-5593
▁heav	-5594
▁extr	-5595
▁Project	-5596
▁covered	-5597
GET	-5598
vari	-5599
house	-5600
),	-5601
▁rout	-5602
▁behav	-5603
▁Dat	-5604
▁imm	-5605
▁scient	-5606
▁Util	-5607
ocation	-5608
▁analysis	-5609
parser	-5610
▁sen	-5611
▁intersection	-5612
▁1996	-5613
▁Lu	-5614
▁commented	-5615
eces	-5616
▁1950	-5617
▁resulted	-5618
book	-5619
▁Collections	-5620
▁Ev	-5621
▁flush	-5622
▁expect	-5623
dro	-5624
ynamic	-5625
▁More	-5626
Last	-5627
▁Greek	-5628
▁yards	-5629
▁marked	-5630
rial	-5631
aml	-5632
weight	-5633
15	-5634
cell	-5635
▁'/'	-5636
▁elected	-5637
▁variables	-5638
▁Common	-5639
▁Empire	-5640
▁Sir	-5641
▁wall	-5642
▁forms	-5643
▁topic	-5644
handler	-5645
▁Tour	-5646
conds	-5647
ceived	-5648
▁blue	-5649
▁experi	-5650
▁mor	-5651
▁SS	-5652
iant	-5653
▁Series	-5654
erved	-5655
▁amb	-5656
▁Jose	-5657
ighter	-5658
▁legisl	-5659
ND	-5660
▁environ	-5661
iance	-5662
▁foreign	-5663
ESS	-5664
▁Mil	-5665
Could	-5666
PRE	-5667
▁Tur	-5668
▁market	-5669
========	-5670
▁singer	-5671
▁mention	-5672
▁industry	-5673
ota	-5674
▁cer	-5675
▁ult	-5676
▁fname	-5677
▁Penn	-5678
rovers	-5679
Iter	-5680
▁exceptions	-5681
▁"."	-5682
▁Secret	-5683
▁largely	-5684
▁1994	-5685
sembly	-5686
▁demon	-5687
▁corn	-5688
overs	-5689
▁Wood	-5690
▁ability	-5691
▁Italian	-5692
ernel	-5693
claim	-5694
▁Result	-5695
ims	-5696
▁Stream	-5697
▁ded	-5698
req	-5699
▁indices	-5700
▁ending	-5701
asure	-5702
▁draft	-5703
▁uuid	-5704
▁refused	-5705
▁invoke	-5706
▁capacity	-5707
▁talk	-5708
▁meant	-5709
itable	-5710
▁earned	-5711
END	-5712
ACK	-5713
▁friends	-5714
BA	-5715
▁things	-5716
▁Film	-5717
▁reduce	-5718
ingu	-5719
iable	-5720
esh	-5721
Parent	-5722
We	-5723
▁DVD	-5724
▁Corps	-5725
▁traditional	-5726
▁34	-5727
arian	-5728
▁className	-5729
18	-5730
▁nort	-5731
▁giving	-5732
OF	-5733
▁alias	-5734
cas	-5735
rier	-5736
▁needs	-5737
Mon	-5738
90	-5739
QU	-5740
eft	-5741
undred	-5742
▁Ho	-5743
▁Ver	-5744
iled	-5745
▁measure	-5746
▁fix	-5747
▁bank	-5748
bor	-5749
Button	-5750
▁Ol	-5751
▁education	-5752
utive	-5753
▁Context	-5754
Cms	-5755
connect	-5756
triev	-5757
▁sister	-5758
odies	-5759
SC	-5760
aws	-5761
Dict	-5762
▁necessary	-5763
▁Viet	-5764
▁newsp	-5765
bing	-5766
▁requested	-5767
▁Top	-5768
▁Crit	-5769
▁Capt	-5770
▁End	-5771
EM	-5772
▁floor	-5773
▁Team	-5774
▁royal	-5775
▁male	-5776
▁samples	-5777
▁enj	-5778
▁Michigan	-5779
▁books	-5780
▁ts	-5781
aration	-5782
▁dut	-5783
▁Short	-5784
▁details	-5785
helper	-5786
▁officer	-5787
wide	-5788
▁today	-5789
▁38	-5790
▁verify	-5791
agn	-5792
▁CD	-5793
ipe	-5794
▁LA	-5795
ulations	-5796
▁1940	-5797
results	-5798
1_	-5799
▁native	-5800
irmed	-5801
▁depression	-5802
isation	-5803
▁contem	-5804
▁bottom	-5805
▁Pan	-5806
ental	-5807
Schema	-5808
▁reflect	-5809
▁resulting	-5810
▁financ	-5811
▁bits	-5812
▁performances	-5813
Top	-5814
▁Max	-5815
▁Wales	-5816
▁Mass	-5817
iated	-5818
▁tried	-5819
▁Model	-5820
▁Build	-5821
▁competition	-5822
▁Chart	-5823
▁centre	-5824
LS	-5825
LOG	-5826
▁Ott	-5827
▁note	-5828
Control	-5829
▁observed	-5830
ACT	-5831
▁chief	-5832
▁commander	-5833
zone	-5834
▁interval	-5835
▁constructed	-5836
=%	-5837
▁Zeal	-5838
▁sto	-5839
▁Lin	-5840
onom	-5841
▁machine	-5842
pret	-5843
▁abandon	-5844
yles	-5845
▁fighting	-5846
ady	-5847
▁bin	-5848
Comparator	-5849
▁religious	-5850
▁Cath	-5851
▁serious	-5852
char	-5853
▁Job	-5854
okens	-5855
▁Care	-5856
▁theat	-5857
vm	-5858
evelop	-5859
▁attempts	-5860
FILE	-5861
▁meaning	-5862
▁rapid	-5863
cal	-5864
sets	-5865
▁NOT	-5866
▁Dom	-5867
ACE	-5868
▁launch	-5869
▁Init	-5870
▁Function	-5871
▁indic	-5872
▁propos	-5873
oes	-5874
Ind	-5875
utch	-5876
▁Sum	-5877
▁Acad	-5878
▁email	-5879
▁wild	-5880
▁expr	-5881
ulk	-5882
▁Wal	-5883
▁dropped	-5884
▁ones	-5885
▁Image	-5886
▁distinct	-5887
Att	-5888
▁setup	-5889
▁termin	-5890
sole	-5891
33	-5892
▁legal	-5893
system	-5894
▁district	-5895
▁focus	-5896
▁zero	-5897
antasy	-5898
▁adopt	-5899
NotNull	-5900
meta	-5901
▁retry	-5902
▁driver	-5903
▁movie	-5904
Nodes	-5905
▁experiment	-5906
▁Tree	-5907
straints	-5908
▁nucle	-5909
▁factor	-5910
▁Four	-5911
FL	-5912
▁Major	-5913
eatures	-5914
▁Several	-5915
▁promin	-5916
▁Aut	-5917
▁enter	-5918
▁inputs	-5919
matrix	-5920
▁vocals	-5921
ERROR	-5922
estination	-5923
▁Minister	-5924
Api	-5925
▁Commit	-5926
▁StringUtils	-5927
▁Wind	-5928
YPE	-5929
▁roles	-5930
▁1992	-5931
cli	-5932
pressed	-5933
access	-5934
nel	-5935
PTION	-5936
▁protect	-5937
▁Messages	-5938
miral	-5939
▁Av	-5940
▁piece	-5941
Cannot	-5942
▁forest	-5943
▁bundle	-5944
br	-5945
actor	-5946
▁Arrays	-5947
STR	-5948
▁metal	-5949
qual	-5950
▁nearby	-5951
option	-5952
▁annual	-5953
▁"<	-5954
▁Fox	-5955
▁Inv	-5956
▁thick	-5957
ona	-5958
standing	-5959
inger	-5960
▁answ	-5961
▁capture	-5962
▁trial	-5963
▁constant	-5964
Identifier	-5965
sm	-5966
▁suc	-5967
Perm	-5968
000	-5969
▁highly	-5970
▁layout	-5971
GN	-5972
etry	-5973
▁susp	-5974
conn	-5975
▁practice	-5976
IgnoreCase	-5977
Double	-5978
headers	-5979
▁journal	-5980
rolled	-5981
▁horse	-5982
ishop	-5983
osh	-5984
pository	-5985
▁Tw	-5986
▁recomm	-5987
▁edition	-5988
▁Color	-5989
▁presented	-5990
ym	-5991
▁pull	-5992
inder	-5993
sn	-5994
za	-5995
▁ring	-5996
Search	-5997
prise	-5998
▁kept	-5999
▁trying	-6000
▁AL	-6001
▁images	-6002
osing	-6003
▁Bec	-6004
faces	-6005
-8'	-6006
▁Ox	-6007
iling	-6008
▁identifier	-6009
rical	-6010
))	-6011
▁sevent	-6012
▁drum	-6013
▁sin	-6014
▁Zealand	-6015
▁PRO	-6016
▁{}'	-6017
▁green	-6018
ertificate	-6019
ntax	-6020
ients	-6021
▁Kenn	-6022
Such	-6023
▁visited	-6024
▁containsKey	-6025
▁Nullable	-6026
udget	-6027
▁bal	-6028
▁trigger	-6029
(...	-6030
▁Parse	-6031
▁returns	-6032
Scope	-6033
▁appl	-6034
OUR	-6035
▁dra	-6036
▁organization	-6037
SET	-6038
CK	-6039
▁fp	-6040
ounded	-6041
▁Bre	-6042
▁combat	-6043
▁Mexico	-6044
▁Cross	-6045
rong	-6046
▁fra	-6047
▁African	-6048
▁adult	-6049
▁scan	-6050
▁exact	-6051
resources	-6052
▁Table	-6053
▁controvers	-6054
urnament	-6055
SIZE	-6056
▁Haw	-6057
▁bom	-6058
Integer	-6059
ider	-6060
▁attended	-6061
▁mechan	-6062
▁offer	-6063
ieut	-6064
▁Democr	-6065
abs	-6066
▁1930	-6067
▁Chris	-6068
▁wor	-6069
▁Only	-6070
▁spir	-6071
▁poll	-6072
▁phase	-6073
rip	-6074
element	-6075
ifying	-6076
Vector	-6077
▁Connection	-6078
▁occasion	-6079
▁CP	-6080
oles	-6081
Resources	-6082
▁twenty	-6083
ien	-6084
▁1993	-6085
Current	-6086
▁enjoy	-6087
iding	-6088
▁deliv	-6089
▁rare	-6090
▁stating	-6091
Pass	-6092
▁Er	-6093
▁hex	-6094
▁Madonna	-6095
▁1991	-6096
▁curr	-6097
▁beat	-6098
▁Text	-6099
▁49	-6100
umes	-6101
labels	-6102
ordinate	-6103
▁tile	-6104
exec	-6105
▁Calendar	-6106
▁Bad	-6107
▁Matt	-6108
▁click	-6109
▁"{}	-6110
allow	-6111
TR	-6112
▁fmt	-6113
leton	-6114
▁deleg	-6115
▁begins	-6116
next	-6117
arrow	-6118
▁addr	-6119
▁compress	-6120
after	-6121
▁occur	-6122
▁recent	-6123
▁responsible	-6124
▁Ann	-6125
▁instrument	-6126
▁Name	-6127
eries	-6128
▁Scotland	-6129
▁compile	-6130
▁bond	-6131
Results	-6132
▁attract	-6133
▁Bob	-6134
methods	-6135
aud	-6136
▁Jones	-6137
▁Channel	-6138
▁onto	-6139
▁returning	-6140
▁card	-6141
▁"--	-6142
▁ele	-6143
▁Token	-6144
Layout	-6145
inson	-6146
▁variant	-6147
:%	-6148
▁execution	-6149
▁Their	-6150
▁definition	-6151
fully	-6152
▁HTTP	-6153
atures	-6154
Cre	-6155
▁SI	-6156
istory	-6157
▁schools	-6158
ini	-6159
▁contents	-6160
▁pid	-6161
imitive	-6162
▁fs	-6163
ledge	-6164
▁describe	-6165
layer	-6166
▁NoSuch	-6167
▁Commerce	-6168
send	-6169
▁degree	-6170
the	-6171
timeout	-6172
▁pitch	-6173
▁Department	-6174
▁bra	-6175
▁becomes	-6176
PL	-6177
Inv	-6178
▁'{	-6179
▁efforts	-6180
▁marriage	-6181
▁2.	-6182
▁Buffered	-6183
▁Three	-6184
Args	-6185
▁pal	-6186
illery	-6187
▁sides	-6188
▁college	-6189
▁Foot	-6190
▁weights	-6191
ker	-6192
ART	-6193
▁showed	-6194
seq	-6195
ira	-6196
losed	-6197
▁ER	-6198
cor	-6199
▁fully	-6200
▁incorpor	-6201
under	-6202
quar	-6203
▁Stan	-6204
▁folder	-6205
▁scoring	-6206
▁receive	-6207
▁purs	-6208
▁Bas	-6209
▁science	-6210
▁creating	-6211
ieutenant	-6212
description	-6213
roid	-6214
▁owned	-6215
FIX	-6216
ateway	-6217
▁Infantry	-6218
▁writers	-6219
▁currently	-6220
▁Creek	-6221
▁connected	-6222
▁Records	-6223
isf	-6224
▁culture	-6225
▁lang	-6226
▁Book	-6227
▁traffic	-6228
opts	-6229
▁morning	-6230
▁variety	-6231
▁Simpson	-6232
▁inches	-6233
▁cyclone	-6234
Write	-6235
▁Bost	-6236
▁houses	-6237
uan	-6238
▁continues	-6239
▁allowing	-6240
▁Api	-6241
▁coach	-6242
▁updated	-6243
▁Because	-6244
ucture	-6245
▁48	-6246
▁Parl	-6247
▁approach	-6248
peror	-6249
▁Stone	-6250
▁contrast	-6251
(...)"	-6252
thel	-6253
▁cerem	-6254
▁charge	-6255
VI	-6256
▁championship	-6257
▁ec	-6258
▁exclude	-6259
▁independent	-6260
▁Conf	-6261
▁Williams	-6262
▁wrap	-6263
▁schol	-6264
ublish	-6265
imer	-6266
▁arrest	-6267
▁retriev	-6268
Co	-6269
usion	-6270
▁Before	-6271
▁Fin	-6272
▁Pop	-6273
▁Oper	-6274
22	-6275
▁binary	-6276
▁portion	-6277
avig	-6278
▁yard	-6279
▁physical	-6280
Eng	-6281
lan	-6282
▁pieces	-6283
▁wave	-6284
▁hundred	-6285
Over	-6286
▁Hung	-6287
▁News	-6288
ULL	-6289
▁oil	-6290
vironment	-6291
▁parallel	-6292
stone	-6293
▁squadron	-6294
▁economic	-6295
▁sense	-6296
▁thing	-6297
ita	-6298
▁components	-6299
▁Parliament	-6300
▁basic	-6301
▁blood	-6302
▁expos	-6303
▁Update	-6304
▁65	-6305
olid	-6306
ushed	-6307
come	-6308
manager	-6309
▁Client	-6310
1'	-6311
Socket	-6312
where	-6313
▁du	-6314
▁ids	-6315
▁wrapper	-6316
▁transferred	-6317
▁determine	-6318
▁47	-6319
▁strength	-6320
▁concat	-6321
▁mind	-6322
full	-6323
▁Att	-6324
▁delay	-6325
ston	-6326
Inst	-6327
illa	-6328
▁Games	-6329
▁attend	-6330
onic	-6331
ayload	-6332
gypt	-6333
▁cached	-6334
thur	-6335
▁conducted	-6336
▁io	-6337
▁entrySet	-6338
▁dance	-6339
▁Sat	-6340
▁webs	-6341
▁strugg	-6342
▁situation	-6343
▁viewers	-6344
▁completely	-6345
▁rating	-6346
OS	-6347
▁aspect	-6348
NG	-6349
▁span	-6350
▁instit	-6351
▁Society	-6352
card	-6353
▁Egypt	-6354
▁angle	-6355
▁Cap	-6356
structor	-6357
▁Ell	-6358
▁expanded	-6359
▁1942	-6360
▁dump	-6361
▁Like	-6362
iration	-6363
Msg	-6364
case	-6365
▁collabor	-6366
ailure	-6367
▁metres	-6368
▁cancel	-6369
fect	-6370
▁Wall	-6371
▁Latin	-6372
▁cells	-6373
Exp	-6374
▁era	-6375
▁wing	-6376
clusion	-6377
▁Southern	-6378
▁clim	-6379
▁rough	-6380
▁Simple	-6381
▁cit	-6382
▁exhib	-6383
▁Men	-6384
▁auto	-6385
▁founded	-6386
▁lot	-6387
▁subsequent	-6388
rev	-6389
cers	-6390
▁cfg	-6391
▁passing	-6392
▁Gar	-6393
▁dise	-6394
▁export	-6395
13	-6396
▁chosen	-6397
▁Committee	-6398
cks	-6399
▁Oh	-6400
▁doing	-6401
▁Prince	-6402
▁Local	-6403
▁slightly	-6404
connection	-6405
▁Beat	-6406
ixel	-6407
while	-6408
▁Stephen	-6409
▁Bus	-6410
ying	-6411
clusive	-6412
▁AttributeError	-6413
▁warnings	-6414
▁Clark	-6415
▁aggreg	-6416
exception	-6417
▁installed	-6418
OUT	-6419
▁Auth	-6420
▁Sil	-6421
▁Tag	-6422
▁conflict	-6423
▁ess	-6424
▁transfer	-6425
▁peaked	-6426
ya	-6427
▁relatively	-6428
▁enemy	-6429
▁Oxford	-6430
▁edges	-6431
more	-6432
▁serve	-6433
▁stories	-6434
logger	-6435
▁creation	-6436
▁captain	-6437
▁Stand	-6438
▁Constants	-6439
awn	-6440
▁otherwise	-6441
▁consec	-6442
▁correspon	-6443
▁sqrt	-6444
▁Admiral	-6445
▁upgr	-6446
▁converted	-6447
▁dialog	-6448
▁inch	-6449
▁Den	-6450
▁Georg	-6451
▁Hor	-6452
▁concent	-6453
▁Kh	-6454
▁castle	-6455
▁basis	-6456
▁pkg	-6457
▁Show	-6458
▁Chief	-6459
▁Bridge	-6460
ellig	-6461
▁vocal	-6462
▁filters	-6463
▁iv	-6464
▁concluded	-6465
▁older	-6466
▁primarily	-6467
▁md	-6468
▁Po	-6469
▁Week	-6470
▁containing	-6471
▁divided	-6472
cript	-6473
▁Joseph	-6474
▁modified	-6475
▁psy	-6476
▁Histor	-6477
▁demonstr	-6478
▁successfully	-6479
▁Boston	-6480
etic	-6481
▁moment	-6482
iced	-6483
▁150	-6484
▁Ma	-6485
▁opportun	-6486
▁IP	-6487
LOW	-6488
sk	-6489
▁saf	-6490
▁financial	-6491
▁Manchester	-6492
▁lic	-6493
▁buff	-6494
▁paid	-6495
▁Swed	-6496
▁bases	-6497
▁targets	-6498
▁Harrison	-6499
▁getResource	-6500
SER	-6501
▁federal	-6502
Feature	-6503
Generator	-6504
▁animals	-6505
▁AD	-6506
▁Media	-6507
▁titled	-6508
Conn	-6509
▁gas	-6510
anes	-6511
Down	-6512
aked	-6513
▁calls	-6514
▁soft	-6515
▁SQLException	-6516
▁Captain	-6517
▁Mr	-6518
▁mel	-6519
ifest	-6520
▁Camb	-6521
▁sens	-6522
Extension	-6523
▁systems	-6524
▁Hurricane	-6525
zer	-6526
▁lb	-6527
▁Light	-6528
▁View	-6529
las	-6530
tags	-6531
▁reception	-6532
cut	-6533
▁minimum	-6534
▁dimension	-6535
14	-6536
▁ir	-6537
ega	-6538
writ	-6539
▁39	-6540
▁Character	-6541
▁featuring	-6542
udd	-6543
▁Record	-6544
STANCE	-6545
▁upload	-6546
gon	-6547
▁Tro	-6548
▁imag	-6549
Sp	-6550
ORD	-6551
CS	-6552
▁1944	-6553
▁acting	-6554
oto	-6555
PATH	-6556
▁workers	-6557
▁55	-6558
inations	-6559
[0	-6560
▁Hal	-6561
ancy	-6562
▁library	-6563
TIME	-6564
pred	-6565
▁API	-6566
▁mac	-6567
▁::	-6568
▁Jeff	-6569
▁Document	-6570
▁weaken	-6571
delete	-6572
▁companies	-6573
apes	-6574
cons	-6575
Handle	-6576
groups	-6577
▁premi	-6578
▁weather	-6579
mond	-6580
▁mis	-6581
▁Commission	-6582
▁MD	-6583
▁reading	-6584
▁Default	-6585
▁Battalion	-6586
erman	-6587
lat	-6588
▁operator	-6589
▁Fred	-6590
record	-6591
ada	-6592
▁plays	-6593
▁trees	-6594
▁enable	-6595
▁chem	-6596
▁catalog	-6597
ogram	-6598
▁simply	-6599
▁eth	-6600
oting	-6601
▁sets	-6602
▁iron	-6603
▁selling	-6604
ClassName	-6605
perial	-6606
Bundle	-6607
password	-6608
▁Brad	-6609
▁Life	-6610
▁Way	-6611
▁Paris	-6612
▁burn	-6613
Engine	-6614
▁registry	-6615
▁Dec	-6616
stats	-6617
▁contained	-6618
▁affected	-6619
▁broke	-6620
▁Nonnull	-6621
▁locations	-6622
▁batter	-6623
bon	-6624
▁innings	-6625
▁nd	-6626
1}	-6627
▁Sar	-6628
StackTrace	-6629
phy	-6630
▁waters	-6631
▁Columb	-6632
wall	-6633
▁partial	-6634
addr	-6635
ipher	-6636
▁boy	-6637
▁enabled	-6638
▁torped	-6639
olec	-6640
▁poem	-6641
▁says	-6642
itness	-6643
ih	-6644
▁explo	-6645
▁persist	-6646
ordinates	-6647
▁pad	-6648
Notification	-6649
▁BBC	-6650
thlet	-6651
▁student	-6652
▁ultimately	-6653
▁spect	-6654
▁spread	-6655
ipment	-6656
▁Writ	-6657
anna	-6658
▁thous	-6659
▁designated	-6660
▁pyl	-6661
▁sought	-6662
▁Fre	-6663
▁Action	-6664
▁alleg	-6665
▁benef	-6666
▁ice	-6667
isters	-6668
script	-6669
iform	-6670
▁confirmed	-6671
▁Croat	-6672
Java	-6673
ples	-6674
▁Main	-6675
Desc	-6676
▁distribution	-6677
▁mainly	-6678
itan	-6679
▁1920	-6680
▁Entertain	-6681
la	-6682
ufact	-6683
▁nation	-6684
▁rein	-6685
▁pri	-6686
zy	-6687
ionary	-6688
olf	-6689
ooth	-6690
▁Now	-6691
usband	-6692
▁Academy	-6693
inner	-6694
▁calculate	-6695
):	-6696
▁1945	-6697
▁authority	-6698
▁replacement	-6699
ican	-6700
▁news	-6701
rees	-6702
▁artists	-6703
▁society	-6704
ategories	-6705
▁winter	-6706
Wh	-6707
hape	-6708
usted	-6709
Module	-6710
▁initialize	-6711
ses	-6712
▁coming	-6713
▁Imm	-6714
▁Tod	-6715
▁1941	-6716
▁Museum	-6717
▁vess	-6718
▁42	-6719
FA	-6720
itter	-6721
ONE	-6722
▁44	-6723
▁bed	-6724
▁exchange	-6725
▁theory	-6726
▁clone	-6727
▁Little	-6728
Zone	-6729
▁Bat	-6730
unnel	-6731
▁sout	-6732
▁struck	-6733
▁schedule	-6734
▁encounter	-6735
▁officials	-6736
Pair	-6737
hem	-6738
▁tradition	-6739
▁influenced	-6740
▁negot	-6741
▁resc	-6742
▁glob	-6743
▁crow	-6744
inity	-6745
egin	-6746
▁powerful	-6747
▁vector	-6748
azon	-6749
▁Production	-6750
▁identified	-6751
Idx	-6752
▁Arab	-6753
Av	-6754
▁ahead	-6755
▁northeast	-6756
▁alongside	-6757
▁sep	-6758
▁promoted	-6759
▁Saint	-6760
▁Spr	-6761
ylvan	-6762
Adapter	-6763
core	-6764
▁eg	-6765
▁Italy	-6766
▁Entertainment	-6767
sequence	-6768
ws	-6769
limit	-6770
pattern	-6771
▁registered	-6772
HL	-6773
▁didn	-6774
▁pict	-6775
▁matter	-6776
Xml	-6777
Cond	-6778
Window	-6779
▁Fleet	-6780
▁Commun	-6781
▁article	-6782
▁reaching	-6783
▁extensions	-6784
▁stay	-6785
▁math	-6786
▁pret	-6787
▁fle	-6788
Items	-6789
iverse	-6790
XML	-6791
istrict	-6792
▁Inst	-6793
▁Americans	-6794
▁claims	-6795
▁greatest	-6796
▁explained	-6797
▁battleship	-6798
▁represented	-6799
properties	-6800
▁Live	-6801
▁causing	-6802
▁twice	-6803
gu	-6804
▁nominated	-6805
▁thir	-6806
▁gained	-6807
▁Brigade	-6808
▁ok	-6809
▁albums	-6810
▁comes	-6811
▁gar	-6812
▁anything	-6813
▁Som	-6814
jo	-6815
▁Rog	-6816
▁encour	-6817
▁Lee	-6818
▁Ray	-6819
▁decre	-6820
▁dumps	-6821
dist	-6822
▁Direct	-6823
▁TR	-6824
▁font	-6825
▁Configuration	-6826
iano	-6827
otype	-6828
▁electric	-6829
mos	-6830
▁widely	-6831
▁cloud	-6832
▁effective	-6833
▁proper	-6834
quarters	-6835
adel	-6836
▁rect	-6837
▁permission	-6838
▁Regiment	-6839
▁generated	-6840
gers	-6841
▁scheduled	-6842
▁Ire	-6843
Registry	-6844
▁naval	-6845
▁doub	-6846
▁reports	-6847
ighth	-6848
settings	-6849
▁ifc	-6850
▁Cam	-6851
▁husband	-6852
aga	-6853
▁TYPE	-6854
▁dirname	-6855
▁proved	-6856
▁ple	-6857
▁Ireland	-6858
▁proc	-6859
Processor	-6860
▁Avenue	-6861
Ph	-6862
Widget	-6863
zen	-6864
▁weak	-6865
argin	-6866
▁sites	-6867
Cal	-6868
▁budget	-6869
▁expressed	-6870
▁invasion	-6871
thread	-6872
▁promotion	-6873
▁kg	-6874
▁risk	-6875
▁peace	-6876
▁orders	-6877
▁county	-6878
▁radius	-6879
recated	-6880
▁therefore	-6881
▁mig	-6882
▁leaves	-6883
▁autom	-6884
▁getAttribute	-6885
▁sections	-6886
salt	-6887
iro	-6888
▁sixth	-6889
▁1989	-6890
mplement	-6891
▁regex	-6892
cker	-6893
▁dry	-6894
▁outer	-6895
▁shortly	-6896
CP	-6897
▁normalize	-6898
oolean	-6899
▁apparent	-6900
▁compat	-6901
lam	-6902
▁cities	-6903
▁references	-6904
batch	-6905
▁Entity	-6906
HT	-6907
▁northwest	-6908
phas	-6909
▁maintain	-6910
▁relation	-6911
▁Arm	-6912
▁defense	-6913
seg	-6914
pk	-6915
▁alone	-6916
>'	-6917
JSON	-6918
▁1943	-6919
AND	-6920
▁Read	-6921
▁MP	-6922
unit	-6923
▁principal	-6924
▁yang	-6925
▁supply	-6926
▁sust	-6927
▁quant	-6928
▁button	-6929
▁encoded	-6930
True	-6931
edge	-6932
▁Linked	-6933
▁eye	-6934
▁reaction	-6935
▁Good	-6936
▁paint	-6937
▁consumer	-6938
▁favour	-6939
zip	-6940
▁echo	-6941
▁Victoria	-6942
dered	-6943
break	-6944
▁tells	-6945
profile	-6946
▁swe	-6947
▁guest	-6948
NOT	-6949
iny	-6950
Decimal	-6951
Network	-6952
▁nin	-6953
/%	-6954
room	-6955
network	-6956
▁tasks	-6957
▁residents	-6958
▁subprocess	-6959
▁transition	-6960
adow	-6961
▁Hard	-6962
vious	-6963
▁Catholic	-6964
▁Iterable	-6965
▁activities	-6966
▁soundtrack	-6967
▁appearances	-6968
▁Tropical	-6969
ester	-6970
▁seasons	-6971
▁endswith	-6972
Columns	-6973
▁prepar	-6974
▁StringBuffer	-6975
Vari	-6976
▁pilot	-6977
▁Sol	-6978
▁getE	-6979
▁pit	-6980
▁guard	-6981
▁hands	-6982
▁Mat	-6983
cher	-6984
▁Charl	-6985
▁stmt	-6986
▁fixed	-6987
oration	-6988
Cluster	-6989
▁Land	-6990
▁EX	-6991
▁Through	-6992
▁Hy	-6993
▁summary	-6994
Encoding	-6995
▁getParent	-6996
▁worker	-6997
ba	-6998
▁sexual	-6999
▁gene	-7000
▁Though	-7001
inem	-7002
▁bounds	-7003
▁Sant	-7004
▁vote	-7005
▁hospital	-7006
('	-7007
TV	-7008
ilies	-7009
▁Row	-7010
▁icon	-7011
▁Each	-7012
▁Boy	-7013
ARN	-7014
▁earth	-7015
▁exped	-7016
▁Vector	-7017
oom	-7018
grid	-7019
▁Public	-7020
▁adding	-7021
onical	-7022
▁600	-7023
utils	-7024
schema	-7025
oved	-7026
▁Gen	-7027
▁fired	-7028
▁weapons	-7029
policy	-7030
Web	-7031
▁figures	-7032
▁Gal	-7033
▁farm	-7034
icip	-7035
▁"[	-7036
look	-7037
▁speech	-7038
▁artillery	-7039
coming	-7040
▁Valley	-7041
▁studies	-7042
▁passes	-7043
▁Norm	-7044
▁growth	-7045
fin	-7046
▁Card	-7047
▁equipment	-7048
19	-7049
▁Upon	-7050
▁Football	-7051
▁stations	-7052
missions	-7053
Bound	-7054
▁newly	-7055
▁heavily	-7056
▁Ry	-7057
▁fa	-7058
WE	-7059
evelopment	-7060
▁looking	-7061
▁"{	-7062
UND	-7063
uman	-7064
common	-7065
▁trib	-7066
irs	-7067
orses	-7068
▁laws	-7069
▁blocks	-7070
▁52	-7071
ylvania	-7072
▁Bond	-7073
ca	-7074
▁Dutch	-7075
▁reply	-7076
eway	-7077
▁Content	-7078
long	-7079
▁officially	-7080
RES	-7081
▁Young	-7082
▁stone	-7083
▁paper	-7084
▁external	-7085
▁exam	-7086
abeth	-7087
▁interpret	-7088
▁Tay	-7089
▁Person	-7090
▁getField	-7091
ronic	-7092
dig	-7093
▁vm	-7094
▁Bey	-7095
▁follows	-7096
▁Background	-7097
▁mo	-7098
see	-7099
▁caught	-7100
▁executive	-7101
Endpoint	-7102
▁Any	-7103
▁Storm	-7104
Pointer	-7105
▁Server	-7106
▁assign	-7107
remove	-7108
vars	-7109
▁Ste	-7110
▁Eliz	-7111
▁severe	-7112
▁debuted	-7113
▁kilomet	-7114
▁teach	-7115
▁prominent	-7116
▁elim	-7117
▁consisted	-7118
Lower	-7119
▁broken	-7120
▁regions	-7121
usters	-7122
▁aired	-7123
▁injury	-7124
▁FA	-7125
ersed	-7126
▁unicode	-7127
▁Guard	-7128
▁defend	-7129
▁HashSet	-7130
dev	-7131
▁Mean	-7132
▁46	-7133
cles	-7134
▁argued	-7135
ano	-7136
▁strings	-7137
▁accident	-7138
▁Void	-7139
▁OS	-7140
▁Head	-7141
▁possibly	-7142
▁separator	-7143
eller	-7144
▁leaders	-7145
▁optim	-7146
▁widget	-7147
ectors	-7148
ockey	-7149
▁functions	-7150
▁183	-7151
▁Rom	-7152
▁repository	-7153
stop	-7154
▁Civil	-7155
▁Daniel	-7156
▁Ill	-7157
▁laid	-7158
rick	-7159
redicate	-7160
▁consecutive	-7161
▁Homer	-7162
▁Match	-7163
▁colors	-7164
emic	-7165
Summary	-7166
Station	-7167
▁tournament	-7168
▁maintained	-7169
▁contemporary	-7170
▁repeated	-7171
▁43	-7172
▁Network	-7173
▁lon	-7174
FIG	-7175
scale	-7176
ervices	-7177
▁drive	-7178
ras	-7179
▁hers	-7180
▁couple	-7181
▁Constant	-7182
▁management	-7183
ods	-7184
▁habit	-7185
▁Ram	-7186
cls	-7187
amber	-7188
▁drug	-7189
rim	-7190
▁fd	-7191
▁Jon	-7192
▁Liber	-7193
▁Northern	-7194
▁doll	-7195
▁getting	-7196
Op	-7197
▁Pass	-7198
▁','	-7199
▁Also	-7200
▁Security	-7201
ickets	-7202
▁featureID	-7203
▁Ty	-7204
ruit	-7205
▁What	-7206
Converter	-7207
arden	-7208
▁solution	-7209
▁territory	-7210
▁Dam	-7211
nam	-7212
▁price	-7213
▁methodName	-7214
Profile	-7215
▁advanced	-7216
imiter	-7217
▁dates	-7218
Holder	-7219
▁Ap	-7220
▁nb	-7221
alar	-7222
▁singles	-7223
▁District	-7224
Post	-7225
Storage	-7226
OST	-7227
▁Process	-7228
▁prepared	-7229
real	-7230
▁179	-7231
▁geometry	-7232
▁secondary	-7233
Space	-7234
▁Home	-7235
▁treatment	-7236
▁projects	-7237
strip	-7238
▁settlement	-7239
Cell	-7240
▁views	-7241
riend	-7242
▁getPath	-7243
▁criticized	-7244
Chain	-7245
▁formatter	-7246
▁prote	-7247
▁saved	-7248
ima	-7249
▁expansion	-7250
Script	-7251
▁remark	-7252
▁dog	-7253
parts	-7254
▁ctypes	-7255
▁toward	-7256
pton	-7257
▁HttpServlet	-7258
▁formation	-7259
erry	-7260
itors	-7261
▁Carolina	-7262
▁requires	-7263
interface	-7264
▁Us	-7265
▁packet	-7266
osaur	-7267
▁citiz	-7268
Delete	-7269
Sl	-7270
Cap	-7271
Step	-7272
▁reign	-7273
kin	-7274
▁Corn	-7275
inate	-7276
Interval	-7277
▁contrib	-7278
▁Government	-7279
Own	-7280
left	-7281
onym	-7282
▁vo	-7283
olume	-7284
andy	-7285
▁Of	-7286
Groups	-7287
ancing	-7288
.2	-7289
▁threshold	-7290
▁surrounding	-7291
elve	-7292
02	-7293
iments	-7294
intend	-7295
FS	-7296
▁tz	-7297
▁senior	-7298
▁Scottish	-7299
Assign	-7300
ropri	-7301
▁medical	-7302
▁typically	-7303
▁digest	-7304
▁why	-7305
ELD	-7306
▁1987	-7307
▁ready	-7308
▁bass	-7309
▁fileName	-7310
▁manufact	-7311
▁resolved	-7312
ircle	-7313
▁surre	-7314
▁mob	-7315
▁worldwide	-7316
▁reform	-7317
▁1988	-7318
▁alloc	-7319
▁NonNull	-7320
vement	-7321
▁dress	-7322
▁birds	-7323
eph	-7324
▁website	-7325
kins	-7326
▁Fantasy	-7327
▁Colon	-7328
▁Ocean	-7329
▁matching	-7330
▁'__	-7331
▁visible	-7332
▁perman	-7333
▁agreement	-7334
▁frequently	-7335
▁Cy	-7336
▁Governor	-7337
▁bey	-7338
▁Duke	-7339
▁Holly	-7340
▁ssl	-7341
asket	-7342
▁diam	-7343
▁rom	-7344
▁Jud	-7345
▁fan	-7346
▁murder	-7347
ivalent	-7348
▁historian	-7349
▁multip	-7350
ease	-7351
atches	-7352
▁actors	-7353
spect	-7354
ted	-7355
▁wrong	-7356
Vert	-7357
▁serving	-7358
▁users	-7359
._	-7360
oured	-7361
▁newInstance	-7362
▁Penns	-7363
▁stra	-7364
Mapper	-7365
▁artifact	-7366
arp	-7367
▁beyond	-7368
▁rainfall	-7369
▁temperature	-7370
\'	-7371
▁opin	-7372
Left	-7373
▁Sur	-7374
▁Descri	-7375
▁rejected	-7376
▁university	-7377
▁login	-7378
issing	-7379
▁reshape	-7380
.1	-7381
writer	-7382
▁governor	-7383
▁priv	-7384
account	-7385
first	-7386
▁everything	-7387
▁Gro	-7388
▁hook	-7389
ampion	-7390
▁planet	-7391
Bounds	-7392
▁Make	-7393
find	-7394
ByComparator	-7395
debug	-7396
▁arrang	-7397
▁pm	-7398
▁Studios	-7399
▁Polish	-7400
▁Xml	-7401
Executor	-7402
▁operated	-7403
JECT	-7404
rael	-7405
▁Girl	-7406
▁analy	-7407
has	-7408
orne	-7409
▁hparams	-7410
▁walls	-7411
▁argv	-7412
DC	-7413
rant	-7414
Dom	-7415
▁Senate	-7416
▁alter	-7417
▁coal	-7418
▁segments	-7419
▁Eastern	-7420
▁Gil	-7421
lik	-7422
style	-7423
Bl	-7424
▁billion	-7425
ALL	-7426
▁faced	-7427
▁convention	-7428
directory	-7429
ango	-7430
▁Blue	-7431
▁Assert	-7432
▁union	-7433
▁places	-7434
▁","	-7435
▁Lew	-7436
▁loads	-7437
▁spring	-7438
crete	-7439
initions	-7440
▁grew	-7441
▁cb	-7442
changes	-7443
▁Castle	-7444
▁emphas	-7445
▁producers	-7446
▁repr	-7447
▁Sound	-7448
▁Andrew	-7449
BS	-7450
ani	-7451
▁inject	-7452
▁visual	-7453
▁getData	-7454
timestamp	-7455
▁chose	-7456
Locale	-7457
▁opposed	-7458
▁inher	-7459
▁obs	-7460
▁beta	-7461
▁Wilson	-7462
▁strict	-7463
▁accompan	-7464
Tags	-7465
▁lives	-7466
▁priority	-7467
BUG	-7468
▁Jac	-7469
▁hyp	-7470
▁fuel	-7471
▁herself	-7472
▁Christmas	-7473
▁vs	-7474
▁purpose	-7475
▁candidates	-7476
▁fair	-7477
▁lab	-7478
▁loader	-7479
scape	-7480
outs	-7481
archy	-7482
▁wounded	-7483
▁advant	-7484
▁nick	-7485
▁Allied	-7486
rich	-7487
▁Parameter	-7488
▁CL	-7489
Agent	-7490
apsed	-7491
▁slice	-7492
▁Java	-7493
▁monitor	-7494
▁CO	-7495
ruptedException	-7496
▁Night	-7497
▁cols	-7498
▁individuals	-7499
▁disease	-7500
ala	-7501
Attr	-7502
▁Taylor	-7503
LECT	-7504
▁currentTime	-7505
▁INSTANCE	-7506
Can	-7507
▁railway	-7508
apers	-7509
▁brown	-7510
ricult	-7511
▁SR	-7512
▁growing	-7513
ugins	-7514
▁anch	-7515
▁arms	-7516
▁assault	-7517
Transform	-7518
join	-7519
17	-7520
icies	-7521
▁getDefault	-7522
tle	-7523
▁1986	-7524
▁oppon	-7525
▁dismiss	-7526
▁intensity	-7527
▁strategy	-7528
enu	-7529
▁Square	-7530
▁Elizabeth	-7531
dep	-7532
▁BC	-7533
▁Gre	-7534
▁Bart	-7535
▁Alexander	-7536
▁losing	-7537
▁strike	-7538
▁belong	-7539
Open	-7540
▁phil	-7541
▁historical	-7542
bsolute	-7543
▁incident	-7544
▁isn	-7545
▁Status	-7546
Security	-7547
ners	-7548
proxy	-7549
▁Ros	-7550
Folder	-7551
▁coords	-7552
▁fellow	-7553
Red	-7554
▁'<	-7555
▁ha	-7556
▁97	-7557
▁titles	-7558
QUE	-7559
eld	-7560
▁casual	-7561
▁participated	-7562
Mark	-7563
▁Broad	-7564
▁Middle	-7565
mean	-7566
▁pipeline	-7567
▁granted	-7568
Member	-7569
term	-7570
▁hits	-7571
▁gives	-7572
▁basename	-7573
ilation	-7574
▁refresh	-7575
IF	-7576
ucky	-7577
▁remainder	-7578
▁overl	-7579
rase	-7580
▁adopted	-7581
Device	-7582
Role	-7583
haps	-7584
▁Luc	-7585
▁Wild	-7586
▁Joe	-7587
▁heard	-7588
Conf	-7589
▁offensive	-7590
▁RuntimeError	-7591
▁san	-7592
▁layers	-7593
▁asc	-7594
Children	-7595
▁nit	-7596
device	-7597
▁Festival	-7598
▁abandoned	-7599
▁honor	-7600
▁filming	-7601
▁Further	-7602
▁difference	-7603
▁bodies	-7604
cur	-7605
register	-7606
▁acquired	-7607
▁narrow	-7608
▁Pennsylvania	-7609
▁Rod	-7610
▁council	-7611
This	-7612
▁fresh	-7613
▁Mov	-7614
▁spirit	-7615
▁controller	-7616
▁determined	-7617
Consumer	-7618
cat	-7619
MA	-7620
▁Islands	-7621
▁none	-7622
▁orient	-7623
▁Special	-7624
API	-7625
Chars	-7626
▁Annotation	-7627
▁177	-7628
▁cms	-7629
▁120	-7630
▁newspaper	-7631
Unknown	-7632
ić	-7633
▁Reception	-7634
Namespace	-7635
▁horses	-7636
ny	-7637
▁steam	-7638
vas	-7639
▁opposition	-7640
▁Cre	-7641
Database	-7642
▁tell	-7643
gest	-7644
▁ack	-7645
▁Ash	-7646
depth	-7647
▁kernel	-7648
▁Mike	-7649
estic	-7650
▁fine	-7651
plier	-7652
▁homes	-7653
rog	-7654
▁Jersey	-7655
▁executor	-7656
Copy	-7657
▁Irish	-7658
▁allows	-7659
▁stopped	-7660
-%	-7661
▁credentials	-7662
▁rival	-7663
▁Builder	-7664
▁Mid	-7665
Entries	-7666
▁conserv	-7667
isers	-7668
uffix	-7669
▁straight	-7670
uls	-7671
▁cycle	-7672
▁Properties	-7673
▁narr	-7674
application	-7675
▁flying	-7676
▁comments	-7677
TO	-7678
▁Pen	-7679
▁python	-7680
▁56	-7681
txt	-7682
▁provides	-7683
aby	-7684
▁Carl	-7685
▁regarded	-7686
td	-7687
▁##	-7688
enger	-7689
▁filepath	-7690
java	-7691
▁54	-7692
▁Harry	-7693
▁redirect	-7694
▁cart	-7695
▁Immutable	-7696
▁inh	-7697
▁Han	-7698
▁Spain	-7699
▁specim	-7700
Dig	-7701
izon	-7702
▁temporary	-7703
▁embed	-7704
{}'	-7705
ounger	-7706
▁camera	-7707
Dialog	-7708
▁filmed	-7709
heet	-7710
izations	-7711
▁yellow	-7712
▁merged	-7713
lector	-7714
▁turns	-7715
▁secure	-7716
Strategy	-7717
▁Far	-7718
▁pun	-7719
▁tower	-7720
▁achieved	-7721
▁detect	-7722
hs	-7723
illy	-7724
{}"	-7725
▁jcas	-7726
▁answer	-7727
▁sail	-7728
columns	-7729
▁pylint	-7730
Support	-7731
▁'{0}	-7732
▁believe	-7733
isc	-7734
Stat	-7735
▁sentence	-7736
hand	-7737
▁quote	-7738
▁killing	-7739
SQL	-7740
▁Cub	-7741
▁evac	-7742
std	-7743
▁Dar	-7744
Connect	-7745
▁charset	-7746
▁Pet	-7747
▁sessions	-7748
gthen	-7749
Flow	-7750
▁gain	-7751
▁Coast	-7752
enter	-7753
▁famous	-7754
cols	-7755
▁seems	-7756
▁neighbor	-7757
▁Child	-7758
▁chair	-7759
lt	-7760
▁pet	-7761
▁boat	-7762
MetaData	-7763
div	-7764
score	-7765
▁Session	-7766
▁1939	-7767
complete	-7768
uplicate	-7769
▁panel	-7770
▁retired	-7771
Methods	-7772
▁Album	-7773
▁intens	-7774
▁bands	-7775
▁structures	-7776
Success	-7777
▁Due	-7778
Resolver	-7779
▁improved	-7780
war	-7781
edom	-7782
putation	-7783
opes	-7784
amma	-7785
▁Belg	-7786
▁recognized	-7787
ali	-7788
▁ii	-7789
Controller	-7790
▁firm	-7791
Limit	-7792
Day	-7793
▁gross	-7794
▁95	-7795
▁Ob	-7796
▁silver	-7797
PUT	-7798
CR	-7799
mes	-7800
non	-7801
▁alternative	-7802
▁Start	-7803
▁inspect	-7804
▁trust	-7805
▁Func	-7806
]'	-7807
IVE	-7808
/"	-7809
water	-7810
▁perm	-7811
▁ideas	-7812
ursive	-7813
▁leadership	-7814
▁Even	-7815
▁Institute	-7816
▁applied	-7817
▁Board	-7818
▁'-'	-7819
▁Expression	-7820
▁routes	-7821
ora	-7822
Annot	-7823
▁advert	-7824
Present	-7825
height	-7826
▁getRequest	-7827
▁interchange	-7828
▁administration	-7829
ATOR	-7830
Panel	-7831
allery	-7832
aren	-7833
Select	-7834
▁armed	-7835
▁street	-7836
▁rc	-7837
▁Ext	-7838
▁hun	-7839
▁Israel	-7840
Protocol	-7841
total	-7842
IST	-7843
grad	-7844
▁briefly	-7845
inant	-7846
ithub	-7847
▁Sund	-7848
▁seat	-7849
▁Never	-7850
▁retval	-7851
▁torpedo	-7852
▁1985	-7853
▁Block	-7854
pher	-7855
▁families	-7856
indices	-7857
▁aid	-7858
▁perfect	-7859
▁57	-7860
▁Arthur	-7861
▁Revolution	-7862
ckets	-7863
▁roads	-7864
▁1968	-7865
▁sync	-7866
▁stock	-7867
▁letters	-7868
▁steps	-7869
▁genus	-7870
▁ga	-7871
▁Pot	-7872
▁crossing	-7873
▁notify	-7874
▁authorities	-7875
illing	-7876
▁personnel	-7877
▁joint	-7878
▁Meanwhile	-7879
▁41	-7880
▁describes	-7881
▁ByteBuffer	-7882
URE	-7883
loyment	-7884
▁extensive	-7885
23	-7886
▁audio	-7887
▁twelve	-7888
NO	-7889
domain	-7890
▁explicit	-7891
▁Mul	-7892
▁slot	-7893
▁metrics	-7894
▁Republican	-7895
▁kilometres	-7896
▁restore	-7897
ura	-7898
▁padding	-7899
idence	-7900
POST	-7901
▁Hit	-7902
▁Doctor	-7903
▁controlled	-7904
avalry	-7905
▁liber	-7906
▁recently	-7907
▁publication	-7908
abin	-7909
▁landing	-7910
▁Os	-7911
▁800	-7912
▁animal	-7913
▁Ohio	-7914
▁axes	-7915
Rows	-7916
▁INT	-7917
▁kick	-7918
▁solo	-7919
▁Pers	-7920
▁sha	-7921
essed	-7922
FORM	-7923
▁Ven	-7924
▁Greg	-7925
▁intellig	-7926
▁withdraw	-7927
▁85	-7928
▁motion	-7929
▁infantry	-7930
Bit	-7931
imet	-7932
▁Bon	-7933
▁committee	-7934
▁plants	-7935
hook	-7936
▁Ron	-7937
▁pt	-7938
▁suggests	-7939
▁explos	-7940
▁isol	-7941
▁mile	-7942
▁Filter	-7943
▁Mos	-7944
▁rob	-7945
▁dictionary	-7946
▁penal	-7947
▁Lock	-7948
zil	-7949
▁IGN	-7950
▁Secretary	-7951
▁entirely	-7952
Cred	-7953
stein	-7954
▁toArray	-7955
CONT	-7956
▁franch	-7957
▁organized	-7958
▁corner	-7959
Single	-7960
ceptor	-7961
▁fragment	-7962
▁algorithm	-7963
Word	-7964
▁seventh	-7965
▁Hind	-7966
▁commands	-7967
▁micro	-7968
▁KEY	-7969
▁const	-7970
going	-7971
aine	-7972
▁instruction	-7973
isted	-7974
adelph	-7975
▁1984	-7976
cé	-7977
▁google	-7978
li	-7979
▁slo	-7980
21	-7981
▁deck	-7982
▁Grant	-7983
▁vehicles	-7984
▁Graph	-7985
▁completion	-7986
▁chor	-7987
▁spon	-7988
iteral	-7989
▁Ly	-7990
▁fought	-7991
▁arrival	-7992
▁Philadelph	-7993
▁Let	-7994
▁mentioned	-7995
Symbol	-7996
fort	-7997
▁Harv	-7998
▁sports	-7999
▁psych	-8000
▁collected	-8001
▁ty	-8002
▁roof	-8003
▁criter	-8004
▁asset	-8005
Formatter	-8006
ola	-8007
irror	-8008
folder	-8009
▁commissioned	-8010
Classes	-8011
▁proceed	-8012
▁finds	-8013
▁ancient	-8014
rule	-8015
▁danger	-8016
▁iteritems	-8017
azy	-8018
Batch	-8019
Details	-8020
Password	-8021
▁Vis	-8022
▁Ep	-8023
-9	-8024
▁Turn	-8025
▁notNull	-8026
▁Sa	-8027
classes	-8028
▁Arg	-8029
▁Jes	-8030
▁Bell	-8031
▁quite	-8032
▁Op	-8033
show	-8034
▁channels	-8035
▁computer	-8036
▁Georgia	-8037
Load	-8038
▁sun	-8039
▁deleted	-8040
▁Ca	-8041
▁Rol	-8042
Missing	-8043
math	-8044
plib	-8045
▁Liver	-8046
abilities	-8047
▁islands	-8048
▁drama	-8049
▁hall	-8050
▁trav	-8051
▁loaded	-8052
▁(%	-8053
▁53	-8054
▁Gi	-8055
itled	-8056
akers	-8057
▁nuclear	-8058
▁Down	-8059
▁Cambridge	-8060
DF	-8061
▁spl	-8062
▁Heart	-8063
▁commonly	-8064
▁dedicated	-8065
split	-8066
▁behavior	-8067
ishes	-8068
▁powers	-8069
▁ll	-8070
▁themes	-8071
▁Philadelphia	-8072
▁magn	-8073
▁Burn	-8074
▁losses	-8075
FC	-8076
▁comedy	-8077
hens	-8078
▁occupied	-8079
▁performing	-8080
cf	-8081
▁worth	-8082
▁rend	-8083
sample	-8084
▁descriptor	-8085
▁beaut	-8086
cover	-8087
▁recip	-8088
▁retrieve	-8089
One	-8090
float	-8091
ographic	-8092
author	-8093
▁dimensions	-8094
▁patch	-8095
▁modules	-8096
▁Once	-8097
iana	-8098
▁Kel	-8099
▁coup	-8100
▁cookie	-8101
iful	-8102
▁ven	-8103
iences	-8104
xis	-8105
▁76	-8106
▁Locale	-8107
▁centuries	-8108
▁sink	-8109
▁sac	-8110
▁protection	-8111
▁survey	-8112
▁headquarters	-8113
Be	-8114
▁Lind	-8115
▁convin	-8116
▁orche	-8117
▁Fer	-8118
▁spot	-8119
▁pretty	-8120
▁detail	-8121
▁defaults	-8122
▁getCurrent	-8123
▁aim	-8124
▁1967	-8125
▁goes	-8126
▁shutdown	-8127
hell	-8128
ja	-8129
errors	-8130
▁ignored	-8131
▁HMS	-8132
▁links	-8133
▁printStackTrace	-8134
igin	-8135
▁nob	-8136
▁atmos	-8137
1"	-8138
▁motor	-8139
▁Russia	-8140
▁strik	-8141
orship	-8142
▁serialize	-8143
▁standing	-8144
▁flatt	-8145
▁unus	-8146
SU	-8147
diff	-8148
normal	-8149
ersistence	-8150
Report	-8151
▁turre	-8152
AXB	-8153
ferences	-8154
▁Among	-8155
▁~	-8156
hat	-8157
▁Prime	-8158
▁drawn	-8159
restling	-8160
▁advantage	-8161
3_	-8162
IFI	-8163
▁depict	-8164
▁illust	-8165
▁Item	-8166
▁Note	-8167
▁Box	-8168
▁Use	-8169
Stats	-8170
▁Development	-8171
▁Liverpool	-8172
ClassLoader	-8173
▁suppor	-8174
▁chance	-8175
lications	-8176
main	-8177
▁pending	-8178
▁reasons	-8179
▁unf	-8180
▁keySet	-8181
▁acad	-8182
▁getG	-8183
▁entert	-8184
ependency	-8185
▁Sus	-8186
▁Doug	-8187
email	-8188
▁Nintend	-8189
▁gap	-8190
▁impl	-8191
aired	-8192
▁filled	-8193
▁Ka	-8194
▁newValue	-8195
gb	-8196
▁Hon	-8197
Parse	-8198
rb	-8199
ycle	-8200
▁extrem	-8201
▁Nintendo	-8202
conditions	-8203
▁instances	-8204
ui	-8205
ensus	-8206
▁Cache	-8207
tf	-8208
▁Earl	-8209
▁defensive	-8210
▁singing	-8211
▁hostname	-8212
▁integer	-8213
attribute	-8214
eper	-8215
▁backend	-8216
▁battalion	-8217
▁/**	-8218
Modified	-8219
▁succeeded	-8220
▁contributed	-8221
▁Columbia	-8222
OB	-8223
▁hosts	-8224
Mult	-8225
apse	-8226
UTF	-8227
▁Code	-8228
▁sport	-8229
▁scores	-8230
▁preced	-8231
▁heads	-8232
▁":"	-8233
▁Column	-8234
▁Korean	-8235
▁receiving	-8236
▁entr	-8237
▁Warn	-8238
▁supporting	-8239
import	-8240
▁Tuple	-8241
▁hidden	-8242
anguages	-8243
UNT	-8244
yer	-8245
Menu	-8246
sert	-8247
▁cultural	-8248
▁resolution	-8249
={	-8250
▁Wars	-8251
▁binding	-8252
▁defaultValue	-8253
▁da	-8254
NON	-8255
versation	-8256
▁appropri	-8257
▁Wel	-8258
Author	-8259
▁archive	-8260
▁mounted	-8261
▁touchdown	-8262
▁patterns	-8263
▁knowledge	-8264
vin	-8265
▁happen	-8266
▁disp	-8267
▁subscri	-8268
▁younger	-8269
▁Lincol	-8270
eler	-8271
▁usage	-8272
requ	-8273
▁Asia	-8274
▁mist	-8275
anging	-8276
▁obtain	-8277
▁flooding	-8278
imary	-8279
▁jobs	-8280
▁Singap	-8281
▁hydro	-8282
▁Found	-8283
▁trip	-8284
▁alignment	-8285
▁instant	-8286
▁daily	-8287
▁consists	-8288
PA	-8289
▁Sign	-8290
▁defence	-8291
Optional	-8292
▁emotion	-8293
▁1983	-8294
▁pairs	-8295
▁CR	-8296
▁digital	-8297
"""	-8298
▁awards	-8299
▁purchased	-8300
▁Lieutenant	-8301
▁Chron	-8302
ifically	-8303
▁Brazil	-8304
▁resemb	-8305
▁Office	-8306
▁Radio	-8307
▁disk	-8308
▁People	-8309
▁household	-8310
▁Sched	-8311
▁intersect	-8312
▁IV	-8313
▁validation	-8314
uf	-8315
▁Kr	-8316
▁Jewish	-8317
bits	-8318
eless	-8319
▁holding	-8320
▁focused	-8321
▁accompanied	-8322
ional	-8323
▁qPath	-8324
▁dow	-8325
▁Francisco	-8326
}/	-8327
edia	-8328
Hand	-8329
▁Hay	-8330
osoph	-8331
▁Bru	-8332
mac	-8333
▁mk	-8334
essor	-8335
▁Dark	-8336
ashion	-8337
▁Singapore	-8338
-8"	-8339
▁1964	-8340
▁Lincoln	-8341
▁ceremony	-8342
▁Journ	-8343
▁1969	-8344
▁expedition	-8345
▁Cle	-8346
▁Six	-8347
▁vertex	-8348
urne	-8349
▁nest	-8350
▁marker	-8351
Fil	-8352
hol	-8353
▁processing	-8354
▁attached	-8355
Runtime	-8356
asketball	-8357
Sk	-8358
▁rise	-8359
▁witness	-8360
attributes	-8361
▁Carey	-8362
▁unlock	-8363
▁250	-8364
▁legend	-8365
fr	-8366
▁rear	-8367
▁ByteArray	-8368
▁Unsupported	-8369
BO	-8370
Use	-8371
▁mouth	-8372
▁Lis	-8373
encode	-8374
▁coord	-8375
▁conference	-8376
ua	-8377
▁Conference	-8378
▁increment	-8379
▁Disney	-8380
▁spin	-8381
RED	-8382
incipal	-8383
▁Original	-8384
▁collections	-8385
▁1914	-8386
▁semi	-8387
▁composition	-8388
▁accur	-8389
▁closely	-8390
help	-8391
gle	-8392
▁comic	-8393
▁getTime	-8394
▁approved	-8395
▁1918	-8396
▁PlayStation	-8397
▁renamed	-8398
▁lists	-8399
▁Import	-8400
anda	-8401
ilton	-8402
▁calendar	-8403
▁Mah	-8404
COL	-8405
Prop	-8406
ryst	-8407
▁Bank	-8408
▁Press	-8409
rowser	-8410
▁Qt	-8411
Sched	-8412
▁1982	-8413
interval	-8414
▁boundary	-8415
▁sequences	-8416
▁1971	-8417
▁providing	-8418
pars	-8419
▁destr	-8420
▁Anderson	-8421
▁nextPage	-8422
▁products	-8423
CTION	-8424
▁1972	-8425
Changed	-8426
▁facilities	-8427
een	-8428
▁Steve	-8429
▁UTC	-8430
▁stages	-8431
inv	-8432
▁rated	-8433
▁online	-8434
▁1966	-8435
▁Lewis	-8436
▁synt	-8437
▁molec	-8438
plates	-8439
▁industrial	-8440
▁Norw	-8441
▁generation	-8442
▁jump	-8443
Boolean	-8444
▁Miller	-8445
▁vac	-8446
izable	-8447
▁Na	-8448
▁1979	-8449
:\	-8450
wt	-8451
▁pan	-8452
▁proposal	-8453
▁sand	-8454
▁que	-8455
85	-8456
▁Fire	-8457
▁piano	-8458
▁Byz	-8459
▁mapper	-8460
pop	-8461
▁DateTime	-8462
xFF	-8463
▁hair	-8464
▁Balt	-8465
othing	-8466
▁charts	-8467
▁belief	-8468
▁moder	-8469
▁Brook	-8470
appe	-8471
▁Brian	-8472
▁getAll	-8473
▁fieldName	-8474
▁virtual	-8475
▁criticism	-8476
loop	-8477
center	-8478
▁opportunity	-8479
temp	-8480
▁Olympic	-8481
organ	-8482
tail	-8483
sible	-8484
▁sigma	-8485
poration	-8486
plex	-8487
▁nan	-8488
▁vir	-8489
OURCE	-8490
Dep	-8491
▁boats	-8492
▁Pattern	-8493
identifier	-8494
▁unsuccess	-8495
Progress	-8496
▁Wat	-8497
changed	-8498
ialized	-8499
▁console	-8500
▁merch	-8501
▁plane	-8502
▁equivalent	-8503
Owner	-8504
▁Byzant	-8505
found	-8506
▁Review	-8507
empty	-8508
ashed	-8509
entity	-8510
▁labor	-8511
beat	-8512
▁2.0	-8513
▁1965	-8514
▁Float	-8515
iversal	-8516
▁Railway	-8517
▁notable	-8518
▁getLocal	-8519
▁77	-8520
▁JAXB	-8521
▁submar	-8522
▁generator	-8523
Qual	-8524
▁Hun	-8525
oma	-8526
ADER	-8527
▁NHL	-8528
DATA	-8529
iot	-8530
▁AR	-8531
▁eyes	-8532
▁Emperor	-8533
cial	-8534
▁experienced	-8535
chunk	-8536
▁Plot	-8537
▁sampl	-8538
▁Bean	-8539
▁engaged	-8540
▁viewed	-8541
▁Tam	-8542
▁Jr	-8543
▁gram	-8544
LowerCase	-8545
▁mountain	-8546
▁1975	-8547
▁shark	-8548
▁shooting	-8549
aph	-8550
▁magic	-8551
▁trains	-8552
▁JSONObject	-8553
eds	-8554
Edge	-8555
▁Between	-8556
▁lineno	-8557
▁citizens	-8558
▁Pri	-8559
entially	-8560
validate	-8561
▁strengthen	-8562
▁^	-8563
▁66	-8564
▁unpack	-8565
▁Aud	-8566
▁vals	-8567
Implement	-8568
▁resident	-8569
▁subscription	-8570
fast	-8571
▁See	-8572
▁highlight	-8573
▁combination	-8574
▁Cas	-8575
di	-8576
▁Gulf	-8577
Category	-8578
▁|=	-8579
hew	-8580
Build	-8581
▁Ok	-8582
chain	-8583
▁distingu	-8584
Sn	-8585
▁perhaps	-8586
riority	-8587
▁cool	-8588
▁51	-8589
dated	-8590
▁Germans	-8591
▁matched	-8592
mult	-8593
▁finding	-8594
▁existence	-8595
▁BigDecimal	-8596
;"	-8597
▁Plan	-8598
▁SH	-8599
▁lap	-8600
▁*=	-8601
▁uid	-8602
▁Walk	-8603
symbol	-8604
▁checkNotNull	-8605
▁Ha	-8606
▁connections	-8607
Layer	-8608
▁Hollywood	-8609
iger	-8610
▁Davis	-8611
▁Walter	-8612
otted	-8613
src	-8614
NonNull	-8615
▁dependency	-8616
▁1974	-8617
▁NO	-8618
▁hired	-8619
▁pages	-8620
▁iterable	-8621
▁listeners	-8622
csv	-8623
features	-8624
▁adapter	-8625
▁optional	-8626
▁southeast	-8627
Ac	-8628
▁':'	-8629
▁Files	-8630
▁rapidly	-8631
tuple	-8632
rane	-8633
unior	-8634
▁hero	-8635
▁ndim	-8636
▁findBy	-8637
etts	-8638
sv	-8639
▁Pu	-8640
uting	-8641
▁acqu	-8642
▁1973	-8643
▁exerc	-8644
Required	-8645
/'	-8646
umul	-8647
▁waiting	-8648
agan	-8649
nable	-8650
collection	-8651
▁67	-8652
▁Transport	-8653
sql	-8654
▁Here	-8655
▁FF	-8656
▁sud	-8657
▁Station	-8658
▁Democratic	-8659
BY	-8660
▁Engine	-8661
▁operating	-8662
▁styles	-8663
Memory	-8664
▁Print	-8665
Failure	-8666
▁CmsResource	-8667
▁von	-8668
▁Author	-8669
▁Conserv	-8670
▁Milit	-8671
▁watched	-8672
gar	-8673
▁neut	-8674
atio	-8675
▁casualties	-8676
▁significantly	-8677
▁Serb	-8678
▁Daily	-8679
▁writes	-8680
▁economy	-8681
loss	-8682
▁Jean	-8683
▁tend	-8684
▁preferred	-8685
datetime	-8686
▁Beyon	-8687
▁1976	-8688
▁stored	-8689
▁technology	-8690
UUID	-8691
▁58	-8692
▁Water	-8693
▁disapp	-8694
PORT	-8695
▁Gib	-8696
▁chrom	-8697
▁intern	-8698
▁wrapped	-8699
mg	-8700
▁keyword	-8701
▁developing	-8702
▁serviceCallback	-8703
▁derived	-8704
Art	-8705
amin	-8706
overy	-8707
▁resistance	-8708
▁Term	-8709
▁Spring	-8710
▁NAME	-8711
▁reserve	-8712
Bar	-8713
▁reserv	-8714
▁Les	-8715
▁Rome	-8716
▁tool	-8717
▁nitro	-8718
▁safety	-8719
tmp	-8720
inf	-8721
Area	-8722
▁boot	-8723
burgh	-8724
▁steel	-8725
▁runtime	-8726
▁stem	-8727
FileName	-8728
▁roughly	-8729
▁59	-8730
▁ton	-8731
▁submit	-8732
▁improve	-8733
hi	-8734
▁Gray	-8735
▁Lev	-8736
MI	-8737
__'	-8738
velope	-8739
▁ERROR	-8740
▁contest	-8741
▁substant	-8742
iques	-8743
▁gets	-8744
▁photograph	-8745
▁Summer	-8746
just	-8747
▁challenge	-8748
▁63	-8749
▁intent	-8750
▁Lady	-8751
annon	-8752
orough	-8753
▁CH	-8754
▁Mu	-8755
▁easily	-8756
▁'''	-8757
▁Remove	-8758
hetic	-8759
▁cold	-8760
▁csv	-8761
cred	-8762
▁earliest	-8763
(?	-8764
eral	-8765
qa	-8766
PERTY	-8767
▁clip	-8768
▁portray	-8769
▁classification	-8770
▁undert	-8771
iph	-8772
..."	-8773
othes	-8774
eton	-8775
▁arc	-8776
▁Women	-8777
▁EClass	-8778
ROM	-8779
Alias	-8780
▁Gord	-8781
▁colour	-8782
Condition	-8783
make	-8784
▁Future	-8785
▁myth	-8786
lon	-8787
▁74	-8788
▁Afplib	-8789
nic	-8790
▁knew	-8791
▁southwest	-8792
https	-8793
▁introduction	-8794
▁AfplibPackage	-8795
▁causes	-8796
▁painting	-8797
samples	-8798
▁suffer	-8799
▁counts	-8800
▁association	-8801
▁Pict	-8802
▁enum	-8803
▁Muslim	-8804
▁literature	-8805
rypted	-8806
▁evaluate	-8807
ads	-8808
▁Bit	-8809
imension	-8810
▁absolute	-8811
▁franchise	-8812
''	-8813
idge	-8814
▁getNode	-8815
stat	-8816
▁timed	-8817
theless	-8818
▁rv	-8819
▁Beyoncé	-8820
tenance	-8821
▁closing	-8822
▁prem	-8823
ORY	-8824
▁Sn	-8825
▁affect	-8826
mapping	-8827
isms	-8828
aught	-8829
▁Jenn	-8830
▁actress	-8831
Le	-8832
▁jar	-8833
roke	-8834
▁backup	-8835
ClientExecution	-8836
appings	-8837
▁Independ	-8838
▁advent	-8839
▁Dig	-8840
equ	-8841
▁Who	-8842
yth	-8843
▁theta	-8844
▁urban	-8845
ici	-8846
AV	-8847
▁cc	-8848
▁>>>	-8849
itespace	-8850
▁showing	-8851
uzz	-8852
▁Syd	-8853
▁Indust	-8854
▁predicate	-8855
▁Video	-8856
▁Az	-8857
xff	-8858
▁dx	-8859
DATE	-8860
▁employed	-8861
▁Coll	-8862
▁pin	-8863
▁tank	-8864
▁assistant	-8865
▁deployment	-8866
awa	-8867
rett	-8868
▁cars	-8869
▁Colonel	-8870
▁gameplay	-8871
MM	-8872
▁RES	-8873
▁brothers	-8874
bal	-8875
asty	-8876
Domain	-8877
▁linked	-8878
unte	-8879
▁Naz	-8880
▁ranges	-8881
▁programs	-8882
Matcher	-8883
▁regarding	-8884
▁Rose	-8885
EW	-8886
uer	-8887
▁sid	-8888
achus	-8889
▁storyline	-8890
▁popularity	-8891
▁drag	-8892
Assignable	-8893
▁Input	-8894
rations	-8895
▁Supreme	-8896
▁parseInt	-8897
icial	-8898
▁opinion	-8899
▁entering	-8900
ele	-8901
Short	-8902
OWN	-8903
▁Elect	-8904
▁retire	-8905
PC	-8906
▁Ten	-8907
Listeners	-8908
username	-8909
▁Variable	-8910
LETE	-8911
▁occurs	-8912
▁Kentucky	-8913
metric	-8914
▁shaped	-8915
DataType	-8916
PREFIX	-8917
▁1946	-8918
▁declined	-8919
▁1981	-8920
▁injured	-8921
mount	-8922
▁conversion	-8923
▁99	-8924
▁−	-8925
▁journey	-8926
una	-8927
▁cov	-8928
▁Band	-8929
▁towns	-8930
ologist	-8931
▁Delete	-8932
▁Golden	-8933
▁datas	-8934
▁somew	-8935
▁adjust	-8936
▁Prem	-8937
▁retained	-8938
▁getUser	-8939
python	-8940
▁tables	-8941
▁Ra	-8942
▁178	-8943
▁turning	-8944
▁constructor	-8945
ASK	-8946
Warning	-8947
▁enjoyed	-8948
Counter	-8949
Active	-8950
▁engines	-8951
▁Bern	-8952
master	-8953
▁invent	-8954
▁plain	-8955
Uuid	-8956
river	-8957
▁responded	-8958
▁ct	-8959
▁MIN	-8960
Remove	-8961
▁estate	-8962
27	-8963
▁Norway	-8964
▁reputation	-8965
Sep	-8966
▁cro	-8967
▁87	-8968
Pack	-8969
inum	-8970
▁Fair	-8971
],	-8972
▁IOError	-8973
▁Lab	-8974
▁Hart	-8975
▁planning	-8976
▁clock	-8977
dirs	-8978
osa	-8979
▁torn	-8980
prob	-8981
▁Offic	-8982
▁tests	-8983
Repository	-8984
▁plus	-8985
▁headed	-8986
▁Space	-8987
lee	-8988
▁Abb	-8989
▁museum	-8990
▁ServiceFuture	-8991
▁1917	-8992
children	-8993
illed	-8994
▁drew	-8995
ialect	-8996
▁Olympics	-8997
apel	-8998
oard	-8999
▁cited	-9000
▁uniform	-9001
cheme	-9002
rf	-9003
▁Gram	-9004
▁Search	-9005
▁Massachus	-9006
▁Theat	-9007
▁asList	-9008
▁agricult	-9009
▁ways	-9010
▁fashion	-9011
onder	-9012
▁getNext	-9013
▁learned	-9014
▁van	-9015
package	-9016
▁extent	-9017
▁override	-9018
▁Nick	-9019
▁Atom	-9020
BUT	-9021
▁ws	-9022
▁Massachusetts	-9023
Buf	-9024
factor	-9025
▁About	-9026
▁160	-9027
▁wealth	-9028
2'	-9029
OKEN	-9030
Information	-9031
▁Dream	-9032
▁getParameter	-9033
Destination	-9034
HER	-9035
Validation	-9036
▁endsWith	-9037
close	-9038
istan	-9039
MPTY	-9040
Certificate	-9041
▁increasingly	-9042
▁stadium	-9043
▁toLowerCase	-9044
▁tot	-9045
'\	-9046
▁Bi	-9047
ilarly	-9048
power	-9049
▁Airport	-9050
▁genre	-9051
lyph	-9052
impleName	-9053
▁Ball	-9054
▁cricket	-9055
IAL	-9056
amm	-9057
▁nextPageLink	-9058
▁approached	-9059
MD	-9060
Custom	-9061
Serializer	-9062
gency	-9063
UI	-9064
don	-9065
▁god	-9066
▁battery	-9067
▁Sand	-9068
events	-9069
www	-9070
fit	-9071
*"	-9072
▁quiet	-9073
▁peer	-9074
pm	-9075
Close	-9076
Operator	-9077
Right	-9078
period	-9079
invalid	-9080
▁indicated	-9081
▁Ken	-9082
holder	-9083
▁cf	-9084
▁Instead	-9085
pts	-9086
▁GET	-9087
▁1948	-9088
Binding	-9089
▁delivered	-9090
ORE	-9091
▁ms	-9092
ranches	-9093
▁solid	-9094
Expr	-9095
eval	-9096
▁crash	-9097
po	-9098
VERSION	-9099
▁recommended	-9100
▁Stop	-9101
▁Try	-9102
▁sv	-9103
▁inform	-9104
DateTime	-9105
oked	-9106
▁tall	-9107
▁stret	-9108
▁configure	-9109
ga	-9110
scope	-9111
▁constitution	-9112
Arguments	-9113
▁js	-9114
▁Ross	-9115
igen	-9116
sort	-9117
▁Servlet	-9118
▁authent	-9119
▁selector	-9120
rence	-9121
▁acts	-9122
▁crowd	-9123
▁jcasType	-9124
rie	-9125
▁tries	-9126
▁winner	-9127
▁Simpsons	-9128
1:	-9129
GB	-9130
desc	-9131
▁700	-9132
▁scientific	-9133
▁sustained	-9134
▁carrying	-9135
contin	-9136
▁humans	-9137
arant	-9138
▁1978	-9139
▁aware	-9140
▁Random	-9141
▁Mas	-9142
▁producing	-9143
engers	-9144
Me	-9145
tn	-9146
Region	-9147
tc	-9148
▁buried	-9149
*'	-9150
▁Lay	-9151
▁designs	-9152
▁baseball	-9153
Upper	-9154
▁sheet	-9155
▁smooth	-9156
▁Cook	-9157
>\	-9158
wait	-9159
▁Songs	-9160
atched	-9161
▁sufficient	-9162
▁Transaction	-9163
35	-9164
LED	-9165
▁Imperial	-9166
▁moves	-9167
▁youth	-9168
▁Cra	-9169
▁Look	-9170
▁someone	-9171
▁Well	-9172
▁Vietnam	-9173
▁arranged	-9174
▁credited	-9175
role	-9176
attrs	-9177
grade	-9178
▁accounts	-9179
Points	-9180
cores	-9181
worth	-9182
LOGGER	-9183
▁satisf	-9184
▁interested	-9185
▁acknow	-9186
property	-9187
▁Kir	-9188
Metric	-9189
exists	-9190
atom	-9191
After	-9192
▁Ottoman	-9193
▁groupId	-9194
▁Ifc	-9195
▁predecess	-9196
▁processed	-9197
▁Flow	-9198
itionally	-9199
▁ru	-9200
▁weakened	-9201
Allow	-9202
▁1915	-9203
▁desired	-9204
▁isfile	-9205
▁dispatch	-9206
NLS	-9207
▁snapshot	-9208
▁IND	-9209
▁Cape	-9210
issions	-9211
▁Mult	-9212
▁adapted	-9213
Scale	-9214
▁Moore	-9215
riteria	-9216
▁Shortly	-9217
Chunk	-9218
▁Bul	-9219
▁1977	-9220
▁Poland	-9221
▁astype	-9222
▁athlet	-9223
zero	-9224
▁drink	-9225
▁entrance	-9226
▁committed	-9227
ryption	-9228
▁Sydney	-9229
TS	-9230
▁Vari	-9231
▁freeway	-9232
['	-9233
hr	-9234
▁lasted	-9235
▁PI	-9236
norm	-9237
▁Maryland	-9238
▁translation	-9239
▁"'"	-9240
▁timer	-9241
▁frequency	-9242
▁ray	-9243
▁deser	-9244
▁longest	-9245
▁freq	-9246
dtype	-9247
▁Power	-9248
▁lands	-9249
▁acres	-9250
▁uncle	-9251
replace	-9252
▁Registry	-9253
▁'#	-9254
▁getMax	-9255
▁discovery	-9256
variable	-9257
BN	-9258
▁96	-9259
▁intr	-9260
transform	-9261
▁knots	-9262
▁sender	-9263
isting	-9264
uda	-9265
▁arraycopy	-9266
▁ago	-9267
▁generic	-9268
SA	-9269
racy	-9270
▁MTV	-9271
▁Stew	-9272
ivation	-9273
plement	-9274
▁Matrix	-9275
▁specifically	-9276
Usage	-9277
▁Naval	-9278
▁filtered	-9279
▁gal	-9280
▁playoff	-9281
zz	-9282
▁downt	-9283
▁attrib	-9284
▁RA	-9285
▁Component	-9286
▁domestic	-9287
sex	-9288
Metrics	-9289
▁callable	-9290
▁learning	-9291
▁scul	-9292
▁McG	-9293
issance	-9294
emon	-9295
onomy	-9296
();	-9297
▁Ret	-9298
▁Write	-9299
▁assignment	-9300
Ag	-9301
ITE	-9302
states	-9303
▁Validation	-9304
▁Vol	-9305
insula	-9306
▁coastal	-9307
▁violence	-9308
▁1963	-9309
Permission	-9310
▁Simon	-9311
De	-9312
Title	-9313
▁intention	-9314
▁setdefault	-9315
▁oldest	-9316
iege	-9317
▁factors	-9318
report	-9319
▁gradually	-9320
bean	-9321
elist	-9322
▁Prov	-9323
▁getContext	-9324
▁Access	-9325
▁parties	-9326
▁getBytes	-9327
▁extremely	-9328
▁permanent	-9329
LENG	-9330
otic	-9331
wrap	-9332
"'	-9333
▁importance	-9334
▁Arts	-9335
objects	-9336
▁denied	-9337
▁cod	-9338
warn	-9339
strap	-9340
▁ratio	-9341
built	-9342
operation	-9343
▁Jay	-9344
okes	-9345
▁Ari	-9346
▁Prin	-9347
▁remember	-9348
athan	-9349
▁obtained	-9350
sig	-9351
▁1916	-9352
▁isAssignable	-9353
secret	-9354
▁independence	-9355
▁delayed	-9356
▁politics	-9357
trace	-9358
Events	-9359
▁meters	-9360
▁amazon	-9361
ARY	-9362
▁glass	-9363
▁supplies	-9364
ATUS	-9365
▁devices	-9366
evin	-9367
▁Edu	-9368
▁Cart	-9369
▁landfall	-9370
MB	-9371
Render	-9372
▁255	-9373
More	-9374
▁'_'	-9375
▁Cred	-9376
▁Raw	-9377
atically	-9378
aks	-9379
▁tact	-9380
Rate	-9381
▁jav	-9382
▁menu	-9383
▁tar	-9384
▁assemb	-9385
▁dy	-9386
Icon	-9387
▁Mulder	-9388
har	-9389
▁brain	-9390
▁Confeder	-9391
▁mp	-9392
iversary	-9393
Props	-9394
▁cinem	-9395
DEFAULT	-9396
▁investigation	-9397
▁campus	-9398
fe	-9399
va	-9400
binding	-9401
▁Python	-9402
available	-9403
inton	-9404
spe	-9405
▁vars	-9406
ints	-9407
▁propag	-9408
Signature	-9409
cludes	-9410
▁limits	-9411
IV	-9412
cr	-9413
▁lane	-9414
▁Gordon	-9415
▁windows	-9416
},	-9417
▁Application	-9418
aware	-9419
▁prisoners	-9420
▁ss	-9421
none	-9422
▁promote	-9423
▁setValue	-9424
▁Glo	-9425
▁appeal	-9426
▁getText	-9427
▁tempor	-9428
▁mu	-9429
▁Roy	-9430
CLASS	-9431
▁Stadium	-9432
namespace	-9433
▁1919	-9434
▁Barn	-9435
▁Marg	-9436
▁getX	-9437
▁decade	-9438
▁//$	-9439
ishing	-9440
▁Rhodes	-9441
▁Bal	-9442
▁78	-9443
▁1962	-9444
window	-9445
imation	-9446
▁UUID	-9447
▁navig	-9448
▁assumed	-9449
▁eps	-9450
▁tal	-9451
LENGTH	-9452
▁Source	-9453
emies	-9454
▁Master	-9455
reets	-9456
▁Barb	-9457
▁duty	-9458
▁entitled	-9459
▁Find	-9460
▁offers	-9461
▁DEBUG	-9462
▁attach	-9463
▁getSimpleName	-9464
site	-9465
hedral	-9466
▁Multi	-9467
variables	-9468
uts	-9469
possible	-9470
sts	-9471
▁rich	-9472
▁formal	-9473
ialization	-9474
rot	-9475
units	-9476
▁Research	-9477
▁requireNonNull	-9478
01	-9479
▁cra	-9480
▁Dun	-9481
▁capable	-9482
▁Kim	-9483
VALID	-9484
34	-9485
▁Drag	-9486
enames	-9487
▁Albert	-9488
essment	-9489
▁bot	-9490
▁bulk	-9491
▁Staff	-9492
▁voted	-9493
29	-9494
MAP	-9495
▁evening	-9496
Writ	-9497
▁executed	-9498
▁deaths	-9499
Partition	-9500
▁Age	-9501
Messages	-9502
▁survived	-9503
▁cd	-9504
▁rand	-9505
CRE	-9506
izontal	-9507
uce	-9508
▁fly	-9509
QUEST	-9510
▁getH	-9511
▁assume	-9512
▁ruled	-9513
▁categories	-9514
np	-9515
▁Philip	-9516
▁Theatre	-9517
▁criteria	-9518
▁shel	-9519
ador	-9520
inois	-9521
▁supposed	-9522
global	-9523
▁bought	-9524
▁consum	-9525
▁regiment	-9526
▁immediate	-9527
uuid	-9528
osis	-9529
▁1938	-9530
▁Bowl	-9531
▁Rest	-9532
Db	-9533
▁Whit	-9534
ji	-9535
▁Dor	-9536
▁composer	-9537
▁threatened	-9538
▁certificate	-9539
aug	-9540
FIELD	-9541
pleted	-9542
▁Version	-9543
js	-9544
▁Your	-9545
▁emit	-9546
Annotations	-9547
eta	-9548
▁getLogger	-9549
mag	-9550
▁studied	-9551
Ge	-9552
▁outfile	-9553
▁serviceName	-9554
▁Mic	-9555
▁Last	-9556
án	-9557
TERN	-9558
ridges	-9559
▁breeding	-9560
▁edit	-9561
▁gather	-9562
▁propertyName	-9563
▁fold	-9564
loader	-9565
▁relief	-9566
▁heat	-9567
▁Justice	-9568
ture	-9569
▁males	-9570
▁typical	-9571
26	-9572
TRI	-9573
▁getN	-9574
ropol	-9575
▁administr	-9576
▁fear	-9577
cluster	-9578
▁Critical	-9579
▁recalled	-9580
********	-9581
▁Moon	-9582
▁notification	-9583
ieval	-9584
▁converter	-9585
▁Journal	-9586
▁degrees	-9587
▁animation	-9588
Seq	-9589
ationship	-9590
▁religion	-9591
ailability	-9592
▁apart	-9593
▁latest	-9594
▁neither	-9595
pletion	-9596
AA	-9597
lig	-9598
▁Philipp	-9599
dl	-9600
▁warm	-9601
▁kingdom	-9602
fire	-9603
this	-9604
▁margin	-9605
▁bright	-9606
▁separated	-9607
▁revolution	-9608
▁TimeUnit	-9609
WS	-9610
▁sell	-9611
▁Standard	-9612
▁tt	-9613
None	-9614
▁soul	-9615
dims	-9616
phoon	-9617
▁align	-9618
idents	-9619
ighters	-9620
Ret	-9621
inator	-9622
▁costs	-9623
▁Family	-9624
▁JAXBElement	-9625
▁portrayed	-9626
acent	-9627
osity	-9628
▁acid	-9629
ansas	-9630
friend	-9631
▁opera	-9632
▁crossed	-9633
ByteArray	-9634
▁philosoph	-9635
arest	-9636
▁controversy	-9637
▁":	-9638
atern	-9639
▁blow	-9640
▁spons	-9641
▁Nel	-9642
▁Iron	-9643
iations	-9644
▁Memorial	-9645
bourne	-9646
AIN	-9647
▁git	-9648
])	-9649
opher	-9650
arc	-9651
▁94	-9652
▁blob	-9653
▁DataFrame	-9654
▁Fe	-9655
▁dyn	-9656
▁1956	-9657
▁Tony	-9658
socket	-9659
▁Maria	-9660
▁Assembly	-9661
lang	-9662
▁vent	-9663
pective	-9664
▁Hamilton	-9665
ESC	-9666
▁currency	-9667
▁manifest	-9668
▁pc	-9669
▁advoc	-9670
▁partner	-9671
▁Bir	-9672
▁funds	-9673
NC	-9674
▁Singles	-9675
▁admitted	-9676
▁tanks	-9677
▁replic	-9678
▁ox	-9679
]+	-9680
mm	-9681
ato	-9682
▁130	-9683
▁Edge	-9684
▁invited	-9685
▁departure	-9686
ression	-9687
Identity	-9688
senal	-9689
▁differences	-9690
▁purchase	-9691
▁Vill	-9692
▁69	-9693
pread	-9694
▁brand	-9695
▁react	-9696
▁examples	-9697
▁Anth	-9698
▁nomination	-9699
▁RO	-9700
▁pure	-9701
▁arrested	-9702
▁equipped	-9703
Tokens	-9704
▁Adams	-9705
PS	-9706
▁escaped	-9707
▁parl	-9708
▁nested	-9709
▁NULL	-9710
▁toler	-9711
▁Prof	-9712
custom	-9713
Selector	-9714
▁Bol	-9715
▁income	-9716
▁concerns	-9717
▁AS	-9718
▁door	-9719
▁evolution	-9720
▁maybe	-9721
▁consisting	-9722
▁Alan	-9723
HashMap	-9724
▁picture	-9725
▁rotation	-9726
ipy	-9727
Product	-9728
pressions	-9729
▁Director	-9730
▁1936	-9731
▁Kong	-9732
▁Adam	-9733
▁authors	-9734
▁setattr	-9735
▁Nic	-9736
▁crime	-9737
▁mort	-9738
▁tableName	-9739
▁Track	-9740
save	-9741
▁posted	-9742
▁snow	-9743
▁68	-9744
▁Jord	-9745
▁Beach	-9746
lets	-9747
▁Repository	-9748
ACHE	-9749
▁recur	-9750
Visible	-9751
▁Schema	-9752
▁charged	-9753
ranean	-9754
▁Gill	-9755
▁testing	-9756
▁populations	-9757
▁overs	-9758
▁McK	-9759
atype	-9760
ASE	-9761
▁Jane	-9762
formula	-9763
▁indexes	-9764
▁precision	-9765
BE	-9766
lav	-9767
▁delimiter	-9768
▁hosted	-9769
▁languages	-9770
▁statistics	-9771
▁choose	-9772
▁proced	-9773
▁medal	-9774
Timestamp	-9775
onia	-9776
▁VAL	-9777
▁manner	-9778
▁aspects	-9779
▁lex	-9780
▁restrict	-9781
▁getObject	-9782
0'	-9783
▁tick	-9784
▁mun	-9785
enses	-9786
▁Treat	-9787
dataset	-9788
509	-9789
Algorithm	-9790
▁graphics	-9791
▁getAbsolute	-9792
ella	-9793
idespread	-9794
▁decom	-9795
▁votes	-9796
28	-9797
▁flu	-9798
▁Store	-9799
▁disabled	-9800
ito	-9801
▁alert	-9802
wick	-9803
▁Low	-9804
▁mol	-9805
▁1961	-9806
▁VII	-9807
▁coordinates	-9808
▁Contin	-9809
▁females	-9810
Instances	-9811
tar	-9812
agers	-9813
▁missed	-9814
ierarchy	-9815
igs	-9816
itage	-9817
▁noqa	-9818
▁vary	-9819
Constraint	-9820
des	-9821
Each	-9822
▁mach	-9823
▁creator	-9824
▁department	-9825
37	-9826
▁dynamic	-9827
seconds	-9828
▁eighth	-9829
select	-9830
▁grade	-9831
▁Then	-9832
▁ancest	-9833
encoding	-9834
▁Feature	-9835
▁considerable	-9836
WR	-9837
▁ports	-9838
span	-9839
▁NBA	-9840
▁raid	-9841
▁Sunday	-9842
▁mc	-9843
▁coin	-9844
▁hope	-9845
▁Forest	-9846
ati	-9847
▁Poly	-9848
▁Indones	-9849
▁pup	-9850
▁"{0}	-9851
▁amazonaws	-9852
▁encountered	-9853
▁Today	-9854
▁Bos	-9855
▁describing	-9856
▁Death	-9857
▁getJ	-9858
onto	-9859
▁Alb	-9860
Vertex	-9861
▁Third	-9862
▁periods	-9863
aret	-9864
dest	-9865
ivals	-9866
▁Der	-9867
▁kid	-9868
▁1953	-9869
▁recovered	-9870
▁possibility	-9871
▁getStatus	-9872
iller	-9873
▁crown	-9874
edges	-9875
▁hotel	-9876
▁Kennedy	-9877
▁Html	-9878
▁duties	-9879
ications	-9880
▁Alf	-9881
ependencies	-9882
▁mand	-9883
▁rural	-9884
ifiable	-9885
▁driving	-9886
▁crim	-9887
Ab	-9888
times	-9889
▁Program	-9890
▁decades	-9891
▁Military	-9892
▁360	-9893
▁ban	-9894
▁sky	-9895
▁Rolling	-9896
▁opposite	-9897
elta	-9898
▁110	-9899
bour	-9900
orer	-9901
▁Yank	-9902
ongo	-9903
▁sock	-9904
▁dated	-9905
▁Indiana	-9906
▁skin	-9907
▁grounds	-9908
BI	-9909
MAX	-9910
cation	-9911
▁proto	-9912
▁Howard	-9913
▁https	-9914
▁Leon	-9915
▁Sky	-9916
▁Norweg	-9917
▁implementation	-9918
▁Nap	-9919
▁consc	-9920
▁pixel	-9921
▁Recording	-9922
LOCK	-9923
Multi	-9924
▁Scully	-9925
▁superv	-9926
dt	-9927
MT	-9928
claimed	-9929
▁coverage	-9930
▁requirements	-9931
▁")"	-9932
▁noting	-9933
▁ham	-9934
▁frag	-9935
ician	-9936
▁delegate	-9937
▁getMethod	-9938
oster	-9939
▁slowly	-9940
agger	-9941
▁logical	-9942
▁defining	-9943
▁Five	-9944
▁diagn	-9945
▁Cat	-9946
Kind	-9947
▁lit	-9948
▁rul	-9949
certain	-9950
Language	-9951
riev	-9952
parameter	-9953
▁Su	-9954
▁astr	-9955
bridge	-9956
▁doct	-9957
▁leaf	-9958
▁mesh	-9959
▁Hitler	-9960
▁brigade	-9961
▁involving	-9962
▁Ta	-9963
iner	-9964
▁1947	-9965
▁circum	-9966
▁Science	-9967
▁settled	-9968
▁OutputStream	-9969
urations	-9970
▁successor	-9971
▁setProperty	-9972
▁VER	-9973
▁restaur	-9974
icide	-9975
▁balance	-9976
▁concerned	-9977
▁1958	-9978
▁Cult	-9979
▁volcan	-9980
▁outputs	-9981
▁Li	-9982
▁Nether	-9983
iry	-9984
Price	-9985
paces	-9986
▁Portug	-9987
▁supporters	-9988
Blank	-9989
▁decline	-9990
MIN	-9991
counts	-9992
ToString	-9993
abb	-9994
▁die	-9995
▁abort	-9996
ko	-9997
▁hide	-9998
▁phen	-9999
▁strateg	-10000
▁animated	-10001
▁vel	-10002
▁Every	-10003
▁charges	-10004
gp	-10005
ela	-10006
rell	-10007
▁Brist	-10008
▁Transform	-10009
▁objective	-10010
▁WWE	-10011
▁tensor	-10012
▁1910	-10013
History	-10014
▁attempting	-10015
▁1957	-10016
flags	-10017
▁vessels	-10018
▁recognition	-10019
▁tied	-10020
▁renew	-10021
▁FFDC	-10022
Declaration	-10023
▁Database	-10024
▁breaking	-10025
▁supports	-10026
▁enemies	-10027
▁worst	-10028
▁regional	-10029
agues	-10030
▁Turk	-10031
▁getOr	-10032
▁1937	-10033
▁Win	-10034
▁ib	-10035
iley	-10036
▁thousands	-10037
▁Ryan	-10038
cb	-10039
▁epoch	-10040
▁vertical	-10041
▁overwrite	-10042
1}'	-10043
brid	-10044
details	-10045
▁debate	-10046
▁folk	-10047
▁Clevel	-10048
POS	-10049
▁79	-10050
Calendar	-10051
▁documents	-10052
▁Category	-10053
▁restored	-10054
▁Bry	-10055
▁Library	-10056
▁Preconditions	-10057
fd	-10058
regon	-10059
▁faith	-10060
▁phi	-10061
risis	-10062
Activity	-10063
▁Mountain	-10064
▁Constitution	-10065
▁SP	-10066
▁Ordered	-10067
▁Magazine	-10068
▁parliament	-10069
▁SdkInternal	-10070
▁Pars	-10071
ented	-10072
▁annotations	-10073
Rest	-10074
▁repeat	-10075
▁shots	-10076
▁Argent	-10077
Cursor	-10078
▁Weekly	-10079
▁quad	-10080
▁patrol	-10081
▁closest	-10082
▁constraint	-10083
▁deem	-10084
prop	-10085
▁Cleveland	-10086
▁scatter	-10087
▁widespread	-10088
################	-10089
▁temple	-10090
▁penalty	-10091
▁certified	-10092
▁serializer	-10093
256	-10094
▁ISBN	-10095
▁vide	-10096
▁define	-10097
ummy	-10098
▁Douglas	-10099
▁%(	-10100
rac	-10101
▁Illinois	-10102
1.	-10103
▁Es	-10104
▁Ger	-10105
Month	-10106
▁compound	-10107
▁distributed	-10108
▁wel	-10109
izers	-10110
▁Throughout	-10111
cd	-10112
Inf	-10113
orney	-10114
▁reversed	-10115
hist	-10116
▁"-"	-10117
Variables	-10118
▁accused	-10119
▁strongly	-10120
▁disappoint	-10121
Sql	-10122
aus	-10123
▁Ira	-10124
▁lem	-10125
▁vec	-10126
mouth	-10127
▁Lenn	-10128
heastern	-10129
uver	-10130
▁armor	-10131
Direct	-10132
▁sequel	-10133
ipl	-10134
▁policies	-10135
▁Feder	-10136
▁abspath	-10137
▁cn	-10138
ione	-10139
▁Andy	-10140
▁Ko	-10141
▁Windows	-10142
hex	-10143
Paths	-10144
atform	-10145
▁comparison	-10146
▁aver	-10147
ez	-10148
▁lowest	-10149
▁wearing	-10150
▁lastIndex	-10151
imb	-10152
▁“	-10153
hus	-10154
relation	-10155
▁attachment	-10156
gl	-10157
▁unset	-10158
▁”	-10159
unes	-10160
▁1959	-10161
install	-10162
western	-10163
▁champion	-10164
ubb	-10165
▁98	-10166
▁Jordan	-10167
Blocking	-10168
▁SdkInternalList	-10169
▁classic	-10170
▁bull	-10171
▁Oregon	-10172
▁effectively	-10173
▁Salt	-10174
▁fro	-10175
night	-10176
▁spaces	-10177
public	-10178
rv	-10179
▁Pier	-10180
Cur	-10181
▁Screen	-10182
▁symbols	-10183
flag	-10184
▁atoms	-10185
▁orbit	-10186
EC	-10187
▁Environment	-10188
▁fatal	-10189
▁Arsenal	-10190
▁appropriate	-10191
Ver	-10192
▁Connect	-10193
lv	-10194
erto	-10195
ATCH	-10196
DR	-10197
▁hip	-10198
▁gate	-10199
▁memorial	-10200
▁Kevin	-10201
▁dream	-10202
▁Freder	-10203
▁terminus	-10204
Plugin	-10205
iterranean	-10206
▁Roger	-10207
▁materials	-10208
▁translate	-10209
▁foss	-10210
Bucket	-10211
ective	-10212
▁vehicle	-10213
▁Norwegian	-10214
Ip	-10215
▁Beatles	-10216
▁Stanley	-10217
▁89	-10218
▁literary	-10219
▁Social	-10220
▁classified	-10221
▁175	-10222
▁["	-10223
▁Bruce	-10224
▁1954	-10225
▁1955	-10226
▁freedom	-10227
named	-10228
▁passage	-10229
▁destruction	-10230
▁Mediterranean	-10231
▁EMPTY	-10232
display	-10233
wan	-10234
▁unusual	-10235
▁finishing	-10236
eman	-10237
factory	-10238
▁Bristol	-10239
▁wickets	-10240
isor	-10241
▁COL	-10242
▁shr	-10243
ognition	-10244
Rad	-10245
ilers	-10246
▁stable	-10247
▁circulation	-10248
▁rooms	-10249
▁Construction	-10250
Environment	-10251
▁Sav	-10252
▁frames	-10253
UTH	-10254
vant	-10255
▁bug	-10256
▁servlet	-10257
▁authentication	-10258
▁Tenn	-10259
▁Express	-10260
▁getColumn	-10261
Before	-10262
▁thirty	-10263
ocity	-10264
▁signing	-10265
▁Additionally	-10266
wind	-10267
66	-10268
▁xy	-10269
▁begun	-10270
▁intelligence	-10271
abet	-10272
CONFIG	-10273
Capacity	-10274
rum	-10275
▁tm	-10276
eget	-10277
even	-10278
▁formula	-10279
-1$	-10280
▁Free	-10281
▁knock	-10282
▁passengers	-10283
uston	-10284
▁Bull	-10285
▁sailed	-10286
▁wa	-10287
▁ratings	-10288
ITH	-10289
buf	-10290
▁unexpected	-10291
udes	-10292
dates	-10293
▁ment	-10294
▁Within	-10295
▁Prior	-10296
▁closer	-10297
Constant	-10298
▁Dub	-10299
▁aggress	-10300
▁fictional	-10301
▁88	-10302
▁Ba	-10303
▁serves	-10304
▁getDecl	-10305
agonist	-10306
▁downtown	-10307
▁speaking	-10308
aki	-10309
▁Federal	-10310
▁Instance	-10311
riers	-10312
▁faces	-10313
Display	-10314
▁minister	-10315
▁"\"	-10316
egate	-10317
▁hill	-10318
pn	-10319
Test	-10320
Year	-10321
▁CLASS	-10322
▁phone	-10323
▁sounds	-10324
▁Mexican	-10325
▁Bush	-10326
▁Option	-10327
▁atmosphere	-10328
▁×	-10329
▁getInt	-10330
▁assistance	-10331
car	-10332
▁84	-10333
async	-10334
▁Describe	-10335
mgmt	-10336
▁missions	-10337
▁commanded	-10338
▁implemented	-10339
▁sons	-10340
▁attributed	-10341
▁PAR	-10342
▁fruit	-10343
▁intercept	-10344
▁statements	-10345
▁occasionally	-10346
▁Pit	-10347
▁Design	-10348
▁dd	-10349
▁swim	-10350
▁Range	-10351
▁driven	-10352
?"	-10353
Period	-10354
▁handled	-10355
ATED	-10356
▁bringing	-10357
▁chemical	-10358
▁ow	-10359
FORMAT	-10360
▁chunks	-10361
▁ticket	-10362
Bits	-10363
mediate	-10364
▁aer	-10365
▁1024	-10366
rapped	-10367
▁Real	-10368
▁responsibility	-10369
distance	-10370
▁feeling	-10371
▁72	-10372
ancer	-10373
▁isValid	-10374
▁compareTo	-10375
▁technical	-10376
DIR	-10377
ami	-10378
▁Around	-10379
▁credit	-10380
▁sed	-10381
star	-10382
payload	-10383
▁incorporated	-10384
▁Eric	-10385
▁architecture	-10386
▁Robinson	-10387
borne	-10388
▁Korea	-10389
▁communities	-10390
▁Unlike	-10391
▁disappe	-10392
arator	-10393
mo	-10394
▁alleged	-10395
▁getFile	-10396
▁relationships	-10397
▁supplied	-10398
▁Lisa	-10399
▁noise	-10400
▁holds	-10401
PointerException	-10402
▁Dog	-10403
▁pipe	-10404
READ	-10405
▁consult	-10406
▁easy	-10407
Detail	-10408
▁interior	-10409
agent	-10410
▁1900	-10411
▁Fame	-10412
STRING	-10413
▁demol	-10414
▁stayed	-10415
▁choices	-10416
success	-10417
▁gone	-10418
▁chorus	-10419
▁deliver	-10420
byte	-10421
Validator	-10422
▁indicate	-10423
Split	-10424
losing	-10425
▁volunte	-10426
▁accommod	-10427
▁"(	-10428
▁predicted	-10429
MOD	-10430
▁Bed	-10431
celled	-10432
storage	-10433
▁Scient	-10434
▁behavi	-10435
▁emerged	-10436
▁recursive	-10437
▁regularly	-10438
▁VI	-10439
Objects	-10440
convert	-10441
▁1952	-10442
orders	-10443
▁Whe	-10444
▁nn	-10445
nold	-10446
▁Mun	-10447
ographer	-10448
▁Perform	-10449
▁trunc	-10450
Import	-10451
▁Morris	-10452
Expected	-10453
▁Prom	-10454
▁divisions	-10455
▁Mot	-10456
▁shore	-10457
▁friendly	-10458
1,	-10459
pub	-10460
▁mail	-10461
▁theatre	-10462
icator	-10463
▁IAtom	-10464
history	-10465
▁classical	-10466
.*	-10467
▁releases	-10468
▁announce	-10469
dbc	-10470
▁Phill	-10471
CHAR	-10472
▁deriv	-10473
▁Norman	-10474
Tx	-10475
▁establishment	-10476
threshold	-10477
▁measures	-10478
LEMENT	-10479
ONG	-10480
poses	-10481
▁Pur	-10482
▁province	-10483
anga	-10484
▁Fish	-10485
▁prey	-10486
▁simpl	-10487
▁cavalry	-10488
▁ster	-10489
▁dissip	-10490
▁Premier	-10491
soft	-10492
coords	-10493
▁klass	-10494
▁surviving	-10495
USER	-10496
▁shock	-10497
▁difficulty	-10498
▁percentage	-10499
repo	-10500
▁UTF	-10501
orrow	-10502
▁Sweden	-10503
▁Convert	-10504
▁packages	-10505
▁decorator	-10506
▁1933	-10507
rating	-10508
aser	-10509
vec	-10510
avor	-10511
▁tub	-10512
product	-10513
▁ClassLoader	-10514
▁Rain	-10515
▁collapse	-10516
38	-10517
▁Television	-10518
seud	-10519
ascii	-10520
▁reinforce	-10521
2:	-10522
ROUP	-10523
▁Hawai	-10524
ingly	-10525
iki	-10526
hard	-10527
▁Techn	-10528
▁Nelson	-10529
elements	-10530
▁Allen	-10531
▁isdir	-10532
▁Morgan	-10533
Site	-10534
▁protein	-10535
▁electron	-10536
▁rose	-10537
▁operate	-10538
sequently	-10539
▁attracted	-10540
▁dub	-10541
culate	-10542
▁climate	-10543
Constraints	-10544
▁persu	-10545
anny	-10546
mann	-10547
unny	-10548
▁circuit	-10549
agle	-10550
▁Bah	-10551
▁agents	-10552
▁legacy	-10553
Font	-10554
oslav	-10555
Remote	-10556
▁clubs	-10557
▁fitted	-10558
▁tip	-10559
▁reality	-10560
agre	-10561
▁threads	-10562
aza	-10563
alog	-10564
ashes	-10565
▁1935	-10566
Artifact	-10567
structure	-10568
▁SC	-10569
▁Flo	-10570
▁Thus	-10571
vector	-10572
▁sculpt	-10573
counter	-10574
▁flank	-10575
▁getFirst	-10576
ctx	-10577
▁cruiser	-10578
▁Wy	-10579
loyd	-10580
▁getContent	-10581
▁FOL	-10582
▁caller	-10583
▁locals	-10584
▁Prot	-10585
▁Hug	-10586
▁eat	-10587
Route	-10588
▁flash	-10589
▁aboard	-10590
▁desire	-10591
Rect	-10592
▁anchor	-10593
▁dependencies	-10594
Ne	-10595
▁Mari	-10596
Services	-10597
fetch	-10598
▁Ford	-10599
▁surpr	-10600
▁62	-10601
Score	-10602
▁digit	-10603
▁carbon	-10604
xx	-10605
▁eleven	-10606
Constructor	-10607
▁pip	-10608
▁Patrick	-10609
▁Ur	-10610
▁Budd	-10611
▁seemed	-10612
▁understand	-10613
pus	-10614
▁Pair	-10615
▁Again	-10616
▁stood	-10617
▁movements	-10618
▁musicians	-10619
▁eru	-10620
▁Nich	-10621
▁nm	-10622
okie	-10623
Topic	-10624
cloud	-10625
▁Welsh	-10626
▁deployed	-10627
avel	-10628
▁DNA	-10629
▁1949	-10630
▁1951	-10631
▁Pow	-10632
▁Jacob	-10633
▁confirm	-10634
▁Template	-10635
▁Hand	-10636
▁Toronto	-10637
vh	-10638
▁flatten	-10639
▁Admin	-10640
▁excess	-10641
▁continuous	-10642
▁facility	-10643
▁"\\	-10644
▁Ever	-10645
Exists	-10646
▁happened	-10647
▁outbreak	-10648
Driver	-10649
▁falling	-10650
▁workflow	-10651
▁absor	-10652
▁Nations	-10653
▁funding	-10654
▁representing	-10655
argo	-10656
teenth	-10657
required	-10658
▁historic	-10659
FormatException	-10660
ucks	-10661
▁Byzantine	-10662
dy	-10663
▁("	-10664
▁favorite	-10665
ignore	-10666
().	-10667
issue	-10668
feature	-10669
▁battleships	-10670
bell	-10671
▁exactly	-10672
▁canvas	-10673
▁surviv	-10674
Wait	-10675
arshal	-10676
▁hoped	-10677
▁Storage	-10678
ITION	-10679
▁OSError	-10680
▁acknowled	-10681
kes	-10682
Mask	-10683
▁Dick	-10684
▁recru	-10685
▁Native	-10686
▁weapon	-10687
▁revision	-10688
hy	-10689
train	-10690
Flag	-10691
▁processes	-10692
web	-10693
ARNING	-10694
▁Logger	-10695
▁crosses	-10696
serialize	-10697
▁curve	-10698
▁somewhat	-10699
▁surrounded	-10700
▁Remote	-10701
▁Netherlands	-10702
▁"#	-10703
▁historians	-10704
IDs	-10705
rent	-10706
▁Close	-10707
▁dipl	-10708
36	-10709
git	-10710
▁ALL	-10711
blocks	-10712
wen	-10713
▁61	-10714
▁basketball	-10715
fp	-10716
▁runner	-10717
Implemented	-10718
▁suit	-10719
▁Front	-10720
▁nc	-10721
▁Sax	-10722
▁programme	-10723
================	-10724
pair	-10725
▁heading	-10726
▁greatly	-10727
ige	-10728
ixels	-10729
uv	-10730
rity	-10731
▁biggest	-10732
▁virt	-10733
▁inspiration	-10734
▁owners	-10735
▁treated	-10736
▁Organ	-10737
lation	-10738
Generic	-10739
▁routing	-10740
NUM	-10741
▁Lanc	-10742
▁enlist	-10743
▁pushed	-10744
▁anniversary	-10745
▁Dean	-10746
▁acquire	-10747
▁massive	-10748
▁Jews	-10749
Available	-10750
▁premiere	-10751
▁batting	-10752
▁carrier	-10753
▁characteristics	-10754
▁CE	-10755
▁teen	-10756
▁Bishop	-10757
▁conver	-10758
▁detailed	-10759
.%	-10760
urrence	-10761
tokens	-10762
▁listing	-10763
▁getChild	-10764
ellite	-10765
▁USS	-10766
▁instruments	-10767
aka	-10768
▁MET	-10769
ountry	-10770
▁Release	-10771
▁medium	-10772
GE	-10773
▁buy	-10774
▁injuries	-10775
atial	-10776
▁unsuccessful	-10777
Authentication	-10778
member	-10779
▁updater	-10780
▁normalized	-10781
▁Collect	-10782
DER	-10783
▁Kat	-10784
▁hull	-10785
▁USA	-10786
rypto	-10787
▁claiming	-10788
▁trials	-10789
Snapshot	-10790
reference	-10791
▁TAG	-10792
ultane	-10793
▁spoke	-10794
▁afterwards	-10795
▁OK	-10796
Float	-10797
ULE	-10798
▁praise	-10799
▁tunnel	-10800
▁forming	-10801
Monitor	-10802
aste	-10803
▁wed	-10804
▁remn	-10805
osaurus	-10806
▁stands	-10807
!'	-10808
▁Ak	-10809
cour	-10810
▁Temple	-10811
▁qualified	-10812
Don	-10813
▁aux	-10814
▁Iraq	-10815
▁adaptation	-10816
▁fh	-10817
CONDS	-10818
▁density	-10819
▁Geometry	-10820
losure	-10821
inction	-10822
▁Control	-10823
▁questions	-10824
▁prox	-10825
ogen	-10826
▁seeing	-10827
CODE	-10828
▁plate	-10829
▁continuing	-10830
PR	-10831
▁delivery	-10832
▁leads	-10833
▁faster	-10834
REF	-10835
▁dismissed	-10836
▁PA	-10837
steps	-10838
▁Finn	-10839
Plan	-10840
▁starred	-10841
▁{0}'	-10842
eli	-10843
ythm	-10844
▁Marine	-10845
LIST	-10846
▁Centre	-10847
▁Ts	-10848
Dataset	-10849
exc	-10850
oker	-10851
▁ash	-10852
models	-10853
▁changing	-10854
tp	-10855
▁anyone	-10856
▁OR	-10857
▁documentary	-10858
▁Corporation	-10859
erset	-10860
▁Mit	-10861
asic	-10862
mons	-10863
▁Anne	-10864
▁Thompson	-10865
▁Dict	-10866
ego	-10867
▁bear	-10868
Predicate	-10869
year	-10870
▁Raj	-10871
▁meets	-10872
▁Croatian	-10873
pet	-10874
▁wins	-10875
▁trained	-10876
▁Sin	-10877
ivated	-10878
▁girls	-10879
▁bon	-10880
▁CharSequence	-10881
▁getAbsolutePath	-10882
ftime	-10883
▁'{}'	-10884
onymous	-10885
IZ	-10886
▁involvement	-10887
SL	-10888
admin	-10889
▁wheel	-10890
▁maintenance	-10891
▁AN	-10892
▁Russell	-10893
▁everyone	-10894
Eval	-10895
▁Armen	-10896
aver	-10897
summary	-10898
▁bombard	-10899
▁temperatures	-10900
▁eggs	-10901
Equ	-10902
▁looked	-10903
▁absence	-10904
▁existed	-10905
▁convinced	-10906
▁arange	-10907
▁Recognition	-10908
▁Islam	-10909
▁NFL	-10910
Look	-10911
▁sale	-10912
▁sight	-10913
Grid	-10914
Comment	-10915
▁FOLLOW	-10916
▁bypass	-10917
▁"$	-10918
▁Types	-10919
▁entities	-10920
LINE	-10921
▁Late	-10922
unicode	-10923
▁Puerto	-10924
▁interests	-10925
▁uncertain	-10926
▁secured	-10927
nn	-10928
▁Fast	-10929
▁races	-10930
▁Winter	-10931
▁reviewer	-10932
iva	-10933
▁Mars	-10934
XX	-10935
Exit	-10936
clean	-10937
▁rename	-10938
▁Holy	-10939
▁xs	-10940
area	-10941
Prob	-10942
reck	-10943
urer	-10944
▁Kelly	-10945
▁Modern	-10946
▁unless	-10947
▁displayed	-10948
▁techniques	-10949
▁fault	-10950
▁Carter	-10951
▁tornado	-10952
▁Register	-10953
▁medieval	-10954
region	-10955
▁handlers	-10956
Syntax	-10957
enabled	-10958
▁vertices	-10959
_3	-10960
▁86	-10961
▁Ast	-10962
▁constit	-10963
▁adjacent	-10964
acher	-10965
▁fighter	-10966
▁handling	-10967
▁superior	-10968
▁presidential	-10969
▁lies	-10970
▁thrown	-10971
▁informed	-10972
inals	-10973
▁Script	-10974
▁ul	-10975
▁airport	-10976
▁exposed	-10977
aire	-10978
Flags	-10979
▁CONT	-10980
▁inputStream	-10981
▁Hend	-10982
▁academic	-10983
▁Jam	-10984
▁Along	-10985
Html	-10986
▁POST	-10987
▁roots	-10988
▁iteration	-10989
orph	-10990
▁mine	-10991
▁passenger	-10992
obile	-10993
▁rates	-10994
▁standards	-10995
▁accomp	-10996
▁normally	-10997
0:	-10998
▁cul	-10999
▁redis	-11000
▁license	-11001
▁Niel	-11002
▁ninth	-11003
▁colonial	-11004
Real	-11005
▁adults	-11006
▁throne	-11007
▁streets	-11008
▁bid	-11009
▁arrangement	-11010
itzer	-11011
▁Sports	-11012
iat	-11013
▁stress	-11014
Cook	-11015
Distance	-11016
▁diameter	-11017
alo	-11018
▁ui	-11019
▁Hungarian	-11020
▁Marc	-11021
▁bins	-11022
▁submitted	-11023
▁om	-11024
▁alien	-11025
▁loyal	-11026
▁commem	-11027
▁appearing	-11028
2"	-11029
▁getTable	-11030
▁conclusion	-11031
ifts	-11032
SELECT	-11033
img	-11034
igg	-11035
users	-11036
umeric	-11037
▁Da	-11038
▁jj	-11039
Tasks	-11040
commit	-11041
▁Harris	-11042
▁concrete	-11043
Gateway	-11044
▁engineer	-11045
▁Story	-11046
weights	-11047
▁deemed	-11048
▁Wright	-11049
▁yaml	-11050
PI	-11051
▁submarine	-11052
▁Aff	-11053
▁Gard	-11054
▁elections	-11055
▁premiered	-11056
cap	-11057
eps	-11058
▁1913	-11059
▁Deb	-11060
▁Meg	-11061
▁tie	-11062
wealth	-11063
Bind	-11064
▁Est	-11065
▁depos	-11066
75	-11067
▁bat	-11068
▁Single	-11069
COUNT	-11070
▁wings	-11071
▁Parker	-11072
▁END	-11073
▁Trust	-11074
▁Grid	-11075
▁descend	-11076
▁universe	-11077
rr	-11078
▁Objects	-11079
▁cancelled	-11080
▁Labor	-11081
▁attacking	-11082
▁arrays	-11083
▁repair	-11084
▁sector	-11085
▁restart	-11086
▁partn	-11087
▁Batman	-11088
▁forEach	-11089
▁romantic	-11090
regex	-11091
short	-11092
▁grammar	-11093
▁aggregate	-11094
▁setText	-11095
TA	-11096
alias	-11097
▁representative	-11098
▁bs	-11099
mate	-11100
▁1926	-11101
▁Murray	-11102
▁IndexError	-11103
▁representation	-11104
Closed	-11105
▁dating	-11106
▁painted	-11107
\""	-11108
sha	-11109
▁Dra	-11110
ronze	-11111
▁1927	-11112
covery	-11113
descri	-11114
▁landed	-11115
▁encouraged	-11116
▁insect	-11117
▁interpol	-11118
▁terminal	-11119
▁linear	-11120
▁adm	-11121
▁colony	-11122
▁Lyn	-11123
▁retirement	-11124
▁constraints	-11125
nie	-11126
safe	-11127
▁fled	-11128
▁dominated	-11129
31	-11130
▁cpu	-11131
START	-11132
Complete	-11133
▁Merc	-11134
▁Refer	-11135
▁pointer	-11136
omatic	-11137
igration	-11138
▁sending	-11139
▁lake	-11140
▁convection	-11141
▁Area	-11142
▁mapped	-11143
▁rescue	-11144
vl	-11145
▁1921	-11146
▁lift	-11147
▁legislation	-11148
REG	-11149
▁Pak	-11150
▁judge	-11151
▁suffering	-11152
bb	-11153
usal	-11154
▁1934	-11155
▁Knight	-11156
HERE	-11157
▁ped	-11158
▁Nob	-11159
▁ali	-11160
ducer	-11161
▁Circ	-11162
▁ridge	-11163
▁improv	-11164
fc	-11165
▁Bang	-11166
missing	-11167
condition	-11168
uris	-11169
▁Utils	-11170
▁Education	-11171
▁pound	-11172
▁stead	-11173
▁controversial	-11174
▁zoom	-11175
▁backing	-11176
▁surrender	-11177
sea	-11178
Attempt	-11179
▁believes	-11180
ableFuture	-11181
▁Execution	-11182
▁emergency	-11183
▁apparently	-11184
▁setAttribute	-11185
▁rum	-11186
Factor	-11187
▁synthes	-11188
▁gp	-11189
mass	-11190
▁tone	-11191
▁cancer	-11192
▁Commander	-11193
▁isNot	-11194
▁ClassNotFound	-11195
▁Wis	-11196
▁Cloud	-11197
▁Intern	-11198
▁Police	-11199
▁getLog	-11200
ixon	-11201
olph	-11202
jection	-11203
ogether	-11204
▁Houston	-11205
▁fraction	-11206
esis	-11207
urches	-11208
AsString	-11209
oa	-11210
yo	-11211
emp	-11212
▁grass	-11213
ón	-11214
▁gro	-11215
▁Berlin	-11216
roit	-11217
links	-11218
▁Jar	-11219
▁pp	-11220
▁900	-11221
▁achieve	-11222
▁Palace	-11223
fare	-11224
▁depicted	-11225
▁Virtual	-11226
▁proport	-11227
▁deepcopy	-11228
lean	-11229
▁Tok	-11230
▁sib	-11231
▁receiver	-11232
▁subjects	-11233
▁1912	-11234
▁sees	-11235
▁intValue	-11236
MO	-11237
race	-11238
▁sudden	-11239
download	-11240
▁habitat	-11241
▁preserve	-11242
dn	-11243
▁remix	-11244
▁Inet	-11245
▁Santa	-11246
▁corresponding	-11247
emet	-11248
▁Advent	-11249
▁isTrace	-11250
▁joining	-11251
Des	-11252
▁FINE	-11253
▁Output	-11254
▁ranking	-11255
▁entertain	-11256
▁colle	-11257
▁minimal	-11258
widget	-11259
▁craft	-11260
▁Enum	-11261
▁wasn	-11262
▁Swedish	-11263
So	-11264
▁clusters	-11265
▁gamma	-11266
AccessException	-11267
abinet	-11268
memory	-11269
NECT	-11270
▁Commonwealth	-11271
▁NotImplemented	-11272
Buff	-11273
▁approval	-11274
▁chairman	-11275
▁rhs	-11276
ushing	-11277
▁branches	-11278
ulner	-11279
▁confront	-11280
▁'$	-11281
burn	-11282
▁grav	-11283
angers	-11284
asions	-11285
▁alternate	-11286
▁OrderedDict	-11287
Fin	-11288
▁ATT	-11289
ugoslav	-11290
amer	-11291
ysical	-11292
▁isolated	-11293
ivan	-11294
Rules	-11295
Total	-11296
endpoint	-11297
([	-11298
auto	-11299
▁archae	-11300
▁"0	-11301
▁Kar	-11302
▁1932	-11303
▁chapter	-11304
ifer	-11305
Literal	-11306
▁Hospital	-11307
aints	-11308
▁legs	-11309
▁topology	-11310
▁neck	-11311
▁dims	-11312
vs	-11313
▁truth	-11314
▁Indians	-11315
insert	-11316
External	-11317
▁conflic	-11318
▁Cur	-11319
▁railroad	-11320
▁narrative	-11321
48	-11322
▁Seat	-11323
Errors	-11324
▁Warner	-11325
▁picked	-11326
▁retain	-11327
39	-11328
▁bb	-11329
omot	-11330
▁Git	-11331
▁FROM	-11332
▁keeping	-11333
▁permissions	-11334
▁configured	-11335
▁fut	-11336
▁moderate	-11337
▁RAAF	-11338
posite	-11339
Unique	-11340
▁coins	-11341
ynchron	-11342
▁belt	-11343
▁swap	-11344
▁accum	-11345
emetery	-11346
▁helper	-11347
mut	-11348
▁validator	-11349
Selection	-11350
▁compatible	-11351
▁watching	-11352
ancel	-11353
.\	-11354
▁Mort	-11355
▁skills	-11356
▁Imp	-11357
▁poet	-11358
▁drawing	-11359
▁depending	-11360
ogue	-11361
onts	-11362
▁formerly	-11363
▁numberOf	-11364
pare	-11365
▁bes	-11366
ulating	-11367
▁illegal	-11368
Draw	-11369
▁hear	-11370
▁Jason	-11371
▁Validate	-11372
▁conversation	-11373
Upload	-11374
lookup	-11375
Setting	-11376
Arch	-11377
sent	-11378
▁garrison	-11379
▁turb	-11380
▁retreat	-11381
chars	-11382
▁Runnable	-11383
lings	-11384
▁Yugoslav	-11385
▁NBC	-11386
erred	-11387
aska	-11388
▁giant	-11389
▁influences	-11390
pb	-11391
ye	-11392
▁RAF	-11393
▁videos	-11394
▁Anthony	-11395
weet	-11396
▁stuff	-11397
BER	-11398
▁environmental	-11399
▁bats	-11400
▁dialect	-11401
▁ndarray	-11402
yy	-11403
▁hyper	-11404
▁siege	-11405
stances	-11406
▁Silver	-11407
bind	-11408
▁escort	-11409
▁lob	-11410
Tool	-11411
▁festival	-11412
▁ocean	-11413
ounters	-11414
▁influential	-11415
hor	-11416
▁Health	-11417
▁accompl	-11418
▁spr	-11419
▁huge	-11420
▁victims	-11421
▁Core	-11422
Global	-11423
append	-11424
encing	-11425
▁veter	-11426
VICE	-11427
Admin	-11428
▁wire	-11429
▁Croatia	-11430
▁ride	-11431
▁pointed	-11432
▁Detroit	-11433
▁resolver	-11434
▁SAX	-11435
▁Bure	-11436
▁geom	-11437
▁thin	-11438
▁experiences	-11439
amps	-11440
▁cli	-11441
▁Rick	-11442
▁novels	-11443
▁ic	-11444
▁Pope	-11445
▁exposure	-11446
▁ba	-11447
▁lose	-11448
▁detected	-11449
▁fw	-11450
▁emotional	-11451
3.	-11452
▁projection	-11453
Hex	-11454
obi	-11455
noon	-11456
Accept	-11457
▁cub	-11458
▁Gaga	-11459
▁mess	-11460
▁HttpResponse	-11461
Bond	-11462
iliar	-11463
▁1911	-11464
▁prag	-11465
▁slave	-11466
▁isNull	-11467
▁Zip	-11468
agram	-11469
▁1929	-11470
▁purposes	-11471
▁discussed	-11472
Edit	-11473
Feat	-11474
oned	-11475
agen	-11476
▁trend	-11477
▁partially	-11478
late	-11479
▁Gall	-11480
Character	-11481
before	-11482
rome	-11483
▁Cru	-11484
arked	-11485
▁happy	-11486
▁magnitude	-11487
▁facing	-11488
▁journalist	-11489
Encoder	-11490
▁childhood	-11491
mad	-11492
▁PC	-11493
▁140	-11494
hemat	-11495
▁Player	-11496
▁consume	-11497
▁Comb	-11498
▁veget	-11499
▁Chamber	-11500
oking	-11501
▁assass	-11502
▁enters	-11503
▁defended	-11504
▁junction	-11505
Static	-11506
INFO	-11507
MESS	-11508
▁alco	-11509
▁pregn	-11510
▁firing	-11511
▁courts	-11512
▁cleanup	-11513
▁COM	-11514
▁guess	-11515
▁asarray	-11516
▁controls	-11517
Subscription	-11518
owa	-11519
Full	-11520
▁Stock	-11521
▁Report	-11522
bins	-11523
▁scr	-11524
▁Spears	-11525
▁Put	-11526
45	-11527
away	-11528
▁SSL	-11529
▁advice	-11530
▁refers	-11531
▁Princess	-11532
Lat	-11533
▁SD	-11534
▁1931	-11535
chell	-11536
uther	-11537
▁Unit	-11538
▁Basic	-11539
▁Sher	-11540
▁offices	-11541
▁hundreds	-11542
▁publisher	-11543
compat	-11544
▁prevented	-11545
COD	-11546
▁1922	-11547
▁Asian	-11548
▁digits	-11549
▁volumes	-11550
▁Marshall	-11551
acon	-11552
eras	-11553
▁Writing	-11554
▁Jesus	-11555
▁thousand	-11556
rystal	-11557
▁codes	-11558
▁speak	-11559
running	-11560
rm	-11561
RAY	-11562
▁128	-11563
▁maps	-11564
▁hunting	-11565
▁etc	-11566
▁Cooper	-11567
phabet	-11568
resents	-11569
imore	-11570
UST	-11571
tasks	-11572
Separator	-11573
▁Melbourne	-11574
▁wooden	-11575
▁simultane	-11576
COMP	-11577
▁Reb	-11578
Shape	-11579
▁Tower	-11580
endment	-11581
document	-11582
▁Nielsen	-11583
▁encoder	-11584
▁atomic	-11585
▁Stewart	-11586
▁Ut	-11587
▁Horse	-11588
▁WS	-11589
drop	-11590
▁upgraded	-11591
▁primitive	-11592
▁Nev	-11593
▁bridges	-11594
▁basestring	-11595
Temp	-11596
failed	-11597
▁handed	-11598
▁alive	-11599
▁visitors	-11600
hatt	-11601
▁Stat	-11602
entries	-11603
▁reveals	-11604
▁Nevertheless	-11605
protocol	-11606
▁resigned	-11607
▁checkArgument	-11608
Cert	-11609
▁covers	-11610
▁tb	-11611
▁Vice	-11612
▁gay	-11613
outing	-11614
▁Clinton	-11615
jar	-11616
▁EOF	-11617
members	-11618
species	-11619
▁Xbox	-11620
▁soap	-11621
▁agree	-11622
umeration	-11623
oli	-11624
isen	-11625
')	-11626
Stop	-11627
▁Foundation	-11628
▁replaceAll	-11629
▁Lex	-11630
▁SET	-11631
▁bbox	-11632
▁suitable	-11633
▁ON	-11634
▁Blo	-11635
▁forecast	-11636
▁shear	-11637
▁compilation	-11638
▁odd	-11639
▁Rule	-11640
▁Evans	-11641
Core	-11642
anth	-11643
▁Are	-11644
▁useful	-11645
forced	-11646
▁thereafter	-11647
reece	-11648
▁mock	-11649
▁impr	-11650
wich	-11651
bus	-11652
acer	-11653
▁Guy	-11654
▁peek	-11655
▁{0}"	-11656
remote	-11657
catalog	-11658
▁resign	-11659
Duration	-11660
▁formally	-11661
▁opponents	-11662
▁mime	-11663
▁fc	-11664
▁nu	-11665
▁Oak	-11666
▁loading	-11667
▁DC	-11668
▁Heavy	-11669
▁drums	-11670
▁observations	-11671
▁HE	-11672
▁blank	-11673
▁txt	-11674
▁rstrip	-11675
ntil	-11676
imeter	-11677
▁vision	-11678
tailf	-11679
▁abb	-11680
▁moments	-11681
ilon	-11682
▁slug	-11683
▁Atlant	-11684
▁modify	-11685
▁participate	-11686
Extract	-11687
apol	-11688
▁"_"	-11689
▁tools	-11690
▁footage	-11691
▁guarant	-11692
▁newBuilder	-11693
▁06	-11694
▁Rey	-11695
▁flew	-11696
▁toll	-11697
▁intense	-11698
HTTP	-11699
login	-11700
▁desert	-11701
▁Initially	-11702
▁membership	-11703
▁reportedly	-11704
ugar	-11705
▁href	-11706
cluding	-11707
▁Turkish	-11708
▁Samuel	-11709
▁getLast	-11710
▁lengths	-11711
▁notably	-11712
▁Argument	-11713
leaf	-11714
▁Deprecated	-11715
andra	-11716
tk	-11717
Click	-11718
uples	-11719
▁canal	-11720
▁accompany	-11721
▁Var	-11722
static	-11723
▁Carib	-11724
▁EP	-11725
▁liqu	-11726
extract	-11727
▁inhabit	-11728
▁dialogue	-11729
▁Wing	-11730
▁Lennon	-11731
▁poetry	-11732
▁employees	-11733
▁specimens	-11734
VENT	-11735
Tuple	-11736
estone	-11737
Fragment	-11738
▁provision	-11739
Credentials	-11740
▁hearing	-11741
▁fat	-11742
▁Canal	-11743
▁Sarah	-11744
▁Parser	-11745
Print	-11746
▁stores	-11747
ocker	-11748
▁Sem	-11749
▁rdf	-11750
▁{1}	-11751
▁Greece	-11752
▁whereas	-11753
▁departed	-11754
▁imported	-11755
▁Anton	-11756
▁processor	-11757
▁neighborhood	-11758
defined	-11759
▁Albums	-11760
▁Baltimore	-11761
▁Having	-11762
▁TIME	-11763
▁MS	-11764
▁Module	-11765
▁Austria	-11766
▁represents	-11767
▁lastIndexOf	-11768
▁Mi	-11769
▁commemor	-11770
▁identify	-11771
▁getAnnotation	-11772
Pane	-11773
▁Dal	-11774
▁Bird	-11775
▁frequent	-11776
kind	-11777
▁combine	-11778
▁Edd	-11779
▁vocab	-11780
▁observation	-11781
▁Si	-11782
Join	-11783
▁Queens	-11784
▁residential	-11785
!!	-11786
effic	-11787
▁Matcher	-11788
▁"]	-11789
iguous	-11790
▁circle	-11791
▁constants	-11792
▁substantial	-11793
▁BufferedReader	-11794
▁exclusive	-11795
▁impossible	-11796
oir	-11797
Cols	-11798
▁filed	-11799
▁Tal	-11800
false	-11801
xygen	-11802
defaults	-11803
▁criminal	-11804
puty	-11805
▁getIn	-11806
Register	-11807
▁Notification	-11808
▁Publish	-11809
▁beam	-11810
▁organizations	-11811
wb	-11812
▁Gun	-11813
▁Lane	-11814
Media	-11815
reset	-11816
uations	-11817
▁valley	-11818
cfg	-11819
▁82	-11820
▁CS	-11821
▁lst	-11822
▁Benn	-11823
▁Anglo	-11824
▁closure	-11825
din	-11826
oly	-11827
▁looks	-11828
▁Hell	-11829
▁prohib	-11830
ials	-11831
▁Colorado	-11832
located	-11833
_'	-11834
oen	-11835
chen	-11836
osition	-11837
raction	-11838
▁Country	-11839
▁Progress	-11840
▁vice	-11841
▁Legacy	-11842
▁recovery	-11843
▁rebell	-11844
▁falls	-11845
▁flood	-11846
▁convoy	-11847
▁cruisers	-11848
illar	-11849
▁readers	-11850
▁EPackage	-11851
▁confidence	-11852
WA	-11853
▁vessel	-11854
▁Slo	-11855
▁initi	-11856
records	-11857
▁impressed	-11858
puted	-11859
ropolitan	-11860
LY	-11861
▁prime	-11862
▁reviewers	-11863
UMN	-11864
nce	-11865
▁eNS	-11866
▁Human	-11867
▁territories	-11868
fill	-11869
▁Mir	-11870
▁Hans	-11871
▁gray	-11872
Py	-11873
▁rounds	-11874
▁sparse	-11875
RENT	-11876
Running	-11877
security	-11878
▁creative	-11879
▁getIndex	-11880
ulator	-11881
eto	-11882
▁Cond	-11883
▁setP	-11884
▁discard	-11885
lux	-11886
▁aged	-11887
println	-11888
▁afternoon	-11889
▁designer	-11890
▁rm	-11891
▁Represent	-11892
ebook	-11893
▁goods	-11894
▁sympt	-11895
▁Malays	-11896
rig	-11897
▁Sym	-11898
astore	-11899
▁verse	-11900
ullivan	-11901
▁taught	-11902
+'	-11903
rose	-11904
▁beach	-11905
tered	-11906
▁Pack	-11907
▁centers	-11908
arguments	-11909
▁Ovh	-11910
▁ioe	-11911
▁getRoot	-11912
Binary	-11913
▁Tan	-11914
▁Frederick	-11915
▁elsewhere	-11916
▁serialized	-11917
▁'[	-11918
Allowed	-11919
▁forcing	-11920
▁setName	-11921
▁HT	-11922
▁Somerset	-11923
▁getStart	-11924
▁LinkedList	-11925
▁mv	-11926
urance	-11927
▁nx	-11928
▁Inc	-11929
▁soil	-11930
▁enthus	-11931
▁imprison	-11932
Raw	-11933
▁Ark	-11934
><	-11935
▁1928	-11936
Simple	-11937
Section	-11938
ilst	-11939
El	-11940
Opt	-11941
iami	-11942
▁visitor	-11943
umin	-11944
▁mart	-11945
▁overse	-11946
▁Wrestling	-11947
44	-11948
▁Complet	-11949
▁restricted	-11950
images	-11951
▁rarely	-11952
▁extreme	-11953
▁Label	-11954
connected	-11955
▁consistent	-11956
umph	-11957
ifies	-11958
▁elevation	-11959
▁transformed	-11960
▁feud	-11961
▁Stack	-11962
▁teeth	-11963
▁manage	-11964
▁technique	-11965
estyle	-11966
▁partly	-11967
lie	-11968
Weight	-11969
placement	-11970
ho	-11971
▁canonical	-11972
▁negotiations	-11973
▁surg	-11974
▁triple	-11975
▁Gilbert	-11976
▁Sequence	-11977
▁08	-11978
////	-11979
codes	-11980
▁weekend	-11981
▁73	-11982
INTER	-11983
bucket	-11984
▁conj	-11985
athers	-11986
unknown	-11987
▁Cell	-11988
modules	-11989
▁Mario	-11990
naissance	-11991
▁AND	-11992
▁1925	-11993
▁Anna	-11994
▁Callable	-11995
tructure	-11996
▁Certificate	-11997
tab	-11998
▁msgs	-11999
icians	-12000
▁subset	-12001
Processing	-12002
▁suspended	-12003
Auto	-12004
ante	-12005
▁Fal	-12006
mates	-12007
▁Must	-12008
▁meter	-12009
avar	-12010
▁withdrew	-12011
▁junior	-12012
▁checked	-12013
▁founder	-12014
▁Lar	-12015
CACHE	-12016
▁Domin	-12017
▁shall	-12018
▁correspond	-12019
segment	-12020
▁Horn	-12021
metrics	-12022
▁scholars	-12023
▁traveled	-12024
delta	-12025
Invocation	-12026
▁preserved	-12027
▁getEPackage	-12028
▁Cz	-12029
▁reun	-12030
▁Giants	-12031
px	-12032
CW	-12033
▁helic	-12034
▁sa	-12035
▁ve	-12036
opping	-12037
TP	-12038
▁1890	-12039
▁Writer	-12040
▁09	-12041
orous	-12042
▁Miami	-12043
▁pounds	-12044
▁formatted	-12045
▁engineering	-12046
▁lhs	-12047
keep	-12048
Commit	-12049
``	-12050
ARD	-12051
series	-12052
andidate	-12053
▁Seattle	-12054
cm	-12055
▁hunt	-12056
▁ethnic	-12057
ictionary	-12058
▁deter	-12059
▁precip	-12060
▁turrets	-12061
▁compiled	-12062
▁recordings	-12063
▁1924	-12064
▁hi	-12065
heim	-12066
ESSION	-12067
▁crop	-12068
▁pw	-12069
▁apprec	-12070
▁finals	-12071
▁ranks	-12072
▁crisis	-12073
▁stick	-12074
▁reward	-12075
▁printed	-12076
▁indicates	-12077
route	-12078
▁interesting	-12079
▁Championships	-12080
▁Soon	-12081
decode	-12082
▁latitude	-12083
▁spending	-12084
▁personality	-12085
▁orchestr	-12086
tas	-12087
Screen	-12088
▁squad	-12089
neg	-12090
▁OP	-12091
plus	-12092
ivile	-12093
single	-12094
▁expensive	-12095
▁duplicate	-12096
aa	-12097
▁photo	-12098
▁prosec	-12099
▁specify	-12100
urable	-12101
placed	-12102
athered	-12103
▁anticip	-12104
▁estimate	-12105
▁Mess	-12106
▁Micro	-12107
channels	-12108
ussian	-12109
▁exceed	-12110
67	-12111
agu	-12112
▁loan	-12113
▁updateres	-12114
MPL	-12115
▁"&	-12116
gence	-12117
▁thro	-12118
ecycle	-12119
▁scroll	-12120
▁Treaty	-12121
▁Ban	-12122
▁Iowa	-12123
▁3.	-12124
▁vic	-12125
▁getEClass	-12126
▁STR	-12127
▁utc	-12128
Fixed	-12129
▁Forces	-12130
▁difficulties	-12131
▁wants	-12132
▁71	-12133
Login	-12134
▁finale	-12135
▁Statement	-12136
Specification	-12137
▁geo	-12138
▁Dead	-12139
jango	-12140
▁Alab	-12141
verted	-12142
filters	-12143
▁compete	-12144
▁neutral	-12145
▁criticised	-12146
▁getEClassifiers	-12147
mers	-12148
False	-12149
▁Trek	-12150
▁covering	-12151
▁responses	-12152
▁UI	-12153
icine	-12154
▁signs	-12155
▁mainstream	-12156
▁translated	-12157
▁Know	-12158
▁assembly	-12159
▁platinum	-12160
▁appointment	-12161
icipal	-12162
▁cipher	-12163
▁replacing	-12164
▁underw	-12165
freq	-12166
▁Alabama	-12167
▁localVar	-12168
▁Scheduler	-12169
uscript	-12170
hot	-12171
olas	-12172
▁Ren	-12173
▁keyid	-12174
▁91	-12175
AST	-12176
refs	-12177
▁chron	-12178
writing	-12179
▁credits	-12180
ennis	-12181
▁march	-12182
▁predecessor	-12183
▁0.1	-12184
TABLE	-12185
▁timedelta	-12186
▁Dw	-12187
Visitor	-12188
borough	-12189
▁excell	-12190
Selected	-12191
EP	-12192
ocus	-12193
▁reserved	-12194
▁Caribbean	-12195
(%	-12196
▁Bor	-12197
▁SER	-12198
▁Section	-12199
▁measured	-12200
aux	-12201
▁Has	-12202
▁moral	-12203
▁GL	-12204
player	-12205
▁powered	-12206
▁Description	-12207
▁shard	-12208
▁Lawrence	-12209
▁prompted	-12210
▁operational	-12211
▁ParseException	-12212
▁urls	-12213
▁seats	-12214
lab	-12215
cached	-12216
▁locomot	-12217
ologists	-12218
▁Mississ	-12219
Dyn	-12220
▁asks	-12221
▁concerts	-12222
anch	-12223
▁shutil	-12224
▁convertTo	-12225
▁decorated	-12226
inputs	-12227
▁Queue	-12228
▁Napole	-12229
▁ImportError	-12230
verb	-12231
▁Son	-12232
▁Race	-12233
▁Address	-12234
▁compiler	-12235
▁concurrent	-12236
▁FL	-12237
[0-9	-12238
▁1923	-12239
▁Target	-12240
▁honour	-12241
layers	-12242
▁tenth	-12243
▁Charlie	-12244
▁workspace	-12245
▁fighters	-12246
boot	-12247
▁pitched	-12248
agraph	-12249
▁properly	-12250
▁traceback	-12251
oving	-12252
sters	-12253
▁reads	-12254
▁excluded	-12255
Scan	-12256
▁Banks	-12257
ned	-12258
▁Minnes	-12259
axes	-12260
fmt	-12261
▁divor	-12262
▁streams	-12263
Mer	-12264
sched	-12265
▁getSub	-12266
▁getService	-12267
include	-12268
▁Senator	-12269
▁checksum	-12270
▁JS	-12271
▁patron	-12272
▁monument	-12273
WORD	-12274
▁Children	-12275
SY	-12276
Week	-12277
cester	-12278
▁acceler	-12279
Editor	-12280
ounced	-12281
▁recommend	-12282
LL	-12283
VM	-12284
▁notice	-12285
ctic	-12286
▁Enc	-12287
▁07	-12288
▁teacher	-12289
▁Vin	-12290
shift	-12291
▁hockey	-12292
▁neighbour	-12293
▁overlap	-12294
▁protest	-12295
▁/=	-12296
▁ABC	-12297
ruption	-12298
ographical	-12299
▁destroyers	-12300
▁Ian	-12301
▁travelled	-12302
yes	-12303
▁nl	-12304
added	-12305
▁disturb	-12306
otten	-12307
REQUEST	-12308
▁Ministry	-12309
▁"]"	-12310
▁grown	-12311
contents	-12312
95	-12313
▁dbc	-12314
ois	-12315
▁pragma	-12316
']	-12317
+"	-12318
▁Flem	-12319
▁Crown	-12320
▁vault	-12321
▁payment	-12322
▁succeed	-12323
definition	-12324
duce	-12325
▁reliev	-12326
▁eliminated	-12327
iveness	-12328
▁churches	-12329
bec	-12330
▁UP	-12331
final	-12332
▁boys	-12333
▁ssh	-12334
signed	-12335
▁getEntity	-12336
▁doctor	-12337
▁Hungary	-12338
TW	-12339
▁cv	-12340
TOKEN	-12341
▁rendered	-12342
configuration	-12343
▁arts	-12344
category	-12345
▁Nazi	-12346
arship	-12347
png	-12348
erver	-12349
▁Bab	-12350
CCESS	-12351
▁collector	-12352
CESS	-12353
▁bombers	-12354
▁getWidth	-12355
TAG	-12356
prot	-12357
▁css	-12358
▁usual	-12359
▁housing	-12360
▁survivors	-12361
KN	-12362
▁Hud	-12363
▁Buck	-12364
▁radar	-12365
Par	-12366
▁Zone	-12367
akespe	-12368
▁marks	-12369
▁benefit	-12370
▁dynasty	-12371
▁designation	-12372
gable	-12373
hattan	-12374
▁Benj	-12375
▁phrase	-12376
▁resumed	-12377
▁contentType	-12378
DD	-12379
oor	-12380
▁Dance	-12381
▁Digital	-12382
Bal	-12383
▁AC	-12384
▁inaug	-12385
▁Garden	-12386
RM	-12387
You	-12388
Insert	-12389
▁unlike	-12390
Collector	-12391
▁USD	-12392
▁getLength	-12393
structed	-12394
▁Management	-12395
▁81	-12396
▁dollars	-12397
▁Australians	-12398
▁Hamp	-12399
▁mamm	-12400
upload	-12401
▁denom	-12402
▁Belgium	-12403
▁tribute	-12404
▁grey	-12405
TypeName	-12406
cha	-12407
Diff	-12408
upper	-12409
▁Polit	-12410
▁acted	-12411
▁upgrade	-12412
▁dangerous	-12413
▁mil	-12414
▁gard	-12415
▁errno	-12416
▁Hop	-12417
▁Diego	-12418
▁removal	-12419
▁genes	-12420
▁partnership	-12421
▁protagonist	-12422
▁communication	-12423
▁Ont	-12424
▁helping	-12425
kw	-12426
Lines	-12427
▁Next	-12428
▁Perm	-12429
▁survive	-12430
▁guid	-12431
▁occupation	-12432
GroupId	-12433
▁seeking	-12434
▁Shakespe	-12435
2.	-12436
▁Brig	-12437
▁wet	-12438
Track	-12439
▁Medal	-12440
component	-12441
rient	-12442
)\	-12443
rying	-12444
▁waves	-12445
▁checks	-12446
▁dies	-12447
rising	-12448
▁infer	-12449
crement	-12450
▁dock	-12451
▁dependent	-12452
Rece	-12453
▁sizes	-12454
▁tight	-12455
▁Township	-12456
▁classLoader	-12457
andas	-12458
alions	-12459
▁fung	-12460
control	-12461
ugby	-12462
llib	-12463
▁Much	-12464
▁telling	-12465
▁instrumental	-12466
▁Consumer	-12467
▁Cob	-12468
namese	-12469
▁temporarily	-12470
merge	-12471
▁pron	-12472
▁storms	-12473
▁paintings	-12474
lower	-12475
▁scientists	-12476
eron	-12477
▁villages	-12478
?'	-12479
Ent	-12480
velt	-12481
Cookie	-12482
▁enforce	-12483
▁suicide	-12484
▁toBlocking	-12485
▁DS	-12486
clone	-12487
▁BigInteger	-12488
iac	-12489
▁sd	-12490
▁1905	-12491
▁treaty	-12492
▁Guardian	-12493
▁abilities	-12494
▁possession	-12495
ika	-12496
ders	-12497
▁Cold	-12498
AMETER	-12499
▁innov	-12500
iffer	-12501
▁1908	-12502
▁surprise	-12503
▁Christopher	-12504
Tab	-12505
▁Cole	-12506
▁ideal	-12507
▁calculated	-12508
55	-12509
unique	-12510
▁reporter	-12511
▁victories	-12512
erg	-12513
▁fur	-12514
netic	-12515
▁Benjamin	-12516
▁Historic	-12517
▁arriving	-12518
▁Vietnamese	-12519
▁kit	-12520
▁Liter	-12521
▁Walker	-12522
▁Dur	-12523
▁1909	-12524
▁absent	-12525
▁asking	-12526
▁stretch	-12527
501	-12528
iples	-12529
▁Roose	-12530
versions	-12531
▁parsing	-12532
▁Building	-12533
▁publicly	-12534
▁DBConstants	-12535
▁DO	-12536
▁Amb	-12537
▁xpath	-12538
Unexpected	-12539
▁dirs	-12540
ayment	-12541
semble	-12542
▁Hockey	-12543
▁newspapers	-12544
oz	-12545
▁ix	-12546
▁corpor	-12547
Cor	-12548
▁isot	-12549
Members	-12550
PARATOR	-12551
▁electronic	-12552
oses	-12553
github	-12554
language	-12555
▁opponent	-12556
Statistics	-12557
▁filenames	-12558
EDEFAULT	-12559
▁rebuild	-12560
▁behaviour	-12561
expr	-12562
▁solve	-12563
alpha	-12564
messages	-12565
▁dispute	-12566
▁Business	-12567
▁occasions	-12568
ques	-12569
▁cyl	-12570
▁Laure	-12571
▁artwork	-12572
andal	-12573
▁Minnesota	-12574
▁ls	-12575
▁Manhattan	-12576
fish	-12577
▁NS	-12578
▁Born	-12579
▁Æ	-12580
1}"	-12581
Axis	-12582
▁rhythm	-12583
▁NotNull	-12584
▁permitted	-12585
▁connecting	-12586
urday	-12587
▁Khan	-12588
▁Pear	-12589
▁Alfred	-12590
Dest	-12591
▁wear	-12592
▁Rober	-12593
▁initialized	-12594
▁holid	-12595
▁Grammy	-12596
▁underst	-12597
▁manuscript	-12598
▁mx	-12599
▁Kurt	-12600
▁Matthew	-12601
▁twin	-12602
Associ	-12603
ategor	-12604
home	-12605
impl	-12606
▁Dave	-12607
leep	-12608
▁threw	-12609
▁Michel	-12610
▁Current	-12611
▁declaration	-12612
ssl	-12613
here	-12614
▁Bundle	-12615
▁explain	-12616
▁reduction	-12617
ti	-12618
acc	-12619
▁Snow	-12620
ounding	-12621
▁Flight	-12622
▁struggle	-12623
SED	-12624
▁Lim	-12625
Public	-12626
ordered	-12627
▁fishing	-12628
▁Campaign	-12629
▁Interstate	-12630
▁93	-12631
▁dense	-12632
▁poison	-12633
▁Generic	-12634
fa	-12635
▁Franklin	-12636
Registration	-12637
Ifc	-12638
▁Roll	-12639
▁texts	-12640
▁keywords	-12641
▁satellite	-12642
tz	-12643
▁Ale	-12644
acters	-12645
=\"	-12646
ptors	-12647
▁Roosevelt	-12648
JB	-12649
▁InternalX	-12650
▁rig	-12651
▁VERSION	-12652
▁Thor	-12653
▁requirement	-12654
month	-12655
cursor	-12656
▁Style	-12657
ski	-12658
▁tomb	-12659
Created	-12660
▁hasMore	-12661
▁solar	-12662
▁Symbol	-12663
▁timezone	-12664
▁BY	-12665
▁rho	-12666
rules	-12667
▁assum	-12668
▁polygon	-12669
▁quoted	-12670
▁Industry	-12671
▁TH	-12672
▁Ice	-12673
efined	-12674
▁getMod	-12675
▁Peninsula	-12676
":	-12677
yped	-12678
▁USER	-12679
▁fallback	-12680
ouch	-12681
▁rpc	-12682
▁1907	-12683
▁Metric	-12684
▁forName	-12685
azard	-12686
▁subt	-12687
wrapper	-12688
▁tenant	-12689
atherine	-12690
▁violent	-12691
▁offering	-12692
uffle	-12693
imm	-12694
▁rub	-12695
▁teaching	-12696
▁ju	-12697
▁prefer	-12698
▁beautiful	-12699
BUTE	-12700
Poly	-12701
▁Volt	-12702
▁Hills	-12703
▁audiences	-12704
licated	-12705
▁emperor	-12706
▁substitute	-12707
▁Lam	-12708
▁pilots	-12709
▁forests	-12710
▁LOC	-12711
▁assisted	-12712
▁getElement	-12713
sky	-12714
▁shells	-12715
▁identical	-12716
dap	-12717
▁Nash	-12718
▁Ring	-12719
▁skel	-12720
▁ther	-12721
▁wedding	-12722
▁competed	-12723
▁Exp	-12724
▁elabor	-12725
▁foundation	-12726
utype	-12727
▁Kansas	-12728
▁Internet	-12729
▁"</	-12730
▁Vert	-12731
▁setS	-12732
munition	-12733
GROUP	-12734
▁PIPE	-12735
▁clin	-12736
high	-12737
▁currentThread	-12738
▁na	-12739
Loop	-12740
Timer	-12741
multi	-12742
Primitive	-12743
▁oxygen	-12744
▁Container	-12745
▁collaboration	-12746
▁nations	-12747
▁ownership	-12748
▁horizontal	-12749
▁Load	-12750
▁pace	-12751
ishment	-12752
▁locked	-12753
▁Mississipp	-12754
Pe	-12755
eing	-12756
▁diet	-12757
▁halt	-12758
urface	-12759
created	-12760
▁prospect	-12761
▁intensified	-12762
Dao	-12763
▁Apple	-12764
▁stops	-12765
1/	-12766
OFF	-12767
dale	-12768
ilty	-12769
▁170	-12770
▁Doc	-12771
▁Surv	-12772
▁behalf	-12773
▁Portland	-12774
▁Nar	-12775
▁Hotel	-12776
▁decoded	-12777
gregation	-12778
▁sacr	-12779
Struct	-12780
database	-12781
processor	-12782
▁rivers	-12783
▁Foreign	-12784
▁assists	-12785
▁filePath	-12786
CUR	-12787
▁Tar	-12788
related	-12789
signature	-12790
▁disaster	-12791
▁defeating	-12792
wa	-12793
AIL	-12794
▁si	-12795
▁Policy	-12796
▁voiced	-12797
▁Saturday	-12798
▁interfaces	-12799
occ	-12800
▁embedded	-12801
IES	-12802
ORK	-12803
PES	-12804
ila	-12805
▁05	-12806
▁wrest	-12807
▁getHost	-12808
▁105	-12809
ANGDyn	-12810
modified	-12811
▁deliber	-12812
extmethods	-12813
ANGDynClass	-12814
▁extmethods	-12815
Ms	-12816
ustic	-12817
provider	-12818
{1}	-12819
ropy	-12820
▁helicopt	-12821
▁transpose	-12822
ouri	-12823
Authorization	-12824
_8	-12825
▁Ah	-12826
▁pulled	-12827
▁understanding	-12828
Relation	-12829
▁Ul	-12830
▁Copy	-12831
stdout	-12832
Logging	-12833
▁recognised	-12834
ByName	-12835
▁agricultural	-12836
▁Batch	-12837
▁lect	-12838
▁horror	-12839
gz	-12840
uly	-12841
▁Fried	-12842
▁trail	-12843
MIT	-12844
aya	-12845
IGHT	-12846
▁1880	-12847
▁Hong	-12848
▁Lith	-12849
▁Shel	-12850
season	-12851
▁businesses	-12852
▁Ec	-12853
▁fifteen	-12854
▁articles	-12855
plan	-12856
▁obvious	-12857
▁throwable	-12858
▁drivers	-12859
eston	-12860
▁uncon	-12861
tracking	-12862
▁reflected	-12863
▁Blues	-12864
▁decide	-12865
mbed	-12866
▁shipping	-12867
▁symptoms	-12868
▁attendance	-12869
▁mines	-12870
▁overrid	-12871
▁neighbors	-12872
▁perspective	-12873
77	-12874
▁getTarget	-12875
▁CF	-12876
▁listen	-12877
Gen	-12878
▁skull	-12879
▁Sab	-12880
▁citing	-12881
Bus	-12882
lices	-12883
▁updates	-12884
shell	-12885
▁forty	-12886
▁wraps	-12887
Segments	-12888
incial	-12889
validator	-12890
▁Fa	-12891
commands	-12892
▁Shakespeare	-12893
▁preparation	-12894
▁Halo	-12895
POINT	-12896
inite	-12897
▁sunk	-12898
▁Tennes	-12899
▁situated	-12900
▁92	-12901
▁ops	-12902
▁Rect	-12903
patcher	-12904
neighb	-12905
▁parish	-12906
▁Lang	-12907
Series	-12908
▁spiritual	-12909
▁evil	-12910
tensor	-12911
generate	-12912
▁earthqu	-12913
ICATION	-12914
▁Compute	-12915
▁rebuilt	-12916
Aud	-12917
▁harmon	-12918
▁restoration	-12919
▁sank	-12920
▁imperial	-12921
▁\'	-12922
▁Hindu	-12923
▁NONE	-12924
strings	-12925
▁Campbell	-12926
ADD	-12927
nest	-12928
▁Ward	-12929
volume	-12930
▁getAct	-12931
▁poorly	-12932
▁repairs	-12933
DP	-12934
Bag	-12935
elihood	-12936
▁agency	-12937
Transport	-12938
▁ammunition	-12939
▁overw	-12940
▁removing	-12941
▁getY	-12942
▁Athlet	-12943
components	-12944
zed	-12945
Main	-12946
atever	-12947
▁getConnection	-12948
Email	-12949
ratio	-12950
▁illness	-12951
Worker	-12952
▁Sullivan	-12953
extra	-12954
▁restaurant	-12955
Measure	-12956
▁Season	-12957
Features	-12958
▁getConfig	-12959
▁Steven	-12960
▁ordering	-12961
done	-12962
▁gauge	-12963
Seconds	-12964
▁125	-12965
suffix	-12966
▁iso	-12967
Words	-12968
▁coinc	-12969
private	-12970
▁Serial	-12971
▁finder	-12972
▁Hero	-12973
▁urllib	-12974
▁concaten	-12975
;'	-12976
▁analys	-12977
▁getEnd	-12978
ASH	-12979
▁registration	-12980
progress	-12981
uable	-12982
▁synd	-12983
▁Small	-12984
▁amounts	-12985
cock	-12986
▁mane	-12987
▁Lucas	-12988
▁willing	-12989
▁Ga	-12990
▁feelings	-12991
▁lieutenant	-12992
▁Independent	-12993
▁Egyptian	-12994
▁underground	-12995
oves	-12996
▁bare	-12997
▁formats	-12998
▁tolerance	-12999
▁completing	-13000
▁FileInputStream	-13001
odge	-13002
direct	-13003
oys	-13004
▁'*'	-13005
▁FIX	-13006
▁[{}	-13007
▁Invocation	-13008
cms	-13009
MODE	-13010
yaml	-13011
▁rgb	-13012
setup	-13013
▁Conn	-13014
▁univers	-13015
▁explosion	-13016
▁rr	-13017
eties	-13018
▁bay	-13019
▁Split	-13020
▁flights	-13021
2}	-13022
Fac	-13023
alling	-13024
▁Kings	-13025
▁Finally	-13026
aron	-13027
▁Brun	-13028
▁affairs	-13029
yard	-13030
▁cwd	-13031
::	-13032
Labels	-13033
▁Cluster	-13034
ingerprint	-13035
icker	-13036
▁Mississippi	-13037
GS	-13038
▁Tennessee	-13039
cri	-13040
utdown	-13041
percent	-13042
▁mobile	-13043
colors	-13044
▁vulner	-13045
▁merchant	-13046
issues	-13047
▁liked	-13048
▁Stevens	-13049
▁shorter	-13050
anded	-13051
▁Cyr	-13052
▁slaves	-13053
original	-13054
▁1904	-13055
▁1906	-13056
agonal	-13057
▁explan	-13058
requency	-13059
▁Louisiana	-13060
▁jazz	-13061
▁transformer	-13062
dot	-13063
Cons	-13064
imize	-13065
▁NOTE	-13066
plugin	-13067
Virtual	-13068
▁conscious	-13069
inces	-13070
▁Josh	-13071
▁elder	-13072
▁affair	-13073
▁funeral	-13074
▁Montreal	-13075
rage	-13076
▁Bros	-13077
▁aimed	-13078
▁resourceName	-13079
PG	-13080
ANT	-13081
stage	-13082
deg	-13083
▁abol	-13084
▁spend	-13085
▁Margaret	-13086
$'	-13087
▁contributions	-13088
▁banks	-13089
▁compens	-13090
▁JsonObject	-13091
▁"="	-13092
▁Lad	-13093
▁Atomic	-13094
ILLI	-13095
▁Labour	-13096
▁specimen	-13097
▁Ju	-13098
pared	-13099
▁clearly	-13100
atur	-13101
▁software	-13102
Components	-13103
▁1870	-13104
expression	-13105
▁Und	-13106
endor	-13107
▁getMin	-13108
▁favorable	-13109
▁exha	-13110
▁fastest	-13111
▁alliance	-13112
▁distances	-13113
▁Depression	-13114
▁stdin	-13115
▁Philippines	-13116
ENER	-13117
▁unw	-13118
acl	-13119
si	-13120
▁Trib	-13121
▁statue	-13122
partition	-13123
family	-13124
▁Missouri	-13125
ups	-13126
▁256	-13127
▁explicitly	-13128
undant	-13129
▁Mitchell	-13130
▁clause	-13131
▁Mack	-13132
Export	-13133
ibilities	-13134
▁ML	-13135
▁fo	-13136
▁Disc	-13137
▁fifty	-13138
▁Harvey	-13139
▁Warren	-13140
Delegate	-13141
▁Gab	-13142
izard	-13143
▁Member	-13144
▁terror	-13145
▁thinking	-13146
▁professor	-13147
▁Ult	-13148
ACTION	-13149
▁Beaut	-13150
▁Billy	-13151
▁entertainment	-13152
▁Joh	-13153
generator	-13154
▁getComponent	-13155
(\	-13156
uma	-13157
Sets	-13158
enum	-13159
▁reven	-13160
▁orientation	-13161
▁Need	-13162
etary	-13163
▁maked	-13164
▁Palest	-13165
▁holder	-13166
Unsupported	-13167
▁ceremon	-13168
▁\"	-13169
▁genetic	-13170
▁splitext	-13171
▁Reference	-13172
anium	-13173
▁Critics	-13174
Tile	-13175
▁meat	-13176
father	-13177
reated	-13178
▁DI	-13179
itudes	-13180
▁badly	-13181
▁Unknown	-13182
▁populate	-13183
▁decides	-13184
ylan	-13185
storm	-13186
▁Near	-13187
▁conservative	-13188
ateur	-13189
Supported	-13190
▁residence	-13191
▁Fem	-13192
▁Geo	-13193
▁SIG	-13194
▁soci	-13195
▁Dragon	-13196
▁silent	-13197
▁amongst	-13198
Dependency	-13199
utt	-13200
jobs	-13201
slice	-13202
▁wore	-13203
▁Graham	-13204
▁Factory	-13205
life	-13206
▁lazy	-13207
terior	-13208
▁getter	-13209
lyn	-13210
stan	-13211
▁{},	-13212
suppress	-13213
▁coordinate	-13214
lah	-13215
ENCE	-13216
▁Got	-13217
ects	-13218
▁Nag	-13219
tools	-13220
▁Czech	-13221
duration	-13222
▁comparator	-13223
▁bg	-13224
inea	-13225
▁Mes	-13226
▁frust	-13227
▁edited	-13228
▁reluct	-13229
hidden	-13230
▁Global	-13231
UpperCase	-13232
▁directors	-13233
STATE	-13234
tim	-13235
▁SA	-13236
▁ads	-13237
▁fails	-13238
▁thumb	-13239
▁racing	-13240
nan	-13241
▁Pdf	-13242
▁javax	-13243
ptr	-13244
▁Guide	-13245
▁Compar	-13246
▁suggesting	-13247
70	-13248
ITS	-13249
istent	-13250
▁dominant	-13251
Actions	-13252
▁arrive	-13253
▁stride	-13254
▁tp	-13255
▁Jos	-13256
▁casting	-13257
▁Cow	-13258
▁cargo	-13259
ionError	-13260
▁touring	-13261
▁scheduler	-13262
Jar	-13263
."""	-13264
phony	-13265
ensitive	-13266
ervation	-13267
▁alcohol	-13268
transaction	-13269
▁administrative	-13270
RESS	-13271
▁cous	-13272
istant	-13273
orable	-13274
▁pseud	-13275
▁compact	-13276
▁raising	-13277
▁intersects	-13278
edit	-13279
▁isIn	-13280
second	-13281
abric	-13282
▁backed	-13283
▁mountains	-13284
▁compounds	-13285
▁compressed	-13286
▁engagement	-13287
▁af	-13288
▁reaches	-13289
▁getState	-13290
▁Predicate	-13291
PEC	-13292
▁Ped	-13293
Depth	-13294
▁rising	-13295
▁Seg	-13296
inalg	-13297
▁Ariz	-13298
artney	-13299
bishop	-13300
▁exclus	-13301
▁tribes	-13302
▁INFO	-13303
▁bench	-13304
▁subsid	-13305
▁oct	-13306
bounds	-13307
▁realm	-13308
▁scipy	-13309
initial	-13310
▁mathemat	-13311
EG	-13312
URN	-13313
atted	-13314
▁predom	-13315
▁Enterprise	-13316
▁hat	-13317
▁Shaw	-13318
▁mys	-13319
▁rit	-13320
▁Midd	-13321
▁Chars	-13322
▁mirror	-13323
▁getSource	-13324
▁Sig	-13325
▁Cass	-13326
▁Less	-13327
ologies	-13328
▁wicket	-13329
sequences	-13330
▁deserialize	-13331
LOC	-13332
▁Cuba	-13333
▁lacked	-13334
boy	-13335
sim	-13336
▁Triple	-13337
▁topics	-13338
▁literal	-13339
▁FILE	-13340
acle	-13341
rants	-13342
random	-13343
▁Reader	-13344
▁armored	-13345
▁dramatic	-13346
▁velocity	-13347
Sw	-13348
ellect	-13349
▁strftime	-13350
▁indicating	-13351
▁distinguished	-13352
▁rx	-13353
Slot	-13354
▁blast	-13355
▁Persian	-13356
▁altered	-13357
▁Universal	-13358
▁Kal	-13359
lists	-13360
▁Phoen	-13361
_%	-13362
ulus	-13363
▁Auto	-13364
▁rent	-13365
▁stere	-13366
Arr	-13367
▁wx	-13368
Subject	-13369
HEADER	-13370
branch	-13371
▁Tamil	-13372
▁shield	-13373
▁ble	-13374
▁dollar	-13375
()"	-13376
adi	-13377
sync	-13378
binary	-13379
▁wider	-13380
▁Location	-13381
▁getSession	-13382
ipse	-13383
▁Frid	-13384
▁frig	-13385
▁outcome	-13386
▁argues	-13387
Help	-13388
▁Nik	-13389
▁caps	-13390
▁gall	-13391
▁Arizona	-13392
▁cleared	-13393
86	-13394
▁ff	-13395
▁Named	-13396
Pars	-13397
▁Counter	-13398
ostic	-13399
▁Custom	-13400
▁blocked	-13401
hl	-13402
▁getHeight	-13403
hosts	-13404
▁trailing	-13405
atar	-13406
Parts	-13407
▁kings	-13408
Filename	-13409
▁colonies	-13410
▁getDeclared	-13411
▁Hem	-13412
▁meth	-13413
▁Indies	-13414
▁shadow	-13415
HS	-13416
eness	-13417
▁Seven	-13418
▁drove	-13419
▁femin	-13420
▁findall	-13421
ArrayList	-13422
▁repeatedly	-13423
uter	-13424
▁Sony	-13425
▁chamber	-13426
▁boundaries	-13427
▁Maur	-13428
▁repro	-13429
▁familiar	-13430
▁CmsException	-13431
DT	-13432
▁Rap	-13433
▁artistic	-13434
▁remnants	-13435
Clause	-13436
▁playoffs	-13437
vy	-13438
HttpRequest	-13439
▁Wes	-13440
▁Zero	-13441
▁Dylan	-13442
▁WHERE	-13443
▁polar	-13444
▁signals	-13445
▁characterized	-13446
▁cnt	-13447
Span	-13448
▁Grey	-13449
▁boss	-13450
▁institutions	-13451
4_	-13452
▁Bureau	-13453
inned	-13454
Second	-13455
engine	-13456
▁allocate	-13457
▁severely	-13458
▁authorized	-13459
▁fallen	-13460
Attachment	-13461
achel	-13462
▁OpenCms	-13463
compute	-13464
▁xrange	-13465
▁decimal	-13466
RC	-13467
apy	-13468
bow	-13469
detail	-13470
FilePath	-13471
▁evolved	-13472
▁matters	-13473
fold	-13474
Publish	-13475
▁retail	-13476
▁ranging	-13477
▁tack	-13478
Tracker	-13479
▁origins	-13480
▁makedirs	-13481
▁institution	-13482
▁isN	-13483
▁scenario	-13484
aping	-13485
▁surf	-13486
▁crews	-13487
▁militia	-13488
▁cu	-13489
appa	-13490
appy	-13491
raise	-13492
watch	-13493
▁Such	-13494
▁Marie	-13495
▁Princ	-13496
▁splits	-13497
PROPERTY	-13498
▁explains	-13499
▁pul	-13500
Threshold	-13501
▁supplement	-13502
▁PAT	-13503
▁forg	-13504
Lookup	-13505
▁divide	-13506
▁armament	-13507
▁DATA	-13508
▁gang	-13509
States	-13510
▁reload	-13511
FOR	-13512
▁Rub	-13513
▁mouse	-13514
utation	-13515
▁distinctive	-13516
rine	-13517
▁Jun	-13518
▁intervals	-13519
▁platforms	-13520
▁Confederate	-13521
96	-13522
");	-13523
▁sr	-13524
▁Full	-13525
▁Wilhel	-13526
▁comfort	-13527
▁earning	-13528
ANS	-13529
...'	-13530
mail	-13531
Payload	-13532
▁Econom	-13533
▁bowling	-13534
Sync	-13535
▁Hudson	-13536
▁hole	-13537
▁bronze	-13538
8'	-13539
avior	-13540
days	-13541
▁Oklah	-13542
extension	-13543
▁demonstrated	-13544
▁li	-13545
RECT	-13546
▁surge	-13547
ometric	-13548
▁bott	-13549
▁Where	-13550
▁excav	-13551
iciency	-13552
Tokenizer	-13553
sys	-13554
DA	-13555
▁promise	-13556
▁practices	-13557
pad	-13558
Exist	-13559
▁Pool	-13560
▁poems	-13561
▁garden	-13562
cru	-13563
Initial	-13564
▁condem	-13565
▁addresses	-13566
▁definitions	-13567
▁AF	-13568
ivia	-13569
Delay	-13570
▁HTML	-13571
inating	-13572
ping	-13573
▁migration	-13574
▁splitlines	-13575
▁inhabitants	-13576
dess	-13577
▁Switzer	-13578
▁spotted	-13579
▁Ali	-13580
▁Cov	-13581
forward	-13582
rolling	-13583
▁Murphy	-13584
▁inland	-13585
▁riders	-13586
▁flagship	-13587
asters	-13588
ipart	-13589
▁sole	-13590
▁sisters	-13591
gra	-13592
▁Mrs	-13593
▁Gate	-13594
▁sharp	-13595
▁mental	-13596
NumberOf	-13597
▁blocking	-13598
LOAD	-13599
▁Perry	-13600
▁Ridge	-13601
▁whilst	-13602
periment	-13603
▁inherited	-13604
ById	-13605
▁"__	-13606
▁myst	-13607
▁mayor	-13608
▁concentration	-13609
mn	-13610
▁INDArray	-13611
▁encrypted	-13612
▁organisation	-13613
elle	-13614
Codes	-13615
▁Decl	-13616
▁Switzerland	-13617
▁Cost	-13618
▁circumstances	-13619
Master	-13620
▁Device	-13621
▁naming	-13622
OrUpdate	-13623
▁enlisted	-13624
▁simultaneously	-13625
Dev	-13626
▁mini	-13627
▁nearest	-13628
▁OB	-13629
ITER	-13630
eland	-13631
escape	-13632
vo	-13633
retry	-13634
▁isLog	-13635
▁CPDefinition	-13636
Trigger	-13637
▁Tab	-13638
▁Broadway	-13639
▁Federation	-13640
▁ski	-13641
▁1901	-13642
execute	-13643
▁getError	-13644
▁northward	-13645
47	-13646
digest	-13647
subscri	-13648
uper	-13649
▁bonus	-13650
▁linalg	-13651
0,	-13652
3:	-13653
ée	-13654
▁Barry	-13655
▁subspecies	-13656
bool	-13657
ancers	-13658
▁Names	-13659
▁START	-13660
▁carriers	-13661
▁hypothes	-13662
otton	-13663
▁Const	-13664
▁announcement	-13665
aunch	-13666
plain	-13667
Place	-13668
▁prices	-13669
▁checkpoint	-13670
▁quarterback	-13671
▁Oklahoma	-13672
▁accessible	-13673
▁FileNotFound	-13674
▁ROOT	-13675
▁Austrian	-13676
▁exhibition	-13677
iary	-13678
▁nominations	-13679
Suffix	-13680
▁Header	-13681
▁publishing	-13682
▁Diam	-13683
▁fewer	-13684
bank	-13685
proc	-13686
ptime	-13687
agg	-13688
▁AM	-13689
▁Kirk	-13690
frames	-13691
▁Watch	-13692
monitor	-13693
▁interrupted	-13694
Assignment	-13695
▁autobi	-13696
▁discipl	-13697
▁households	-13698
RT	-13699
▁dc	-13700
▁palace	-13701
▁summar	-13702
▁planets	-13703
▁submission	-13704
It	-13705
▁cx	-13706
▁orb	-13707
▁marg	-13708
▁abstract	-13709
CHE	-13710
Watch	-13711
▁logic	-13712
▁instructions	-13713
▁bc	-13714
▁sty	-13715
▁vast	-13716
▁impress	-13717
▁Delaware	-13718
▁visiting	-13719
▁nextToken	-13720
▁83	-13721
strong	-13722
logging	-13723
exit	-13724
▁pray	-13725
▁median	-13726
▁127	-13727
▁Change	-13728
▁rotate	-13729
▁Lithuan	-13730
▁acknowledged	-13731
▁1903	-13732
▁Socket	-13733
Dim	-13734
▁'='	-13735
▁proj	-13736
internal	-13737
▁apartment	-13738
docs	-13739
Equal	-13740
Final	-13741
▁bone	-13742
▁Originally	-13743
EAR	-13744
▁Vi	-13745
Vars	-13746
▁1902	-13747
▁Faces	-13748
angular	-13749
▁shifted	-13750
▁attained	-13751
▁collapsed	-13752
▁doubleValue	-13753
bi	-13754
bel	-13755
▁Fif	-13756
shore	-13757
▁Karl	-13758
ificial	-13759
▁bearing	-13760
▁176	-13761
▁seriously	-13762
_"	-13763
ori	-13764
gate	-13765
▁Amy	-13766
▁Kam	-13767
▁wreck	-13768
▁intermediate	-13769
▁Pa	-13770
COND	-13771
Received	-13772
▁intellect	-13773
abil	-13774
tool	-13775
▁exercise	-13776
▁CONFIG	-13777
▁Unicode	-13778
▁compression	-13779
49	-13780
▁Rand	-13781
▁logs	-13782
▁Leslie	-13783
▁allies	-13784
▁surgery	-13785
▁Baby	-13786
▁elig	-13787
▁hint	-13788
Supplier	-13789
▁peaking	-13790
▁Otherwise	-13791
Iss	-13792
axy	-13793
ships	-13794
▁hang	-13795
matches	-13796
▁PY	-13797
Send	-13798
DataSource	-13799
▁similarly	-13800
▁Deep	-13801
▁philosophy	-13802
▁applications	-13803
obs	-13804
usage	-13805
utors	-13806
▁Join	-13807
▁nodeList	-13808
edis	-13809
▁juris	-13810
Records	-13811
▁respond	-13812
▁promised	-13813
▁adventure	-13814
oga	-13815
▁PL	-13816
Debug	-13817
quote	-13818
▁gender	-13819
▁excellent	-13820
▁td	-13821
▁Thr	-13822
▁mal	-13823
▁perceived	-13824
▁phenomen	-13825
icut	-13826
Infos	-13827
▁ri	-13828
▁Conc	-13829
▁Players	-13830
▁bombs	-13831
Managed	-13832
▁efficient	-13833
▁Lib	-13834
ppers	-13835
▁Rico	-13836
bra	-13837
▁Hom	-13838
▁horn	-13839
▁Jonathan	-13840
▁reactions	-13841
▁COMP	-13842
▁")	-13843
▁nr	-13844
Packet	-13845
▁assets	-13846
asant	-13847
▁Denmark	-13848
▁revenue	-13849
▁remarked	-13850
pa	-13851
▁dl	-13852
▁westward	-13853
alg	-13854
WITH	-13855
▁Place	-13856
▁demanded	-13857
agasc	-13858
icken	-13859
▁gust	-13860
▁Tokyo	-13861
▁drugs	-13862
▁suburb	-13863
▁failing	-13864
▁ongoing	-13865
▁trouble	-13866
▁Our	-13867
▁pa	-13868
oons	-13869
▁Rih	-13870
▁plugins	-13871
▁altitude	-13872
▁Js	-13873
▁dns	-13874
▁Kra	-13875
▁Atlanta	-13876
▁Instant	-13877
▁Baseball	-13878
▁columnName	-13879
uator	-13880
indent	-13881
▁Rihanna	-13882
▁meetings	-13883
▁pb	-13884
bird	-13885
LIENT	-13886
▁oblig	-13887
Background	-13888
▁increases	-13889
▁battalions	-13890
▁experiments	-13891
▁ma	-13892
▁Juan	-13893
▁Territ	-13894
▁contribution	-13895
NODE	-13896
▁Mik	-13897
▁drain	-13898
▁lanes	-13899
▁portions	-13900
Using	-13901
▁armour	-13902
▁demands	-13903
▁fetchBy	-13904
Structure	-13905
▁underlying	-13906
icing	-13907
▁cmap	-13908
UMENT	-13909
romise	-13910
▁Nixon	-13911
▁flows	-13912
registry	-13913
ersions	-13914
▁resize	-13915
▁docs	-13916
▁punk	-13917
reader	-13918
▁Johnny	-13919
▁civilian	-13920
▁gradient	-13921
5_	-13922
IDTH	-13923
amount	-13924
▁Activity	-13925
▁piv	-13926
▁Abbey	-13927
▁getResponse	-13928
▁Bytes	-13929
▁motif	-13930
sources	-13931
▁liquid	-13932
▁Bernard	-13933
▁Ele	-13934
azing	-13935
▁sick	-13936
▁strengthened	-13937
▁issub	-13938
▁tested	-13939
TypeEnum	-13940
Cloud	-13941
inian	-13942
▁nice	-13943
▁stroke	-13944
▁qs	-13945
▁115	-13946
▁aco	-13947
accept	-13948
▁Begin	-13949
▁suppress	-13950
▁authorization	-13951
3'	-13952
may	-13953
Dist	-13954
Math	-13955
font	-13956
▁Cit	-13957
▁Jup	-13958
▁Wor	-13959
▁Send	-13960
▁Works	-13961
▁decay	-13962
▁reconnaissance	-13963
Super	-13964
cov	-13965
unct	-13966
riends	-13967
eley	-13968
KNOWN	-13969
▁hydrogen	-13970
ESCRI	-13971
apolis	-13972
▁Impact	-13973
▁locate	-13974
▁Edwards	-13975
▁overt	-13976
▁discussion	-13977
coe	-13978
▁Stage	-13979
▁Tracy	-13980
▁mining	-13981
▁complement	-13982
▁backtracking	-13983
▁getSh	-13984
variant	-13985
▁Arnold	-13986
▁typhoon	-13987
▁gc	-13988
menu	-13989
mingham	-13990
▁activation	-13991
.5	-13992
VAR	-13993
▁Ton	-13994
▁putting	-13995
▁mechanism	-13996
gi	-13997
▁les	-13998
▁Pitts	-13999
▁diamond	-14000
▁essential	-14001
▁Eventually	-14002
quer	-14003
▁Actor	-14004
▁justice	-14005
front	-14006
▁forb	-14007
GR	-14008
Gu	-14009
▁Lost	-14010
▁spawn	-14011
▁getLong	-14012
orious	-14013
▁insisted	-14014
▁SY	-14015
▁Jen	-14016
▁initiated	-14017
SECONDS	-14018
Renderer	-14019
▁Railroad	-14020
elines	-14021
▁marketing	-14022
gene	-14023
INK	-14024
▁Opp	-14025
▁checking	-14026
▁compliment	-14027
▁interaction	-14028
▁experimental	-14029
Units	-14030
▁wish	-14031
▁Training	-14032
▁conflicts	-14033
▁potentially	-14034
▁nt	-14035
▁bombing	-14036
▁Keith	-14037
▁interpretation	-14038
▁Inn	-14039
▁Jimmy	-14040
Iteration	-14041
▁procedure	-14042
bad	-14043
▁Ral	-14044
▁shop	-14045
uto	-14046
Retry	-14047
▁feels	-14048
Archive	-14049
▁deprecated	-14050
pairs	-14051
▁Prize	-14052
▁personally	-14053
▁publications	-14054
jan	-14055
owner	-14056
▁athletes	-14057
▁garn	-14058
▁decisions	-14059
▁considering	-14060
▁unm	-14061
terms	-14062
▁struggled	-14063
▁AssertionError	-14064
}\	-14065
▁browser	-14066
▁mainland	-14067
▁Furthermore	-14068
▁vot	-14069
▁Iran	-14070
▁sung	-14071
▁Rachel	-14072
▁cir	-14073
render	-14074
▁pione	-14075
▁orchestra	-14076
INDEX	-14077
▁Face	-14078
Principal	-14079
▁audition	-14080
▁broker	-14081
▁offsets	-14082
▁surpass	-14083
▁Madagasc	-14084
▁Structure	-14085
bam	-14086
urst	-14087
ATTRI	-14088
▁morph	-14089
▁campaigns	-14090
▁kW	-14091
▁extras	-14092
▁guilty	-14093
▁acclaim	-14094
▁trading	-14095
-0	-14096
pin	-14097
erne	-14098
▁dn	-14099
▁Save	-14100
▁proof	-14101
isition	-14102
▁Yankees	-14103
Connected	-14104
▁guitarist	-14105
▁doubt	-14106
▁syntax	-14107
ensed	-14108
▁Drive	-14109
▁az	-14110
▁trunk	-14111
Criteria	-14112
ju	-14113
ova	-14114
acre	-14115
▁Pil	-14116
▁ruling	-14117
▁Fall	-14118
▁posit	-14119
▁Mutable	-14120
PRI	-14121
ogy	-14122
▁Nine	-14123
▁armies	-14124
ivileged	-14125
▁inverse	-14126
▁Craw	-14127
hanced	-14128
▁ing	-14129
▁Chel	-14130
▁cant	-14131
▁recipient	-14132
▁aggressive	-14133
ract	-14134
▁Carn	-14135
▁Async	-14136
▁venue	-14137
MESSAGE	-14138
▁dancing	-14139
▁locally	-14140
▁counties	-14141
▁demolished	-14142
▁IM	-14143
Func	-14144
avery	-14145
▁engage	-14146
FFER	-14147
▁Neg	-14148
▁Case	-14149
▁Birmingham	-14150
mx	-14151
likely	-14152
▁bonds	-14153
▁starring	-14154
ht	-14155
▁anime	-14156
▁guide	-14157
rection	-14158
iper	-14159
▁Liz	-14160
▁ancestor	-14161
▁cad	-14162
▁Lion	-14163
▁hybrid	-14164
olves	-14165
ivery	-14166
▁Dest	-14167
▁Spir	-14168
▁Obama	-14169
▁possess	-14170
attle	-14171
▁cutting	-14172
▁theater	-14173
▁gathered	-14174
Definitions	-14175
▁getVersion	-14176
▁din	-14177
▁fld	-14178
etype	-14179
▁Hugh	-14180
Permissions	-14181
▁DOM	-14182
TYPES	-14183
azines	-14184
uating	-14185
▁culmin	-14186
▁isDirectory	-14187
▁Fel	-14188
▁Alber	-14189
Subscri	-14190
amental	-14191
▁believing	-14192
▁singleton	-14193
▁Ald	-14194
ndered	-14195
▁Using	-14196
▁breaks	-14197
▁pursue	-14198
▁Db	-14199
▁[%	-14200
▁bias	-14201
▁Phoenix	-14202
▁McCartney	-14203
▁BL	-14204
▁Dist	-14205
▁Canter	-14206
Requests	-14207
▁asyncio	-14208
▁Community	-14209
▁discovers	-14210
▁analog	-14211
▁Mans	-14212
▁mush	-14213
▁swing	-14214
Contents	-14215
orig	-14216
ermine	-14217
oids	-14218
▁Hann	-14219
▁Peace	-14220
▁profit	-14221
▁ResultSet	-14222
▁XmlElement	-14223
▁kv	-14224
▁Theod	-14225
▁Handle	-14226
▁clothing	-14227
erk	-14228
asts	-14229
▁quit	-14230
▁cleaned	-14231
▁nv	-14232
Forward	-14233
▁Authentication	-14234
▁Chen	-14235
▁Please	-14236
▁projectId	-14237
▁bp	-14238
▁gift	-14239
▁Kit	-14240
▁Baker	-14241
▁Region	-14242
Beh	-14243
▁PS	-14244
▁smart	-14245
▁radical	-14246
▁walking	-14247
rompt	-14248
▁Laur	-14249
▁flux	-14250
▁realized	-14251
▁isLoggable	-14252
▁tox	-14253
▁baby	-14254
Ops	-14255
▁Frame	-14256
allowed	-14257
▁Mete	-14258
▁sitting	-14259
▁Bobby	-14260
▁Girls	-14261
▁disagre	-14262
▁persons	-14263
▁Broadcast	-14264
▁secretary	-14265
cos	-14266
▁PRE	-14267
▁Bach	-14268
▁chest	-14269
▁ApiException	-14270
oped	-14271
▁Font	-14272
▁Wayne	-14273
▁Rights	-14274
▁typeName	-14275
Sent	-14276
Sort	-14277
ulous	-14278
▁Madagascar	-14279
▁ho	-14280
▁Tax	-14281
▁prove	-14282
▁dataType	-14283
folk	-14284
▁Pearl	-14285
▁locator	-14286
▁overseas	-14287
▁overwhel	-14288
▁Connecticut	-14289
▁debt	-14290
▁memo	-14291
course	-14292
▁skill	-14293
Commerce	-14294
▁Defence	-14295
▁quantity	-14296
▁Beck	-14297
▁strongest	-14298
▁scalar	-14299
▁DMatrix	-14300
▁Services	-14301
▁legislature	-14302
▁Tol	-14303
▁pale	-14304
button	-14305
▁Morrison	-14306
▁patient	-14307
▁Vel	-14308
eeper	-14309
ReturnType	-14310
▁BufferedImage	-14311
BB	-14312
200	-14313
VEL	-14314
▁Todd	-14315
driver	-14316
▁Blood	-14317
▁Bosn	-14318
DELETE	-14319
release	-14320
subject	-14321
▁deterior	-14322
▁Take	-14323
ersistent	-14324
▁SU	-14325
▁tort	-14326
▁Friday	-14327
▁Ontario	-14328
▁expired	-14329
Now	-14330
▁defences	-14331
CD	-14332
inis	-14333
▁Mint	-14334
Family	-14335
Random	-14336
otions	-14337
▁shares	-14338
ensively	-14339
▁erected	-14340
cod	-14341
▁Hold	-14342
▁Spect	-14343
▁itert	-14344
hum	-14345
Need	-14346
▁settlers	-14347
▁variants	-14348
▁improvements	-14349
shake	-14350
▁renov	-14351
▁getNum	-14352
▁Leonard	-14353
▁originated	-14354
></	-14355
LET	-14356
▁composite	-14357
▁brick	-14358
▁Potter	-14359
▁Fly	-14360
atisf	-14361
Follow	-14362
▁Canterbury	-14363
Prot	-14364
▁Maj	-14365
anted	-14366
▁musician	-14367
jb	-14368
▁Ple	-14369
▁Vik	-14370
▁ceil	-14371
▁voy	-14372
▁turret	-14373
▁weekly	-14374
▁highways	-14375
Rev	-14376
enna	-14377
Proto	-14378
Qualified	-14379
▁jurisdict	-14380
▁prototype	-14381
▁Allies	-14382
sd	-14383
trl	-14384
▁165	-14385
▁RET	-14386
▁aftermath	-14387
▁Outstanding	-14388
.3	-14389
CAA	-14390
eded	-14391
▁Hey	-14392
SPACE	-14393
▁Skip	-14394
sorted	-14395
▁circular	-14396
▁withdrawal	-14397
▁specification	-14398
46	-14399
bet	-14400
ultan	-14401
▁conven	-14402
▁visits	-14403
▁assembled	-14404
▁landscape	-14405
▁NAS	-14406
uplicates	-14407
▁birthday	-14408
CF	-14409
▁HD	-14410
▁hdr	-14411
▁glyph	-14412
▁resume	-14413
ONTH	-14414
autical	-14415
packages	-14416
▁organised	-14417
▁establishing	-14418
▁404	-14419
finished	-14420
▁consolid	-14421
Zero	-14422
▁Berk	-14423
▁Spart	-14424
initely	-14425
▁cannon	-14426
▁wealthy	-14427
Connections	-14428
▁dissipated	-14429
▁chr	-14430
▁Those	-14431
▁cards	-14432
▁expert	-14433
irts	-14434
iders	-14435
umble	-14436
▁Beng	-14437
▁immig	-14438
Accessor	-14439
▁graduated	-14440
▁wrestling	-14441
NN	-14442
sep	-14443
▁dressed	-14444
▁Host	-14445
▁striking	-14446
▁Wag	-14447
▁byref	-14448
▁Package	-14449
▁Cop	-14450
▁fee	-14451
Center	-14452
▁Mission	-14453
▁elapsed	-14454
BACK	-14455
▁Branch	-14456
itals	-14457
▁Goth	-14458
▁placing	-14459
▁Napoleon	-14460
▁Boys	-14461
▁MESS	-14462
ancell	-14463
layout	-14464
▁raids	-14465
atropical	-14466
▁getCause	-14467
ByteBuffer	-14468
▁childNode	-14469
uese	-14470
▁soldier	-14471
RY	-14472
iko	-14473
▁UEFA	-14474
▁travels	-14475
Please	-14476
▁forth	-14477
▁regime	-14478
AGS	-14479
compiler	-14480
▁ResponseBody	-14481
▁rif	-14482
angel	-14483
▁Bath	-14484
▁glac	-14485
▁Administration	-14486
phi	-14487
▁funny	-14488
▁toList	-14489
▁``	-14490
▁cuts	-14491
▁legit	-14492
▁celebrated	-14493
▁PROPERTY	-14494
▁correctly	-14495
▁emphasis	-14496
▁eq	-14497
▁bones	-14498
▁getClient	-14499
▁theatrical	-14500
mpl	-14501
elli	-14502
▁chapel	-14503
▁watershed	-14504
urls	-14505
▁evacuated	-14506
DO	-14507
Secret	-14508
▁μ	-14509
couver	-14510
▁founding	-14511
egas	-14512
▁McL	-14513
▁Gary	-14514
▁investigate	-14515
")	-14516
▁outl	-14517
Common	-14518
▁Years	-14519
reation	-14520
▁decoder	-14521
▁Rat	-14522
▁Proxy	-14523
configs	-14524
izedType	-14525
▁donated	-14526
▁inplace	-14527
▁observer	-14528
▁Vancouver	-14529
▁stationed	-14530
▁arrangements	-14531
▁hal	-14532
▁Jupiter	-14533
▁interact	-14534
uzzle	-14535
▁trick	-14536
▁affili	-14537
FFFF	-14538
▁lying	-14539
▁opens	-14540
ismatch	-14541
▁defending	-14542
media	-14543
▁FIXME	-14544
▁beats	-14545
▁victim	-14546
▁longitude	-14547
elem	-14548
▁offs	-14549
▁gallery	-14550
▁incorrect	-14551
▁improvement	-14552
▁productions	-14553
▁egg	-14554
verify	-14555
Whitespace	-14556
▁rebellion	-14557
▁executable	-14558
▁Anim	-14559
▁Edin	-14560
▁aerial	-14561
▁getIfc	-14562
Schedule	-14563
▁feeding	-14564
▁approaching	-14565
▁expressions	-14566
sa	-14567
Bad	-14568
avi	-14569
ILED	-14570
runtime	-14571
▁merely	-14572
▁Reserve	-14573
▁fantasy	-14574
BR	-14575
▁PR	-14576
▁dw	-14577
());	-14578
▁Word	-14579
▁dual	-14580
▁renderer	-14581
▁conventional	-14582
iso	-14583
rox	-14584
tha	-14585
▁Meta	-14586
▁Role	-14587
▁brill	-14588
correct	-14589
][	-14590
Bund	-14591
posal	-14592
services	-14593
▁Champion	-14594
▁Pakistan	-14595
▁Champions	-14596
▁toByteArray	-14597
free	-14598
hous	-14599
▁fake	-14600
Abs	-14601
rates	-14602
▁markets	-14603
▁Mountains	-14604
▁Portuguese	-14605
▁communicate	-14606
▁lc	-14607
▁TNA	-14608
▁Dall	-14609
▁Griff	-14610
▁youngest	-14611
▁magazines	-14612
Addr	-14613
▁Support	-14614
▁Duration	-14615
Save	-14616
osed	-14617
osex	-14618
perm	-14619
vere	-14620
▁pdb	-14621
Reply	-14622
▁bitmap	-14623
generated	-14624
▁exponent	-14625
▁extratropical	-14626
▁tubes	-14627
▁strategic	-14628
Interceptor	-14629
▁Transformer	-14630
Hook	-14631
▁Afg	-14632
adier	-14633
ennium	-14634
radius	-14635
▁associate	-14636
▁Convention	-14637
EE	-14638
puter	-14639
Sample	-14640
▁comed	-14641
▁Bradman	-14642
▁Managed	-14643
FieldName	-14644
rawn	-14645
▁Ted	-14646
bas	-14647
▁Nort	-14648
Compat	-14649
▁manip	-14650
▁talent	-14651
▁insects	-14652
▁iterate	-14653
▁lv	-14654
coord	-14655
▁Gallery	-14656
▁electro	-14657
▁colleagues	-14658
SSL	-14659
rh	-14660
embed	-14661
▁inline	-14662
▁ImmutableList	-14663
glob	-14664
▁350	-14665
hears	-14666
▁STATE	-14667
▁Marvel	-14668
▁poster	-14669
▁Personal	-14670
XY	-14671
STATUS	-14672
▁reveal	-14673
skip	-14674
▁1860	-14675
▁pref	-14676
▁Binary	-14677
▁papers	-14678
▁Performance	-14679
▁CRE	-14680
▁tube	-14681
▁Æthel	-14682
▁hitting	-14683
rik	-14684
▁battlecru	-14685
*/	-14686
▁fg	-14687
▁furn	-14688
Normal	-14689
▁sweep	-14690
TIMEOUT	-14691
▁talking	-14692
▁relevant	-14693
▁assessment	-14694
ista	-14695
▁cid	-14696
Primary	-14697
▁Trophy	-14698
▁survival	-14699
▁Url	-14700
▁duo	-14701
▁revolt	-14702
▁attitude	-14703
▁isPresent	-14704
▁packageName	-14705
AUTH	-14706
riors	-14707
▁Eff	-14708
▁alg	-14709
▁alphabet	-14710
▁cha	-14711
eneath	-14712
▁Alice	-14713
▁varied	-14714
▁Account	-14715
▁rollback	-14716
▁variation	-14717
rastructure	-14718
QUI	-14719
Req	-14720
▁1893	-14721
▁Dwight	-14722
arged	-14723
▁swit	-14724
▁basin	-14725
▁characteristic	-14726
▁grab	-14727
▁reducing	-14728
Fail	-14729
▁Say	-14730
▁Format	-14731
▁Meteor	-14732
▁BO	-14733
repr	-14734
Download	-14735
▁colored	-14736
Env	-14737
▁Ku	-14738
Pred	-14739
uits	-14740
▁Blu	-14741
▁Las	-14742
▁getTask	-14743
▁attending	-14744
MASK	-14745
▁anth	-14746
▁cock	-14747
egraph	-14748
▁understood	-14749
▁concatenate	-14750
IA	-14751
▁challenged	-14752
ARK	-14753
iffs	-14754
plane	-14755
▁1896	-14756
▁flip	-14757
double	-14758
▁docker	-14759
▁movies	-14760
▁trough	-14761
hostname	-14762
▁Fleming	-14763
▁respective	-14764
▁readline	-14765
▁Hampshire	-14766
imap	-14767
▁Soul	-14768
▁Natural	-14769
▁Timeout	-14770
▁defaultdict	-14771
▁"\""	-14772
▁Cert	-14773
▁wake	-14774
arships	-14775
▁lifetime	-14776
▁educational	-14777
asset	-14778
▁easier	-14779
▁tracked	-14780
▁04	-14781
calc	-14782
▁scanner	-14783
▁stripped	-14784
compatible	-14785
▁interpreted	-14786
BLE	-14787
▁boost	-14788
vance	-14789
▁NCAA	-14790
▁Quest	-14791
▁dubbed	-14792
▁universal	-14793
▁evaluation	-14794
apply	-14795
▁sensor	-14796
▁terrain	-14797
▁sampling	-14798
▁Edinburgh	-14799
Cost	-14800
▁Flying	-14801
▁Extension	-14802
ci	-14803
oda	-14804
▁Sak	-14805
PLICATION	-14806
▁RS	-14807
mund	-14808
▁Oliver	-14809
▁Isa	-14810
▁Charts	-14811
▁unclear	-14812
dx	-14813
▁"@	-14814
BASE	-14815
▁'0'	-14816
▁STRING	-14817
▁fragments	-14818
irates	-14819
▁INTER	-14820
▁advertising	-14821
▁concentrated	-14822
▁amid	-14823
▁VALUE	-14824
▁shallow	-14825
▁multiply	-14826
rpc	-14827
▁rt	-14828
apters	-14829
▁toUpperCase	-14830
RuntimeException	-14831
▁representatives	-14832
Angle	-14833
ussion	-14834
require	-14835
▁Afghan	-14836
▁seized	-14837
▁getItem	-14838
▁decrease	-14839
▁municipal	-14840
▁theore	-14841
▁replied	-14842
emb	-14843
vol	-14844
▁Site	-14845
▁creek	-14846
▁topped	-14847
▁annually	-14848
▁queryset	-14849
olly	-14850
▁1898	-14851
▁getV	-14852
▁marry	-14853
▁modes	-14854
dm	-14855
ugs	-14856
▁ci	-14857
ffff	-14858
▁Roberts	-14859
▁accurate	-14860
▁champions	-14861
cow	-14862
hab	-14863
acks	-14864
Digest	-14865
▁corps	-14866
▁parody	-14867
Cause	-14868
▁flex	-14869
▁distant	-14870
▁offense	-14871
▁privile	-14872
isons	-14873
▁navy	-14874
written	-14875
▁Overall	-14876
▁distrib	-14877
▁Mode	-14878
▁dogs	-14879
▁moon	-14880
▁scre	-14881
▁copyOf	-14882
▁getBundle	-14883
otte	-14884
Direction	-14885
nail	-14886
uity	-14887
▁Stu	-14888
▁Eval	-14889
▁macro	-14890
oca	-14891
uki	-14892
▁tid	-14893
▁unlikely	-14894
▁ear	-14895
otypes	-14896
▁suspect	-14897
▁credential	-14898
▁Hog	-14899
▁unre	-14900
anton	-14901
encer	-14902
▁obsc	-14903
▁prize	-14904
igenous	-14905
▁couldn	-14906
▁referring	-14907
▁histogram	-14908
100	-14909
Filters	-14910
imetres	-14911
filepath	-14912
▁itertools	-14913
VP	-14914
pat	-14915
▁NAT	-14916
▁banned	-14917
▁bishop	-14918
▁flooded	-14919
▁inherit	-14920
▁pictures	-14921
▁Chronicle	-14922
▁Cel	-14923
equal	-14924
▁Fund	-14925
▁getHeader	-14926
▁conservation	-14927
▁Pink	-14928
▁coff	-14929
▁advis	-14930
▁bacter	-14931
Redirect	-14932
▁readLine	-14933
▁portrayal	-14934
▁promotional	-14935
▁Net	-14936
rooms	-14937
origin	-14938
▁Twitter	-14939
▁queen	-14940
Begin	-14941
icity	-14942
▁ceased	-14943
▁monarch	-14944
▁Democrats	-14945
▁Mick	-14946
boards	-14947
▁Yellow	-14948
▁Victorian	-14949
▁allocated	-14950
▁developers	-14951
illes	-14952
▁mature	-14953
▁scattered	-14954
OutOf	-14955
▁jury	-14956
▁dummy	-14957
SEPARATOR	-14958
▁fortress	-14959
▁Soft	-14960
▁dash	-14961
▁rings	-14962
▁photos	-14963
▁Yorkshire	-14964
uton	-14965
phone	-14966
ramid	-14967
▁1899	-14968
▁Maya	-14969
through	-14970
▁Argentina	-14971
TES	-14972
aze	-14973
Disk	-14974
epoch	-14975
arians	-14976
ocracy	-14977
▁codec	-14978
▁discrim	-14979
Operations	-14980
▁Similarly	-14981
▁Jerry	-14982
backend	-14983
▁Members	-14984
▁Ralph	-14985
▁nickname	-14986
▁employment	-14987
▁pickle	-14988
▁WARNING	-14989
▁courses	-14990
▁imagery	-14991
fail	-14992
scan	-14993
▁Tob	-14994
▁tur	-14995
▁dynam	-14996
Expressions	-14997
▁Christianity	-14998
▁getApplication	-14999
▁Pi	-15000
marks	-15001
▁Bomb	-15002
▁mate	-15003
Handlers	-15004
▁arrives	-15005
▁liberal	-15006
Extensions	-15007
▁destroying	-15008
▁questioned	-15009
▁photographs	-15010
▁ServiceCallback	-15011
▁Wolf	-15012
▁Village	-15013
ipv	-15014
inds	-15015
▁etree	-15016
▁Brothers	-15017
▁acoustic	-15018
▁artificial	-15019
▁'(	-15020
▁drinking	-15021
▁stronger	-15022
ssh	-15023
▁lie	-15024
▁paras	-15025
▁certainly	-15026
▁partitions	-15027
▁exclusively	-15028
ufficient	-15029
▁bootstrap	-15030
▁ud	-15031
▁Tai	-15032
▁lad	-15033
TableName	-15034
▁competing	-15035
▁attributeName	-15036
pkg	-15037
▁Moz	-15038
▁Break	-15039
▁getAs	-15040
outputs	-15041
▁ballad	-15042
▁friendship	-15043
opic	-15044
▁Celt	-15045
Interfaces	-15046
▁underwent	-15047
▁tun	-15048
UBLE	-15049
▁SUB	-15050
▁Mother	-15051
▁Collins	-15052
▁cookies	-15053
▁predominant	-15054
afka	-15055
▁Tig	-15056
Amount	-15057
▁Still	-15058
Deleted	-15059
▁cousin	-15060
priority	-15061
"\	-15062
rin	-15063
tick	-15064
outer	-15065
▁Movie	-15066
▁Metadata	-15067
▁commentary	-15068
ictions	-15069
▁streak	-15070
▁connector	-15071
ENTITY	-15072
▁Books	-15073
▁unused	-15074
Curve	-15075
▁brig	-15076
▁Upper	-15077
▁framework	-15078
▁proportion	-15079
88	-15080
▁swimming	-15081
▁classpath	-15082
▁restriction	-15083
▁empire	-15084
Ptr	-15085
trian	-15086
▁Marge	-15087
▁lawyer	-15088
▁extending	-15089
Show	-15090
▁Eth	-15091
▁nic	-15092
▁Honor	-15093
Catalog	-15094
▁tenure	-15095
▁reluctant	-15096
▁accompanying	-15097
▁NL	-15098
draw	-15099
▁"*"	-15100
▁tau	-15101
▁slope	-15102
▁numeric	-15103
▁worship	-15104
▁thirteen	-15105
▁estimates	-15106
▁recurring	-15107
▁mg	-15108
▁coat	-15109
▁loved	-15110
ecessary	-15111
ibration	-15112
instances	-15113
▁clar	-15114
▁Lloyd	-15115
▁Finland	-15116
bre	-15117
adal	-15118
▁Howe	-15119
▁Craig	-15120
▁daughters	-15121
▁disband	-15122
▁155	-15123
▁aws	-15124
▁Swift	-15125
ibm	-15126
hammad	-15127
▁startTime	-15128
▁precipitation	-15129
pages	-15130
▁demo	-15131
SERVER	-15132
▁scripts	-15133
▁succession	-15134
▁electricity	-15135
mid	-15136
▁Sud	-15137
heads	-15138
▁Turner	-15139
▁monaster	-15140
▁Pam	-15141
▁nam	-15142
▁STATUS	-15143
▁devast	-15144
▁clients	-15145
▁contracts	-15146
▁Bh	-15147
▁Roc	-15148
▁Axis	-15149
▁stim	-15150
▁Mong	-15151
▁indeed	-15152
dc	-15153
▁traded	-15154
▁Wii	-15155
ounce	-15156
▁bold	-15157
▁pole	-15158
▁sang	-15159
PATTERN	-15160
▁Mapping	-15161
▁getPort	-15162
▁surrendered	-15163
CLU	-15164
▁Fro	-15165
▁compr	-15166
▁dread	-15167
▁confusion	-15168
▁Coordinate	-15169
▁Glen	-15170
▁Mason	-15171
Geometry	-15172
▁programming	-15173
▁pag	-15174
▁tape	-15175
▁charter	-15176
▁proposals	-15177
ieth	-15178
▁Nature	-15179
▁transformation	-15180
▁JC	-15181
▁Leaf	-15182
▁spans	-15183
▁Burton	-15184
▁Charset	-15185
note	-15186
ifecycle	-15187
▁Classic	-15188
▁Norfolk	-15189
▁navigation	-15190
▁glo	-15191
▁Queensland	-15192
ben	-15193
▁Hardy	-15194
▁disch	-15195
▁Heritage	-15196
▁Direction	-15197
▁TE	-15198
▁Jama	-15199
▁reinforcements	-15200
▁Dod	-15201
▁Joy	-15202
▁funct	-15203
COMM	-15204
▁activate	-15205
▁consumed	-15206
▁participants	-15207
urse	-15208
vard	-15209
▁Eug	-15210
▁Sql	-15211
▁perc	-15212
▁penet	-15213
▁Belgian	-15214
▁considers	-15215
▁earthquake	-15216
▁Ara	-15217
OPTION	-15218
signal	-15219
▁Protest	-15220
▁Professor	-15221
olen	-15222
stderr	-15223
▁Hawaii	-15224
▁listdir	-15225
▁Nicholas	-15226
ERY	-15227
vlan	-15228
▁whit	-15229
▁therm	-15230
Indices	-15231
▁Layout	-15232
PARAMETER	-15233
▁radiation	-15234
▁mechanical	-15235
ieg	-15236
Stage	-15237
▁Boat	-15238
idency	-15239
▁preview	-15240
▁reviewed	-15241
▁Rab	-15242
ABLED	-15243
▁subs	-15244
activity	-15245
pike	-15246
▁Body	-15247
▁chains	-15248
▁screens	-15249
▁Communist	-15250
▁1850	-15251
Blocks	-15252
▁OAuth	-15253
▁Vincent	-15254
▁provincial	-15255
Ep	-15256
dfs	-15257
AGES	-15258
▁revised	-15259
▁Enumeration	-15260
Tax	-15261
▁109	-15262
▁Cab	-15263
▁Iss	-15264
▁Rangers	-15265
▁advised	-15266
rank	-15267
▁Sid	-15268
▁humor	-15269
▁virus	-15270
assador	-15271
▁Select	-15272
▁burned	-15273
▁Diamond	-15274
▁happens	-15275
many	-15276
▁Appe	-15277
▁jack	-15278
▁coeff	-15279
▁solver	-15280
DAY	-15281
METH	-15282
▁putAll	-15283
idae	-15284
▁weigh	-15285
▁whatever	-15286
integer	-15287
targets	-15288
▁Retriev	-15289
▁slavery	-15290
▁Beh	-15291
▁Credits	-15292
▁Medical	-15293
ifference	-15294
▁voting	-15295
▁Catherine	-15296
▁destroyer	-15297
▁governments	-15298
▁Darwin	-15299
())	-15300
▁Io	-15301
sure	-15302
▁isS	-15303
FOUND	-15304
ingham	-15305
merged	-15306
▁spark	-15307
Machine	-15308
▁gran	-15309
▁Saxon	-15310
[...]
