<unk>	0
<s>	0
</s>	0
▁t	-0
in	-1
er	-2
on	-3
▁a	-4
he	-5
re	-6
at	-7
▁the	-8
en	-9
st	-10
ed	-11
or	-12
al	-13
an	-14
▁c	-15
et	-16
it	-17
es	-18
▁s	-19
▁,	-20
▁w	-21
ing	-22
ion	-23
is	-24
▁f	-25
ar	-26
▁p	-27
);	-28
▁o	-29
ro	-30
le	-31
▁b	-32
▁in	-33
▁.	-34
as	-35
nd	-36
▁n	-37
ce	-38
▁re	-39
▁m	-40
ur	-41
ic	-42
▁of	-43
▁{	-44
▁}	-45
▁=	-46
▁(	-47
ct	-48
▁d	-49
ent	-50
▁to	-51
am	-52
▁"	-53
▁and	-54
▁S	-55
ll	-56
▁i	-57
()	-58
▁h	-59
get	-60
▁th	-61
▁e	-62
ut	-63
▁T	-64
ad	-65
om	-66
tr	-67
▁l	-68
▁C	-69
id	-70
il	-71
▁if	-72
se	-73
ou	-74
▁/	-75
ra	-76
pt	-77
el	-78
ab	-79
▁A	-80
ation	-81
▁//	-82
▁1	-83
ot	-84
ue	-85
ch	-86
ew	-87
ig	-88
ag	-89
ol	-90
ate	-91
od	-92
im	-93
ver	-94
ist	-95
▁I	-96
▁@	-97
ect	-98
▁M	-99
▁for	-100
th	-101
▁st	-102
ame	-103
ess	-104
ter	-105
ve	-106
ex	-107
En	-108
▁be	-109
▁on	-110
ul	-111
▁was	-112
▁B	-113
ull	-114
ow	-115
ck	-116
ly	-117
tring	-118
Ex	-119
ption	-120
ub	-121
um	-122
▁g	-123
ir	-124
▁v	-125
();	-126
em	-127
pe	-128
▁'	-129
urn	-130
▁u	-131
▁The	-132
▁con	-133
▁is	-134
ith	-135
nt	-136
▁new	-137
ri	-138
ap	-139
ay	-140
▁as	-141
▁ret	-142
▁H	-143
ception	-144
▁F	-145
▁null	-146
▁D	-147
▁P	-148
-@	-149
▁@-@	-150
▁L	-151
▁return	-152
ers	-153
end	-154
and	-155
▁R	-156
ass	-157
▁wh	-158
our	-159
Con	-160
Exception	-161
▁that	-162
▁+	-163
▁2	-164
led	-165
ject	-166
▁pro	-167
▁with	-168
ms	-169
res	-170
▁it	-171
omp	-172
ain	-173
())	-174
▁by	-175
us	-176
lic	-177
per	-178
▁N	-179
▁de	-180
▁O	-181
▁W	-182
ere	-183
lo	-184
Name	-185
age	-186
ult	-187
art	-188
ile	-189
▁an	-190
ment	-191
row	-192
ib	-193
ore	-194
▁ex	-195
▁at	-196
ug	-197
rom	-198
▁0	-199
oc	-200
iz	-201
abled	-202
ort	-203
lass	-204
In	-205
▁J	-206
▁res	-207
if	-208
able	-209
▁G	-210
St	-211
Enabled	-212
ext	-213
alue	-214
--	-215
ity	-216
▁pub	-217
os	-218
un	-219
▁he	-220
▁tr	-221
ies	-222
ype	-223
▁)	-224
▁se	-225
("	-226
Tra	-227
qu	-228
ke	-229
▁String	-230
og	-231
▁public	-232
String	-233
op	-234
est	-235
int	-236
Re	-237
▁int	-238
▁19	-239
▁&	-240
ac	-241
ld	-242
ong	-243
ath	-244
act	-245
▁from	-246
▁al	-247
inal	-248
ff	-249
bject	-250
iv	-251
set	-252
up	-253
ource	-254
igh	-255
all	-256
▁r	-257
out	-258
▁this	-259
▁!	-260
rit	-261
ant	-262
",	-263
ill	-264
▁&&	-265
ast	-266
▁In	-267
Res	-268
oo	-269
▁or	-270
ber	-271
▁get	-272
ure	-273
ime	-274
▁his	-275
▁ch	-276
");	-277
▁==	-278
().	-279
ack	-280
▁not	-281
▁E	-282
Pro	-283
▁throw	-284
ial	-285
ive	-286
ase	-287
ata	-288
ated	-289
ode	-290
que	-291
pl	-292
ance	-293
con	-294
ans	-295
ip	-296
ge	-297
▁sh	-298
ine	-299
ard	-300
00	-301
▁:	-302
▁!=	-303
atch	-304
eb	-305
ud	-306
▁U	-307
ust	-308
ich	-309
ire	-310
try	-311
Type	-312
Id	-313
ition	-314
cess	-315
are	-316
av	-317
orm	-318
▁were	-319
ord	-320
▁el	-321
ction	-322
▁we	-323
ost	-324
ry	-325
ind	-326
ak	-327
Comp	-328
▁are	-329
Cont	-330
eth	-331
▁else	-332
▁pl	-333
ER	-334
iel	-335
List	-336
cl	-337
ace	-338
))	-339
tc	-340
▁final	-341
essage	-342
port	-343
ory	-344
onent	-345
▁tc	-346
quest	-347
());	-348
ight	-349
ield	-350
▁j	-351
▁cont	-352
An	-353
sion	-354
oid	-355
IN	-356
ide	-357
ild	-358
app	-359
Entry	-360
put	-361
▁ad	-362
ser	-363
ave	-364
ize	-365
eng	-366
vi	-367
ary	-368
Value	-369
▁k	-370
ign	-371
▁St	-372
▁which	-373
▁K	-374
ethod	-375
▁had	-376
lean	-377
ear	-378
irst	-379
▁void	-380
ork	-381
▁y	-382
Trace	-383
ould	-384
cing	-385
▁V	-386
Component	-387
▁le	-388
Tr	-389
vent	-390
▁comp	-391
▁result	-392
));	-393
omm	-394
pert	-395
▁Cms	-396
pp	-397
add	-398
----	-399
fig	-400
oolean	-401
ish	-402
▁ar	-403
ON	-404
▁3	-405
uff	-406
che	-407
ebug	-408
ail	-409
Class	-410
▁Th	-411
[]	-412
ther	-413
ble	-414
te	-415
ator	-416
Cms	-417
ound	-418
Tracing	-419
ical	-420
ence	-421
ia	-422
ef	-423
und	-424
Any	-425
ream	-426
TracingEnabled	-427
urre	-428
▁ro	-429
ey	-430
isAny	-431
▁but	-432
▁un	-433
ength	-434
ount	-435
▁first	-436
AT	-437
ove	-438
ec	-439
ener	-440
ome	-441
ous	-442
aram	-443
read	-444
fter	-445
▁Tr	-446
let	-447
▁-	-448
Resource	-449
vel	-450
ocal	-451
riv	-452
▁all	-453
To	-454
▁has	-455
ger	-456
▁have	-457
ru	-458
▁Ch	-459
append	-460
(),	-461
own	-462
TraceComponent	-463
so	-464
ID	-465
▁set	-466
▁stat	-467
ian	-468
fo	-469
Data	-470
ror	-471
Object	-472
ree	-473
li	-474
ache	-475
▁<	-476
▁up	-477
▁out	-478
pro	-479
ray	-480
anag	-481
fer	-482
lement	-483
reate	-484
als	-485
▁pre	-486
▁*	-487
ection	-488
▁ser	-489
over	-490
Message	-491
▁200	-492
du	-493
ep	-494
▁su	-495
▁one	-496
pr	-497
▁try	-498
form	-499
enc	-500
RE	-501
Context	-502
sed	-503
uffer	-504
key	-505
ations	-506
old	-507
▁sc	-508
▁4	-509
ater	-510
ite	-511
▁;	-512
hen	-513
alse	-514
▁their	-515
▁per	-516
urrent	-517
isEntry	-518
wo	-519
isEntryEnabled	-520
ock	-521
▁ac	-522
▁dis	-523
▁its	-524
ron	-525
to	-526
▁ne	-527
▁catch	-528
oll	-529
tem	-530
▁rec	-531
ouble	-532
ix	-533
▁He	-534
Path	-535
tern	-536
▁Object	-537
pon	-538
▁throws	-539
ader	-540
ach	-541
▁also	-542
oint	-543
ph	-544
ings	-545
entry	-546
oth	-547
File	-548
▁boolean	-549
cri	-550
ang	-551
▁been	-552
this	-553
ie	-554
ann	-555
clud	-556
▁20	-557
▁part	-558
▁add	-559
ute	-560
▁her	-561
▁ab	-562
▁im	-563
stance	-564
ugh	-565
Map	-566
▁5	-567
til	-568
▁Sib	-569
ST	-570
ask	-571
uild	-572
ax	-573
ual	-574
▁rem	-575
ress	-576
▁who	-577
▁SibTr	-578
ved	-579
Info	-580
ages	-581
roup	-582
▁bec	-583
).	-584
▁time	-585
Set	-586
ark	-587
val	-588
▁18	-589
▁over	-590
ink	-591
▁false	-592
ied	-593
lect	-594
Config	-595
oug	-596
▁6	-597
ens	-598
▁ag	-599
Util	-600
▁des	-601
▁value	-602
Ar	-603
umber	-604
▁off	-605
ized	-606
yn	-607
ession	-608
sh	-609
mer	-610
Ch	-611
amp	-612
yst	-613
Request	-614
▁two	-615
uring	-616
nection	-617
ME	-618
ler	-619
▁case	-620
▁Ar	-621
▁static	-622
pec	-623
.@	-624
▁@.@	-625
Propert	-626
▁–	-627
rivate	-628
▁comm	-629
Stream	-630
ough	-631
ames	-632
▁while	-633
▁true	-634
Ser	-635
length	-636
▁after	-637
▁|	-638
▁tra	-639
new	-640
▁It	-641
▁private	-642
ange	-643
▁def	-644
OR	-645
ystem	-646
AL	-647
▁other	-648
ces	-649
ss	-650
les	-651
use	-652
ric	-653
▁year	-654
ean	-655
▁writ	-656
ination	-657
▁ind	-658
ilter	-659
▁they	-660
equ	-661
Key	-662
▁end	-663
erm	-664
▁>	-665
▁cl	-666
oun	-667
Manag	-668
ely	-669
we	-670
▁long	-671
ash	-672
ade	-673
heck	-674
land	-675
ake	-676
,@	-677
▁@,@	-678
one	-679
▁te	-680
AR	-681
▁sub	-682
▁includ	-683
▁play	-684
▁no	-685
Time	-686
LE	-687
),	-688
▁class	-689
By	-690
▁so	-691
pres	-692
ook	-693
▁into	-694
class	-695
SE	-696
ced	-697
ument	-698
vice	-699
olum	-700
▁do	-701
ected	-702
debug	-703
action	-704
ponse	-705
any	-706
ern	-707
▁Un	-708
ault	-709
Over	-710
tain	-711
ased	-712
▁Con	-713
▁only	-714
ick	-715
ates	-716
isD	-717
Hand	-718
Un	-719
SI	-720
State	-721
ery	-722
▁would	-723
essages	-724
▁method	-725
▁sp	-726
trib	-727
▁Y	-728
Of	-729
▁work	-730
▁0;	-731
ool	-732
son	-733
att	-734
▁201	-735
ft	-736
rough	-737
ndex	-738
ward	-739
hed	-740
▁inter	-741
--------	-742
▁more	-743
▁bre	-744
Field	-745
Log	-746
cond	-747
▁start	-748
Item	-749
▁when	-750
▁_	-751
▁log	-752
▁On	-753
uration	-754
▁app	-755
▁pos	-756
arget	-757
Manager	-758
▁fe	-759
oot	-760
ride	-761
▁can	-762
value	-763
▁List	-764
At	-765
der	-766
iver	-767
ited	-768
ccess	-769
▁name	-770
▁id	-771
irect	-772
▁ra	-773
exit	-774
ific	-775
▁(!	-776
▁him	-777
equals	-778
Param	-779
nder	-780
▁||	-781
ants	-782
▁trans	-783
olumn	-784
ok	-785
Index	-786
ues	-787
red	-788
isDebug	-789
ason	-790
ob	-791
Override	-792
▁8	-793
▁list	-794
ors	-795
ause	-796
▁char	-797
aw	-798
▁7	-799
isDebugEnabled	-800
Method	-801
lection	-802
▁Se	-803
▁bet	-804
lock	-805
TI	-806
pen	-807
error	-808
arent	-809
▁ver	-810
way	-811
tt	-812
▁cons	-813
iew	-814
++	-815
OG	-816
ice	-817
outh	-818
▁break	-819
▁she	-820
arch	-821
eter	-822
ton	-823
CE	-824
▁((	-825
not	-826
▁act	-827
▁spec	-828
ature	-829
SS	-830
Buffer	-831
▁them	-832
round	-833
▁reg	-834
▁than	-835
▁form	-836
Local	-837
UR	-838
ren	-839
▁exp	-840
Def	-841
ml	-842
ari	-843
arn	-844
ell	-845
ten	-846
▁prot	-847
cc	-848
TE	-849
▁9	-850
▁This	-851
pty	-852
▁en	-853
▁there	-854
▁fil	-855
▁double	-856
▁then	-857
▁?	-858
yp	-859
gan	-860
ision	-861
fore	-862
Im	-863
▁game	-864
▁during	-865
nte	-866
its	-867
▁cent	-868
Event	-869
▁qu	-870
▁kn	-871
ocation	-872
▁cal	-873
ider	-874
▁fl	-875
size	-876
ken	-877
On	-878
iter	-879
▁again	-880
▁instance	-881
of	-882
ween	-883
▁check	-884
actory	-885
rror	-886
▁0)	-887
Ad	-888
ollow	-889
ational	-890
▁type	-891
leg	-892
ict	-893
Handler	-894
ring	-895
rem	-896
▁x	-897
getS	-898
sp	-899
▁Al	-900
Const	-901
▁found	-902
▁through	-903
▁most	-904
orth	-905
ise	-906
DE	-907
▁read	-908
▁col	-909
ps	-910
Property	-911
▁An	-912
▁create	-913
ven	-914
▁will	-915
ired	-916
ating	-917
wn	-918
▁request	-919
name	-920
pos	-921
▁produ	-922
▁ass	-923
▁rel	-924
▁me	-925
RO	-926
ics	-927
Or	-928
▁ent	-929
▁about	-930
ier	-931
date	-932
nteger	-933
apt	-934
▁later	-935
back	-936
▁between	-937
▁com	-938
sg	-939
upport	-940
Node	-941
▁En	-942
mpty	-943
pression	-944
▁ap	-945
getName	-946
▁record	-947
▁data	-948
Size	-949
▁key	-950
▁0,	-951
NA	-952
▁under	-953
Connection	-954
▁song	-955
ek	-956
▁dest	-957
ternal	-958
▁used	-959
▁day	-960
▁any	-961
▁New	-962
▁contin	-963
ible	-964
▁before	-965
ished	-966
ule	-967
▁mod	-968
▁three	-969
Mod	-970
lose	-971
▁file	-972
▁Pro	-973
air	-974
▁state	-975
ank	-976
▁where	-977
▁current	-978
▁min	-979
▁us	-980
▁second	-981
▁resource	-982
itt	-983
▁go	-984
ars	-985
rap	-986
print	-987
uilder	-988
ale	-989
arly	-990
ose	-991
▁Re	-992
▁use	-993
orn	-994
umer	-995
▁00	-996
tes	-997
Th	-998
ared	-999
elet	-1000
ative	-1001
▁rele	-1002
▁att	-1003
uth	-1004
Element	-1005
lient	-1006
cre	-1007
Filter	-1008
Le	-1009
▁number	-1010
ember	-1011
▁some	-1012
▁pe	-1013
▁199	-1014
log	-1015
ral	-1016
For	-1017
▁val	-1018
Error	-1019
io	-1020
Not	-1021
rite	-1022
▁local	-1023
meric	-1024
▁10	-1025
ution	-1026
▁need	-1027
TY	-1028
orld	-1029
▁Americ	-1030
getD	-1031
ower	-1032
ever	-1033
EN	-1034
mp	-1035
ys	-1036
Val	-1037
ally	-1038
ynch	-1039
▁message	-1040
▁event	-1041
▁follow	-1042
▁pr	-1043
▁high	-1044
Stat	-1045
ox	-1046
▁season	-1047
cept	-1048
Result	-1049
Array	-1050
▁Field	-1051
▁As	-1052
▁made	-1053
by	-1054
ility	-1055
▁bu	-1056
▁hand	-1057
ince	-1058
other	-1059
ission	-1060
ram	-1061
▁back	-1062
toString	-1063
▁cre	-1064
Messages	-1065
ma	-1066
▁run	-1067
par	-1068
ified	-1069
Sub	-1070
▁mon	-1071
▁lar	-1072
▁group	-1073
Factory	-1074
\"	-1075
Cache	-1076
Count	-1077
estination	-1078
ived	-1079
Out	-1080
▁such	-1081
▁ep	-1082
oin	-1083
OException	-1084
ypes	-1085
▁dec	-1086
ote	-1087
▁am	-1088
Table	-1089
putStream	-1090
ines	-1091
▁being	-1092
▁pres	-1093
All	-1094
He	-1095
ttp	-1096
lish	-1097
▁instanceof	-1098
Form	-1099
ures	-1100
▁next	-1101
▁000	-1102
Inter	-1103
iss	-1104
Bean	-1105
stru	-1106
CO	-1107
▁Jo	-1108
bum	-1109
▁four	-1110
▁met	-1111
];	-1112
▁last	-1113
▁Class	-1114
▁call	-1115
ents	-1116
itial	-1117
sel	-1118
▁Col	-1119
▁may	-1120
tribute	-1121
▁At	-1122
▁show	-1123
aid	-1124
▁par	-1125
▁orig	-1126
ists	-1127
fl	-1128
Trans	-1129
ference	-1130
az	-1131
ert	-1132
valid	-1133
ister	-1134
++)	-1135
▁Array	-1136
min	-1137
▁li	-1138
mber	-1139
Service	-1140
QL	-1141
ava	-1142
▁protected	-1143
man	-1144
▁Sh	-1145
▁gener	-1146
Constants	-1147
▁film	-1148
create	-1149
view	-1150
▁pass	-1151
owever	-1152
▁charact	-1153
▁main	-1154
▁years	-1155
▁acc	-1156
com	-1157
▁sing	-1158
Qu	-1159
▁If	-1160
▁param	-1161
ynchron	-1162
User	-1163
Empty	-1164
contain	-1165
has	-1166
LA	-1167
gin	-1168
ily	-1169
reat	-1170
▁Le	-1171
▁12	-1172
Task	-1173
next	-1174
▁path	-1175
ury	-1176
▁SI	-1177
▁dist	-1178
▁object	-1179
▁could	-1180
ities	-1181
▁prov	-1182
Response	-1183
current	-1184
▁appe	-1185
ient	-1186
aj	-1187
cle	-1188
▁System	-1189
oy	-1190
Met	-1191
▁dif	-1192
ather	-1193
▁should	-1194
DC	-1195
▁direct	-1196
▁epis	-1197
uch	-1198
▁field	-1199
▁album	-1200
▁descri	-1201
Builder	-1202
▁17	-1203
▁against	-1204
▁both	-1205
▁perform	-1206
AN	-1207
Session	-1208
place	-1209
AC	-1210
rop	-1211
▁str	-1212
ources	-1213
▁exception	-1214
▁ob	-1215
▁point	-1216
▁De	-1217
Level	-1218
olog	-1219
▁Z	-1220
ised	-1221
▁sever	-1222
FI	-1223
▁well	-1224
Col	-1225
ond	-1226
▁mo	-1227
▁co	-1228
▁did	-1229
ane	-1230
▁sm	-1231
▁inst	-1232
▁inv	-1233
process	-1234
▁process	-1235
DAT	-1236
▁propert	-1237
FDC	-1238
▁X	-1239
Impl	-1240
▁mus	-1241
start	-1242
DB	-1243
sub	-1244
▁old	-1245
ular	-1246
▁entry	-1247
▁Brit	-1248
Project	-1249
<?	-1250
Start	-1251
ts	-1252
emp	-1253
▁16	-1254
▁team	-1255
▁rece	-1256
Code	-1257
Instance	-1258
▁same	-1259
lleg	-1260
▁sur	-1261
load	-1262
▁remain	-1263
pace	-1264
▁called	-1265
▁because	-1266
▁became	-1267
ING	-1268
mb	-1269
▁index	-1270
llegal	-1271
face	-1272
Arg	-1273
▁pol	-1274
▁series	-1275
Date	-1276
ments	-1277
ntil	-1278
▁config	-1279
ended	-1280
MP	-1281
▁ext	-1282
velop	-1283
ually	-1284
▁element	-1285
rid	-1286
▁sign	-1287
Properties	-1288
▁including	-1289
Add	-1290
▁No	-1291
▁After	-1292
utes	-1293
line	-1294
▁known	-1295
notation	-1296
Null	-1297
▁complet	-1298
**	-1299
ood	-1300
ued	-1301
final	-1302
RI	-1303
undle	-1304
pi	-1305
ife	-1306
my	-1307
rol	-1308
▁15	-1309
";	-1310
Group	-1311
▁ref	-1312
enn	-1313
rapper	-1314
NAME	-1315
unt	-1316
▁pop	-1317
----------------	-1318
From	-1319
null	-1320
index	-1321
cover	-1322
remove	-1323
▁support	-1324
Store	-1325
older	-1326
▁user	-1327
Lock	-1328
roll	-1329
ird	-1330
Root	-1331
Expression	-1332
▁byte	-1333
▁United	-1334
▁many	-1335
▁Ad	-1336
▁context	-1337
▁Wh	-1338
Work	-1339
oad	-1340
▁194	-1341
▁open	-1342
riter	-1343
Se	-1344
ailed	-1345
getC	-1346
imes	-1347
Utils	-1348
▁We	-1349
vlet	-1350
▁child	-1351
write	-1352
olt	-1353
ln	-1354
endar	-1355
▁oper	-1356
▁mill	-1357
Location	-1358
▁original	-1359
▁until	-1360
urity	-1361
▁198	-1362
ined	-1363
path	-1364
▁build	-1365
file	-1366
ainer	-1367
ful	-1368
▁She	-1369
sert	-1370
ober	-1371
bc	-1372
▁now	-1373
App	-1374
though	-1375
▁11	-1376
▁Joh	-1377
iles	-1378
▁est	-1379
▁});	-1380
▁dep	-1381
▁ship	-1382
yle	-1383
▁find	-1384
>();	-1385
vious	-1386
raph	-1387
▁occ	-1388
ocument	-1389
getP	-1390
▁ed	-1391
overn	-1392
▁order	-1393
Listener	-1394
▁synchron	-1395
ED	-1396
ident	-1397
be	-1398
ran	-1399
▁sim	-1400
▁File	-1401
▁down	-1402
▁bel	-1403
elete	-1404
ody	-1405
ched	-1406
gn	-1407
oci	-1408
▁episode	-1409
▁Sc	-1410
▁match	-1411
▁several	-1412
TER	-1413
bers	-1414
ibm	-1415
aces	-1416
println	-1417
▁target	-1418
▁develop	-1419
Link	-1420
ored	-1421
ning	-1422
▁Res	-1423
ions	-1424
cont	-1425
PRO	-1426
inition	-1427
▁LOG	-1428
▁allow	-1429
▁project	-1430
▁default	-1431
▁pers	-1432
▁just	-1433
▁American	-1434
▁FFDC	-1435
▁each	-1436
▁sl	-1437
▁Aust	-1438
Sc	-1439
▁these	-1440
ged	-1441
▁By	-1442
CON	-1443
▁air	-1444
▁car	-1445
1.	-1446
▁report	-1447
ons	-1448
ided	-1449
▁Eng	-1450
▁row	-1451
▁stud	-1452
▁Integer	-1453
▁IOException	-1454
With	-1455
▁[	-1456
▁Ind	-1457
ves	-1458
ross	-1459
1,	-1460
▁ArrayList	-1461
ql	-1462
▁own	-1463
NO	-1464
cription	-1465
▁Map	-1466
▁head	-1467
▁bro	-1468
▁det	-1469
reg	-1470
Int	-1471
▁bl	-1472
▁success	-1473
▁parent	-1474
▁task	-1475
▁line	-1476
river	-1477
▁design	-1478
((	-1479
ization	-1480
▁eff	-1481
▁For	-1482
terator	-1483
▁John	-1484
ches	-1485
annel	-1486
ins	-1487
comp	-1488
ting	-1489
▁May	-1490
md	-1491
▁arg	-1492
Number	-1493
Names	-1494
▁max	-1495
▁began	-1496
LI	-1497
ush	-1498
play	-1499
▁top	-1500
ached	-1501
ws	-1502
une	-1503
PE	-1504
▁said	-1505
▁197	-1506
ets	-1507
▁since	-1508
▁synchronized	-1509
bed	-1510
Call	-1511
Dis	-1512
▁early	-1513
▁enc	-1514
ouse	-1515
ople	-1516
IT	-1517
Configuration	-1518
▁near	-1519
ERR	-1520
lished	-1521
//	-1522
▁size	-1523
▁art	-1524
View	-1525
stra	-1526
▁vis	-1527
type	-1528
atter	-1529
unction	-1530
itor	-1531
▁hist	-1532
▁south	-1533
▁coun	-1534
used	-1535
Next	-1536
▁version	-1537
▁196	-1538
amed	-1539
ends	-1540
opy	-1541
▁view	-1542
chool	-1543
urs	-1544
▁table	-1545
▁Ser	-1546
ah	-1547
data	-1548
Column	-1549
Access	-1550
▁gr	-1551
▁war	-1552
(0	-1553
▁lead	-1554
▁ph	-1555
INE	-1556
▁write	-1557
uid	-1558
▁along	-1559
valueOf	-1560
ATI	-1561
oader	-1562
▁ever	-1563
self	-1564
chema	-1565
▁crit	-1566
ivers	-1567
▁tri	-1568
aking	-1569
▁British	-1570
Wid	-1571
ailable	-1572
▁character	-1573
sc	-1574
▁Cl	-1575
ready	-1576
her	-1577
▁*/	-1578
▁Sp	-1579
▁like	-1580
Text	-1581
isEmpty	-1582
med	-1583
atab	-1584
UT	-1585
▁mem	-1586
Bytes	-1587
loc	-1588
ole	-1589
ner	-1590
UE	-1591
▁Car	-1592
▁released	-1593
ique	-1594
ajor	-1595
▁city	-1596
LOG	-1597
ism	-1598
itch	-1599
inc	-1600
▁Illegal	-1601
ope	-1602
▁offic	-1603
▁fin	-1604
Hel	-1605
▁13	-1606
▁super	-1607
▁Is	-1608
▁av	-1609
ley	-1610
UN	-1611
▁War	-1612
▁make	-1613
▁left	-1614
ically	-1615
▁error	-1616
gest	-1617
▁man	-1618
"))	-1619
ship	-1620
()));	-1621
▁though	-1622
▁small	-1623
ateg	-1624
ref	-1625
Content	-1626
▁del	-1627
GE	-1628
hip	-1629
▁land	-1630
ium	-1631
point	-1632
▁connection	-1633
▁Mar	-1634
▁requ	-1635
Up	-1636
▁vari	-1637
▁ca	-1638
▁Comp	-1639
▁following	-1640
rior	-1641
ilt	-1642
itle	-1643
▁msg	-1644
vert	-1645
▁+=	-1646
Argument	-1647
<?>	-1648
Client	-1649
▁response	-1650
▁govern	-1651
▁around	-1652
▁Jul	-1653
▁Comm	-1654
Ref	-1655
▁fam	-1656
Msg	-1657
ped	-1658
ious	-1659
aim	-1660
▁Sept	-1661
▁century	-1662
▁music	-1663
request	-1664
Des	-1665
35	-1666
AD	-1667
Rem	-1668
Byte	-1669
TION	-1670
alendar	-1671
▁received	-1672
DATA	-1673
▁system	-1674
vers	-1675
Meta	-1676
▁All	-1677
▁sk	-1678
▁Austral	-1679
▁September	-1680
imit	-1681
▁item	-1682
▁previous	-1683
cript	-1684
▁initial	-1685
tempt	-1686
lication	-1687
As	-1688
▁people	-1689
ersion	-1690
ait	-1691
▁poss	-1692
ured	-1693
itions	-1694
ats	-1695
aving	-1696
▁million	-1697
aced	-1698
Definition	-1699
▁14	-1700
▁US	-1701
▁/*	-1702
▁]	-1703
Target	-1704
▁sw	-1705
▁195	-1706
▁Aug	-1707
▁single	-1708
ify	-1709
▁South	-1710
atabase	-1711
▁km	-1712
▁World	-1713
getB	-1714
ple	-1715
attern	-1716
▁short	-1717
▁August	-1718
ina	-1719
▁ur	-1720
▁win	-1721
sumer	-1722
And	-1723
.");	-1724
oke	-1725
▁They	-1726
▁rest	-1727
UL	-1728
LO	-1729
▁buffer	-1730
▁..	-1731
▁Set	-1732
Default	-1733
▁ann	-1734
ately	-1735
Query	-1736
")	-1737
▁six	-1738
urch	-1739
▁manag	-1740
MA	-1741
xy	-1742
▁north	-1743
▁However	-1744
▁Pl	-1745
oss	-1746
▁area	-1747
▁sb	-1748
Attribute	-1749
Container	-1750
▁100	-1751
Transaction	-1752
▁conf	-1753
▁attack	-1754
tract	-1755
▁Ex	-1756
ik	-1757
▁length	-1758
▁mark	-1759
side	-1760
TR	-1761
af	-1762
▁session	-1763
loy	-1764
▁close	-1765
Loader	-1766
▁right	-1767
▁lock	-1768
ffset	-1769
▁prog	-1770
string	-1771
▁finally	-1772
▁week	-1773
raft	-1774
▁giv	-1775
ording	-1776
iod	-1777
▁continue	-1778
▁191	-1779
ters	-1780
▁took	-1781
Destination	-1782
▁consider	-1783
ov	-1784
Wrapper	-1785
ense	-1786
▁po	-1787
▁must	-1788
▁States	-1789
Read	-1790
▁does	-1791
▁large	-1792
wards	-1793
VAL	-1794
▁Germ	-1795
▁home	-1796
Length	-1797
ont	-1798
▁partic	-1799
End	-1800
▁...	-1801
▁what	-1802
▁destination	-1803
Types	-1804
▁count	-1805
▁another	-1806
▁contain	-1807
▁Can	-1808
▁batt	-1809
cent	-1810
▁-1	-1811
▁incre	-1812
ling	-1813
rist	-1814
▁Bl	-1815
rag	-1816
[0	-1817
Parameter	-1818
FA	-1819
▁five	-1820
getValue	-1821
abel	-1822
Que	-1823
ales	-1824
▁Hash	-1825
▁filter	-1826
▁already	-1827
▁North	-1828
check	-1829
Helper	-1830
Unit	-1831
Token	-1832
Row	-1833
ialog	-1834
▁port	-1835
lected	-1836
Version	-1837
list	-1838
▁command	-1839
DI	-1840
Option	-1841
Status	-1842
resource	-1843
▁due	-1844
ector	-1845
uster	-1846
▁map	-1847
untime	-1848
JB	-1849
Rel	-1850
raw	-1851
▁hel	-1852
▁real	-1853
ris	-1854
CT	-1855
ences	-1856
▁Oct	-1857
work	-1858
▁differ	-1859
▁update	-1860
ification	-1861
Integer	-1862
MS	-1863
oding	-1864
uthor	-1865
ignment	-1866
▁place	-1867
▁attempt	-1868
field	-1869
ories	-1870
▁Boolean	-1871
▁June	-1872
▁25	-1873
▁track	-1874
▁cor	-1875
for	-1876
▁source	-1877
EX	-1878
Annotation	-1879
ively	-1880
Child	-1881
▁Par	-1882
▁major	-1883
▁won	-1884
▁best	-1885
▁med	-1886
upp	-1887
ATION	-1888
Action	-1889
ural	-1890
atal	-1891
▁still	-1892
▁Jan	-1893
Point	-1894
▁October	-1895
true	-1896
ync	-1897
▁based	-1898
▁constru	-1899
CH	-1900
▁30	-1901
ball	-1902
oard	-1903
Thread	-1904
▁ev	-1905
▁exist	-1906
ivision	-1907
▁193	-1908
▁east	-1909
▁cache	-1910
contains	-1911
iam	-1912
lector	-1913
▁transaction	-1914
▁level	-1915
Part	-1916
▁z	-1917
▁tot	-1918
▁Ph	-1919
ency	-1920
▁Mc	-1921
ls	-1922
▁Ab	-1923
▁July	-1924
▁month	-1925
ret	-1926
▁Be	-1927
indow	-1928
▁CmsResource	-1929
ott	-1930
ours	-1931
▁deb	-1932
▁role	-1933
ently	-1934
▁iter	-1935
▁stream	-1936
Page	-1937
odes	-1938
jection	-1939
SQL	-1940
▁non	-1941
Source	-1942
▁>=	-1943
55	-1944
ances	-1945
anged	-1946
TYPE	-1947
gr	-1948
▁remove	-1949
tity	-1950
ability	-1951
▁iv	-1952
▁When	-1953
▁action	-1954
ential	-1955
▁way	-1956
ians	-1957
URL	-1958
idd	-1959
uary	-1960
tml	-1961
Str	-1962
getM	-1963
gnore	-1964
tings	-1965
ape	-1966
▁mar	-1967
▁book	-1968
Process	-1969
▁column	-1970
()))	-1971
ML	-1972
cord	-1973
▁Nove	-1974
▁much	-1975
atcher	-1976
inding	-1977
roy	-1978
uro	-1979
ior	-1980
ness	-1981
▁iss	-1982
TH	-1983
▁November	-1984
Sh	-1985
ement	-1986
▁world	-1987
▁power	-1988
ATE	-1989
▁service	-1990
▁west	-1991
format	-1992
BU	-1993
eters	-1994
project	-1995
▁During	-1996
▁There	-1997
▁look	-1998
▁included	-1999
▁exec	-2000
vider	-2001
▁using	-2002
▁link	-2003
▁within	-2004
ee	-2005
ideo	-2006
▁camp	-2007
▁logger	-2008
▁played	-2009
pril	-2010
▁April	-2011
cture	-2012
▁even	-2013
▁York	-2014
_0	-2015
RA	-2016
ging	-2017
cer	-2018
utton	-2019
unk	-2020
▁appro	-2021
getMessage	-2022
itional	-2023
Format	-2024
▁named	-2025
AS	-2026
▁post	-2027
Act	-2028
Reg	-2029
ital	-2030
▁num	-2031
elt	-2032
earch	-2033
▁eng	-2034
▁Pr	-2035
▁total	-2036
▁position	-2037
clear	-2038
apan	-2039
word	-2040
▁West	-2041
ead	-2042
▁II	-2043
ives	-2044
▁Man	-2045
uture	-2046
▁valid	-2047
▁school	-2048
▁es	-2049
lex	-2050
uck	-2051
▁present	-2052
rote	-2053
▁described	-2054
VER	-2055
▁Japan	-2056
▁March	-2057
▁care	-2058
▁built	-2059
ilit	-2060
Header	-2061
▁gu	-2062
ending	-2063
lev	-2064
pted	-2065
Http	-2066
▁turn	-2067
▁imp	-2068
ERROR	-2069
▁life	-2070
▁appear	-2071
KE	-2072
ites	-2073
▁January	-2074
scription	-2075
..	-2076
avy	-2077
▁full	-2078
urther	-2079
cy	-2080
▁disc	-2081
▁band	-2082
▁content	-2083
Api	-2084
▁adv	-2085
processException	-2086
▁host	-2087
cms	-2088
▁code	-2089
▁wrote	-2090
▁bean	-2091
pect	-2092
ague	-2093
oman	-2094
Servlet	-2095
].	-2096
▁late	-2097
▁review	-2098
tributes	-2099
Module	-2100
PER	-2101
Pos	-2102
▁put	-2103
##	-2104
▁Ed	-2105
OD	-2106
Long	-2107
ides	-2108
▁cap	-2109
uted	-2110
▁Ge	-2111
UID	-2112
▁base	-2113
▁State	-2114
ving	-2115
ridge	-2116
▁person	-2117
Calendar	-2118
10	-2119
VAR	-2120
▁spe	-2121
Valid	-2122
ifier	-2123
Pl	-2124
ample	-2125
SION	-2126
▁pra	-2127
item	-2128
rown	-2129
ClassName	-2130
▁third	-2131
▁death	-2132
Locale	-2133
ety	-2134
▁writer	-2135
▁cms	-2136
▁gun	-2137
apter	-2138
▁FieldItem	-2139
ene	-2140
▁trace	-2141
olved	-2142
▁effect	-2143
max	-2144
ices	-2145
rowable	-2146
▁import	-2147
alf	-2148
ases	-2149
aster	-2150
atic	-2151
('	-2152
close	-2153
▁prom	-2154
▁begin	-2155
table	-2156
▁Christ	-2157
▁Dece	-2158
▁temp	-2159
me	-2160
▁property	-2161
▁FieldLocation	-2162
▁Gu	-2163
▁0),	-2164
▁Gener	-2165
▁root	-2166
▁include	-2167
uf	-2168
Fl	-2169
▁Br	-2170
▁leg	-2171
▁kill	-2172
iversity	-2173
▁loc	-2174
dom	-2175
ae	-2176
atures	-2177
▁government	-2178
▁node	-2179
result	-2180
▁December	-2181
▁Log	-2182
▁clo	-2183
▁stru	-2184
▁very	-2185
Day	-2186
▁species	-2187
Found	-2188
▁dam	-2189
MetaData	-2190
▁King	-2191
event	-2192
▁those	-2193
substring	-2194
ience	-2195
▁games	-2196
Enc	-2197
▁som	-2198
▁different	-2199
mt	-2200
▁range	-2201
▁without	-2202
Resources	-2203
param	-2204
akes	-2205
▁Collection	-2206
de	-2207
▁period	-2208
SP	-2209
▁Tra	-2210
Line	-2211
▁want	-2212
▁offset	-2213
ulation	-2214
TraceOn	-2215
rew	-2216
▁Char	-2217
▁men	-2218
ration	-2219
ology	-2220
Ass	-2221
Entity	-2222
▁never	-2223
ecurity	-2224
▁bus	-2225
▁feature	-2226
ony	-2227
Pool	-2228
▁every	-2229
▁site	-2230
parse	-2231
▁Har	-2232
els	-2233
▁properties	-2234
▁Her	-2235
▁family	-2236
ables	-2237
ograph	-2238
▁rep	-2239
SER	-2240
hasNext	-2241
annot	-2242
▁estab	-2243
Consumer	-2244
▁flo	-2245
alk	-2246
▁led	-2247
ivity	-2248
bs	-2249
▁1;	-2250
▁Fr	-2251
LASS	-2252
itted	-2253
▁block	-2254
▁Euro	-2255
▁story	-2256
▁buf	-2257
▁although	-2258
Space	-2259
istic	-2260
▁equ	-2261
▁dem	-2262
▁cover	-2263
▁common	-2264
▁Te	-2265
VE	-2266
ament	-2267
▁His	-2268
Values	-2269
>(	-2270
Comm	-2271
▁Long	-2272
less	-2273
olic	-2274
ham	-2275
▁Trans	-2276
▁24	-2277
="	-2278
rench	-2279
▁organ	-2280
▁join	-2281
ropical	-2282
UI	-2283
▁cur	-2284
▁Fl	-2285
InputStream	-2286
▁days	-2287
Writer	-2288
▁move	-2289
ty	-2290
▁claim	-2291
Interface	-2292
ster	-2293
▁Will	-2294
▁sent	-2295
▁returned	-2296
BLE	-2297
▁take	-2298
arm	-2299
iterator	-2300
▁sec	-2301
▁release	-2302
▁don	-2303
▁And	-2304
penCms	-2305
▁inc	-2306
epend	-2307
▁Messages	-2308
▁Or	-2309
"));	-2310
▁capt	-2311
Provider	-2312
Folder	-2313
context	-2314
Hash	-2315
lob	-2316
▁192	-2317
Non	-2318
aken	-2319
ways	-2320
35,	-2321
▁my	-2322
▁Volt	-2323
pped	-2324
▁National	-2325
reen	-2326
▁ter	-2327
▁held	-2328
atalog	-2329
container	-2330
▁mag	-2331
▁stop	-2332
▁stand	-2333
Per	-2334
ither	-2335
ilar	-2336
dbc	-2337
▁members	-2338
▁655	-2339
config	-2340
▁sold	-2341
Mode	-2342
iness	-2343
▁em	-2344
▁former	-2345
cast	-2346
stit	-2347
plit	-2348
▁hum	-2349
▁65535,	-2350
▁thread	-2351
▁sy	-2352
char	-2353
formation	-2354
▁beh	-2355
rl	-2356
▁title	-2357
Range	-2358
method	-2359
Callback	-2360
ustom	-2361
ai	-2362
▁fre	-2363
▁mult	-2364
SON	-2365
byte	-2366
NT	-2367
▁Europe	-2368
▁French	-2369
▁IllegalArgument	-2370
ered	-2371
ially	-2372
▁Mich	-2373
ntic	-2374
Case	-2375
Address	-2376
▁video	-2377
rim	-2378
▁FFDCFilter	-2379
▁fore	-2380
▁you	-2381
▁few	-2382
sib	-2383
Iterator	-2384
▁further	-2385
▁came	-2386
tension	-2387
>>	-2388
▁River	-2389
▁moved	-2390
▁water	-2391
▁ear	-2392
tries	-2393
Complet	-2394
ixed	-2395
ne	-2396
▁created	-2397
▁tw	-2398
▁written	-2399
▁here	-2400
▁town	-2401
pre	-2402
ump	-2403
Server	-2404
▁repres	-2405
▁21	-2406
ersist	-2407
▁search	-2408
▁fail	-2409
FINE	-2410
java	-2411
getClass	-2412
itive	-2413
atches	-2414
▁see	-2415
▁cour	-2416
▁side	-2417
duct	-2418
▁sum	-2419
ried	-2420
Cl	-2421
hes	-2422
olve	-2423
▁cle	-2424
▁Date	-2425
▁continued	-2426
▁considered	-2427
▁er	-2428
▁conn	-2429
▁access	-2430
▁Exception	-2431
▁2010	-2432
2.	-2433
▁1)	-2434
▁1,	-2435
▁given	-2436
Dir	-2437
Par	-2438
adata	-2439
uc	-2440
▁style	-2441
Reader	-2442
ung	-2443
▁often	-2444
▁however	-2445
SH	-2446
Char	-2447
imer	-2448
▁flag	-2449
ained	-2450
▁fire	-2451
System	-2452
Only	-2453
stract	-2454
▁German	-2455
criptor	-2456
▁values	-2457
▁decl	-2458
▁Double	-2459
Exec	-2460
▁say	-2461
▁Canad	-2462
yl	-2463
▁ke	-2464
oice	-2465
ilitary	-2466
▁half	-2467
ferred	-2468
Offset	-2469
CW	-2470
("\	-2471
ality	-2472
ittle	-2473
▁test	-2474
[0]	-2475
nap	-2476
sequ	-2477
▁player	-2478
Reference	-2479
Check	-2480
arning	-2481
▁City	-2482
▁date	-2483
ese	-2484
▁Ne	-2485
ards	-2486
▁Cal	-2487
▁prop	-2488
state	-2489
rame	-2490
▁belie	-2491
▁needed	-2492
▁required	-2493
Record	-2494
▁polit	-2495
istance	-2496
aging	-2497
info	-2498
▁Feb	-2499
Al	-2500
ids	-2501
DBID	-2502
ruary	-2503
▁assert	-2504
▁sug	-2505
▁February	-2506
▁control	-2507
50	-2508
false	-2509
Xml	-2510
reet	-2511
▁load	-2512
mod	-2513
ably	-2514
OUR	-2515
long	-2516
▁One	-2517
Uuid	-2518
▁SQL	-2519
rib	-2520
ront	-2521
2,	-2522
craft	-2523
getT	-2524
ries	-2525
▁mer	-2526
anges	-2527
incip	-2528
TO	-2529
▁gen	-2530
refix	-2531
▁internal	-2532
oved	-2533
▁among	-2534
exp	-2535
istry	-2536
▁Batt	-2537
▁text	-2538
▁storm	-2539
message	-2540
search	-2541
▁Min	-2542
ublic	-2543
▁similar	-2544
user	-2545
▁methodName	-2546
pite	-2547
igned	-2548
Url	-2549
▁With	-2550
▁change	-2551
▁star	-2552
▁la	-2553
▁2007	-2554
▁2008	-2555
covery	-2556
▁inf	-2557
fs	-2558
▁23	-2559
++;	-2560
▁conc	-2561
▁less	-2562
Host	-2563
▁infl	-2564
UM	-2565
alys	-2566
Base	-2567
rict	-2568
▁published	-2569
▁low	-2570
ayout	-2571
gress	-2572
▁comb	-2573
▁exper	-2574
▁ident	-2575
▁children	-2576
rc	-2577
▁having	-2578
ully	-2579
uthe	-2580
▁Although	-2581
TA	-2582
UUID	-2583
ternational	-2584
▁term	-2585
▁<=	-2586
ampion	-2587
stream	-2588
str	-2589
▁2009	-2590
thers	-2591
▁history	-2592
Ids	-2593
Descriptor	-2594
▁red	-2595
Search	-2596
▁bas	-2597
▁author	-2598
sec	-2599
Channel	-2600
uthentic	-2601
▁22	-2602
last	-2603
stant	-2604
ops	-2605
down	-2606
aring	-2607
ining	-2608
▁Acc	-2609
Props	-2610
▁added	-2611
▁Time	-2612
▁string	-2613
ison	-2614
with	-2615
▁available	-2616
▁wid	-2617
▁"1	-2618
▁dbc	-2619
▁strong	-2620
Double	-2621
Exp	-2622
roller	-2623
imal	-2624
ension	-2625
▁Http	-2626
Output	-2627
▁suggest	-2628
oon	-2629
buffer	-2630
▁become	-2631
▁too	-2632
▁failed	-2633
vis	-2634
ocket	-2635
sql	-2636
shot	-2637
isTraceOn	-2638
▁Type	-2639
getType	-2640
aged	-2641
Current	-2642
=\"	-2643
alysis	-2644
****	-2645
hand	-2646
▁plan	-2647
iers	-2648
ighb	-2649
▁option	-2650
▁England	-2651
col	-2652
▁Com	-2653
ones	-2654
amb	-2655
double	-2656
▁client	-2657
imest	-2658
Button	-2659
arg	-2660
rel	-2661
▁destroy	-2662
▁trad	-2663
Timeout	-2664
▁how	-2665
▁times	-2666
RES	-2667
ounds	-2668
▁cond	-2669
Direct	-2670
▁foot	-2671
NotFound	-2672
Ed	-2673
▁arch	-2674
day	-2675
▁program	-2676
▁gave	-2677
riority	-2678
▁StringBuilder	-2679
▁Des	-2680
KEY	-2681
▁Sim	-2682
▁token	-2683
▁vict	-2684
▁Reg	-2685
duced	-2686
▁body	-2687
▁road	-2688
▁produced	-2689
gy	-2690
▁Gr	-2691
▁production	-2692
Tree	-2693
▁Iterator	-2694
▁To	-2695
abor	-2696
aint	-2697
olution	-2698
empl	-2699
PO	-2700
▁(_	-2701
No	-2702
omin	-2703
▁represent	-2704
▁Cent	-2705
▁University	-2706
▁fri	-2707
itory	-2708
ators	-2709
▁started	-2710
Match	-2711
ention	-2712
napshot	-2713
▁rad	-2714
▁William	-2715
▁handle	-2716
▁completed	-2717
▁",	-2718
▁building	-2719
12	-2720
quad	-2721
▁aff	-2722
▁fact	-2723
EL	-2724
▁switch	-2725
▁elements	-2726
▁recorded	-2727
▁Count	-2728
Collection	-2729
vest	-2730
▁Rep	-2731
chn	-2732
eners	-2733
apping	-2734
▁module	-2735
PP	-2736
GER	-2737
▁Im	-2738
▁good	-2739
▁server	-2740
▁force	-2741
time	-2742
▁1);	-2743
▁Per	-2744
▁commun	-2745
▁50	-2746
000	-2747
atri	-2748
Model	-2749
▁repl	-2750
▁array	-2751
▁StringBuffer	-2752
▁know	-2753
▁prim	-2754
BA	-2755
Pre	-2756
enced	-2757
Change	-2758
ackage	-2759
▁reported	-2760
unn	-2761
▁".	-2762
▁EJB	-2763
▁component	-2764
tx	-2765
▁influ	-2766
sing	-2767
eder	-2768
ift	-2769
▁28	-2770
rest	-2771
▁parse	-2772
▁According	-2773
augh	-2774
▁cast	-2775
OutputStream	-2776
imestamp	-2777
iment	-2778
▁diff	-2779
eline	-2780
levision	-2781
▁military	-2782
iving	-2783
isc	-2784
▁26	-2785
▁op	-2786
rect	-2787
▁respon	-2788
PAR	-2789
iction	-2790
▁announ	-2791
Spec	-2792
▁East	-2793
▁intro	-2794
Document	-2795
Order	-2796
▁html	-2797
ceed	-2798
▁defe	-2799
▁cr	-2800
▁company	-2801
lier	-2802
▁Air	-2803
▁OpenCms	-2804
ume	-2805
▁Get	-2806
▁youn	-2807
▁Port	-2808
New	-2809
▁40	-2810
▁ant	-2811
versation	-2812
INT	-2813
▁These	-2814
▁career	-2815
()).	-2816
▁prof	-2817
▁light	-2818
▁opp	-2819
▁Division	-2820
VALUE	-2821
▁2011	-2822
▁special	-2823
▁Mon	-2824
Width	-2825
▁High	-2826
▁Park	-2827
▁Act	-2828
▁empty	-2829
▁names	-2830
▁While	-2831
▁accept	-2832
Eng	-2833
▁ships	-2834
target	-2835
▁eight	-2836
▁allowed	-2837
▁possible	-2838
uto	-2839
▁init	-2840
ensive	-2841
▁house	-2842
▁General	-2843
...	-2844
▁29	-2845
head	-2846
▁Math	-2847
FF	-2848
elf	-2849
▁happ	-2850
▁190	-2851
▁2012	-2852
▁English	-2853
▁recover	-2854
▁tro	-2855
IOException	-2856
SC	-2857
ords	-2858
▁club	-2859
Throwable	-2860
exception	-2861
getRequest	-2862
▁stated	-2863
▁interest	-2864
ains	-2865
▁expl	-2866
Widget	-2867
aff	-2868
Input	-2869
De	-2870
Control	-2871
▁island	-2872
jb	-2873
imum	-2874
▁hold	-2875
▁lost	-2876
aul	-2877
por	-2878
Last	-2879
wh	-2880
▁great	-2881
ges	-2882
▁went	-2883
Remote	-2884
▁Rec	-2885
Dec	-2886
▁let	-2887
▁send	-2888
▁compet	-2889
na	-2890
▁across	-2891
peration	-2892
CmsResource	-2893
▁making	-2894
aur	-2895
cial	-2896
▁print	-2897
ros	-2898
▁lo	-2899
now	-2900
angu	-2901
lobal	-2902
eturn	-2903
▁seen	-2904
▁member	-2905
▁27	-2906
group	-2907
▁output	-2908
ibility	-2909
ford	-2910
IdOr	-2911
ising	-2912
.0	-2913
Be	-2914
session	-2915
▁characters	-2916
medi	-2917
▁br	-2918
▁instead	-2919
▁aud	-2920
au	-2921
▁query	-2922
propert	-2923
ibr	-2924
Queue	-2925
▁critic	-2926
ULT	-2927
mission	-2928
Ident	-2929
cul	-2930
hest	-2931
Params	-2932
Schema	-2933
Mon	-2934
▁Cor	-2935
▁songs	-2936
untimeException	-2937
ondon	-2938
▁Geor	-2939
▁bytes	-2940
▁cer	-2941
▁arriv	-2942
Ob	-2943
ief	-2944
▁Af	-2945
▁London	-2946
▁country	-2947
▁our	-2948
Pub	-2949
▁region	-2950
▁ide	-2951
▁copy	-2952
Security	-2953
PA	-2954
nown	-2955
ormal	-2956
iet	-2957
mark	-2958
▁2006	-2959
Ali	-2960
comm	-2961
▁forces	-2962
alth	-2963
incipal	-2964
▁once	-2965
▁parameter	-2966
omb	-2967
▁either	-2968
msg	-2969
▁father	-2970
edObject	-2971
▁ste	-2972
("<	-2973
▁law	-2974
▁reached	-2975
aign	-2976
voke	-2977
parent	-2978
oyal	-2979
▁noted	-2980
def	-2981
serv	-2982
▁black	-2983
azz	-2984
▁himself	-2985
▁away	-2986
▁done	-2987
▁associ	-2988
▁Bar	-2989
▁header	-2990
▁histor	-2991
▁writing	-2992
Processor	-2993
]);	-2994
clus	-2995
ering	-2996
urric	-2997
▁separ	-2998
▁mid	-2999
posed	-3000
▁ground	-3001
▁Dav	-3002
Image	-3003
IdOrPath	-3004
bound	-3005
ALL	-3006
Port	-3007
task	-3008
▁able	-3009
▁developed	-3010
alt	-3011
map	-3012
▁El	-3013
orther	-3014
Vis	-3015
▁performance	-3016
Vari	-3017
▁bo	-3018
▁proble	-3019
Is	-3020
etwork	-3021
▁Sm	-3022
resh	-3023
uper	-3024
trans	-3025
ategory	-3026
43	-3027
▁ft	-3028
▁wind	-3029
Ignore	-3030
quadron	-3031
16	-3032
▁url	-3033
▁Method	-3034
gether	-3035
▁signific	-3036
ival	-3037
Engine	-3038
▁chart	-3039
Boolean	-3040
INTER	-3041
".	-3042
ero	-3043
urable	-3044
▁press	-3045
▁subject	-3046
▁stri	-3047
▁dim	-3048
▁store	-3049
aterial	-3050
▁Japanese	-3051
▁development	-3052
omen	-3053
(0,	-3054
issing	-3055
off	-3056
ude	-3057
▁tropical	-3058
▁Australia	-3059
▁Big	-3060
Proxy	-3061
▁visit	-3062
▁relations	-3063
go	-3064
▁died	-3065
▁Local	-3066
orthern	-3067
▁provided	-3068
▁felt	-3069
▁least	-3070
)));	-3071
▁bmd	-3072
▁Australian	-3073
MI	-3074
▁Ang	-3075
▁ten	-3076
Files	-3077
▁national	-3078
▁Val	-3079
▁cir	-3080
▁months	-3081
Settings	-3082
▁cy	-3083
Site	-3084
getKey	-3085
▁register	-3086
▁mm	-3087
▁cause	-3088
ampionship	-3089
(_	-3090
▁determ	-3091
▁rank	-3092
▁points	-3093
Max	-3094
▁Army	-3095
▁space	-3096
opic	-3097
▁sequ	-3098
▁America	-3099
▁remained	-3100
▁database	-3101
PRI	-3102
▁input	-3103
▁help	-3104
oded	-3105
▁arm	-3106
▁television	-3107
Style	-3108
20	-3109
▁indic	-3110
▁sol	-3111
▁conv	-3112
▁white	-3113
▁display	-3114
UP	-3115
Mill	-3116
ceptor	-3117
Pr	-3118
▁Am	-3119
▁son	-3120
SSION	-3121
Web	-3122
ogn	-3123
acter	-3124
token	-3125
HE	-3126
sWith	-3127
ington	-3128
Prefix	-3129
▁entire	-3130
▁compos	-3131
▁location	-3132
▁techn	-3133
ots	-3134
column	-3135
ermission	-3136
loat	-3137
▁coll	-3138
irt	-3139
orary	-3140
URI	-3141
▁Bo	-3142
▁java	-3143
Update	-3144
▁novel	-3145
▁established	-3146
getBundle	-3147
▁throughout	-3148
OURCE	-3149
ookie	-3150
otion	-3151
▁night	-3152
▁document	-3153
FO	-3154
TaskField	-3155
▁Resource	-3156
▁Afric	-3157
PI	-3158
js	-3159
Stack	-3160
▁2013	-3161
andid	-3162
▁free	-3163
▁section	-3164
arnings	-3165
▁aircraft	-3166
▁extends	-3167
SSA	-3168
▁Mo	-3169
▁Byte	-3170
StateException	-3171
most	-3172
▁round	-3173
▁County	-3174
30	-3175
idence	-3176
▁189	-3177
▁bar	-3178
Alias	-3179
eature	-3180
▁performed	-3181
ctor	-3182
▁Jack	-3183
OT	-3184
NOT	-3185
aining	-3186
anel	-3187
▁web	-3188
getInstance	-3189
sl	-3190
▁elect	-3191
▁various	-3192
aly	-3193
SU	-3194
Height	-3195
▁xml	-3196
anning	-3197
boolean	-3198
▁important	-3199
FOR	-3200
▁cost	-3201
▁little	-3202
▁ask	-3203
▁delete	-3204
mar	-3205
part	-3206
▁Out	-3207
inter	-3208
allery	-3209
▁League	-3210
▁political	-3211
');	-3212
ald	-3213
Role	-3214
▁construction	-3215
AY	-3216
Stats	-3217
verter	-3218
▁areas	-3219
hel	-3220
Expr	-3221
imately	-3222
NE	-3223
ias	-3224
▁Ass	-3225
▁popular	-3226
▁population	-3227
ivid	-3228
orage	-3229
Gener	-3230
▁aver	-3231
▁format	-3232
atted	-3233
▁HashMap	-3234
▁official	-3235
ByteBuffer	-3236
met	-3237
▁props	-3238
▁campaign	-3239
tra	-3240
▁Ste	-3241
Dialog	-3242
MO	-3243
itL	-3244
▁significant	-3245
clude	-3246
ranch	-3247
indexOf	-3248
▁CLASS	-3249
izer	-3250
PTION	-3251
▁formed	-3252
▁function	-3253
FIN	-3254
▁whe	-3255
FAULT	-3256
GUI	-3257
▁followed	-3258
11	-3259
▁dr	-3260
init	-3261
Position	-3262
First	-3263
▁Phil	-3264
▁fav	-3265
▁status	-3266
find	-3267
▁esc	-3268
▁convert	-3269
▁agre	-3270
uation	-3271
▁broad	-3272
Invalid	-3273
▁events	-3274
▁locale	-3275
ibrary	-3276
▁Add	-3277
▁sound	-3278
Min	-3279
anned	-3280
▁located	-3281
inator	-3282
▁stage	-3283
quired	-3284
▁award	-3285
▁becom	-3286
▁seven	-3287
aching	-3288
▁feet	-3289
▁tour	-3290
▁features	-3291
▁age	-3292
▁Co	-3293
element	-3294
urricane	-3295
▁grow	-3296
▁Inter	-3297
lling	-3298
▁image	-3299
▁caused	-3300
▁complete	-3301
We	-3302
").	-3303
LOC	-3304
struction	-3305
MESSA	-3306
change	-3307
:1.	-3308
Logg	-3309
▁fall	-3310
Binding	-3311
▁addition	-3312
ivil	-3313
asing	-3314
▁engine	-3315
▁thought	-3316
order	-3317
right	-3318
▁Link	-3319
▁meet	-3320
▁Rober	-3321
Entries	-3322
TEX	-3323
orse	-3324
▁"1:	-3325
▁ens	-3326
▁fem	-3327
▁org	-3328
▁Bill	-3329
pository	-3330
▁station	-3331
iol	-3332
▁Sw	-3333
▁far	-3334
DATE	-3335
eleted	-3336
▁clear	-3337
assword	-3338
▁Project	-3339
eg	-3340
ply	-3341
Pattern	-3342
▁sup	-3343
▁served	-3344
uss	-3345
urred	-3346
source	-3347
uppress	-3348
men	-3349
▁But	-3350
▁miles	-3351
StringUtil	-3352
Failed	-3353
▁ins	-3354
istics	-3355
ularly	-3356
iple	-3357
Bundle	-3358
▁remaining	-3359
▁fac	-3360
alled	-3361
▁impro	-3362
▁killed	-3363
Assignment	-3364
60	-3365
heast	-3366
▁James	-3367
ael	-3368
▁Data	-3369
▁battle	-3370
1);	-3371
kens	-3372
send	-3373
▁Med	-3374
▁others	-3375
▁live	-3376
ened	-3377
▁Pol	-3378
▁exc	-3379
ragment	-3380
uffered	-3381
▁players	-3382
getA	-3383
filter	-3384
upported	-3385
▁comment	-3386
hem	-3387
util	-3388
▁job	-3389
▁taken	-3390
▁loss	-3391
board	-3392
imated	-3393
▁mount	-3394
Subject	-3395
▁general	-3396
getResource	-3397
▁Street	-3398
▁cell	-3399
▁Other	-3400
▁above	-3401
getString	-3402
▁ce	-3403
LINE	-3404
▁always	-3405
▁prob	-3406
▁wait	-3407
▁might	-3408
▁active	-3409
Write	-3410
▁future	-3411
Loggable	-3412
Attributes	-3413
▁cut	-3414
▁mean	-3415
startsWith	-3416
west	-3417
▁offer	-3418
itar	-3419
▁announced	-3420
ades	-3421
aval	-3422
▁Mus	-3423
▁neg	-3424
iddle	-3425
oring	-3426
▁info	-3427
Disp	-3428
greg	-3429
itLab	-3430
▁reason	-3431
essaging	-3432
unc	-3433
update	-3434
Adapter	-3435
▁Island	-3436
▁lik	-3437
child	-3438
Layout	-3439
anguage	-3440
Wh	-3441
code	-3442
▁cult	-3443
▁modern	-3444
▁existing	-3445
Sequ	-3446
▁Road	-3447
ground	-3448
▁front	-3449
Duration	-3450
isLoggable	-3451
If	-3452
openc	-3453
itLabApi	-3454
▁So	-3455
▁Rich	-3456
VI	-3457
ike	-3458
icult	-3459
ought	-3460
▁relation	-3461
▁rather	-3462
[1	-3463
ORT	-3464
ags	-3465
▁Du	-3466
leet	-3467
br	-3468
▁callback	-3469
ender	-3470
▁removed	-3471
▁Don	-3472
▁supported	-3473
▁len	-3474
Handle	-3475
▁decided	-3476
Plan	-3477
Sign	-3478
vices	-3479
▁remote	-3480
Block	-3481
▁2005	-3482
▁Black	-3483
▁changed	-3484
owed	-3485
▁hours	-3486
▁params	-3487
▁replace	-3488
▁discover	-3489
▁finished	-3490
Get	-3491
Subscription	-3492
▁188	-3493
▁surv	-3494
getLocal	-3495
gment	-3496
ZE	-3497
vil	-3498
RL	-3499
▁tre	-3500
atrix	-3501
stand	-3502
object	-3503
sw	-3504
▁Rem	-3505
▁laun	-3506
▁business	-3507
▁First	-3508
straint	-3509
25	-3510
BID	-3511
iff	-3512
TIME	-3513
▁San	-3514
faces	-3515
▁CmsException	-3516
▁sort	-3517
▁emp	-3518
<>();	-3519
▁unit	-3520
processor	-3521
Parent	-3522
▁Church	-3523
▁subsequ	-3524
Permission	-3525
▁reference	-3526
aper	-3527
▁lim	-3528
▁cross	-3529
Scope	-3530
Bus	-3531
▁example	-3532
▁guns	-3533
emplate	-3534
▁Message	-3535
oted	-3536
▁together	-3537
Conn	-3538
text	-3539
▁keep	-3540
isted	-3541
▁river	-3542
istration	-3543
dr	-3544
▁{}	-3545
stall	-3546
Window	-3547
▁opened	-3548
co	-3549
cache	-3550
Statement	-3551
▁Span	-3552
px	-3553
▁human	-3554
▁Pres	-3555
▁pool	-3556
delete	-3557
thing	-3558
▁working	-3559
Fin	-3560
▁cannot	-3561
do	-3562
Unique	-3563
dis	-3564
▁Royal	-3565
Utility	-3566
▁expected	-3567
▁ly	-3568
utor	-3569
▁0);	-3570
▁fig	-3571
▁saw	-3572
TEXT	-3573
▁consumer	-3574
xn	-3575
ius	-3576
queue	-3577
position	-3578
▁SQLException	-3579
▁contains	-3580
Sp	-3581
ename	-3582
Box	-3583
The	-3584
ana	-3585
▁rock	-3586
rought	-3587
▁appeared	-3588
Ag	-3589
SESSION	-3590
▁application	-3591
')	-3592
_1,	-3593
▁60	-3594
▁unique	-3595
HT	-3596
usp	-3597
▁Day	-3598
cedure	-3599
Function	-3600
Job	-3601
erson	-3602
▁Check	-3603
destination	-3604
xml	-3605
ping	-3606
▁rev	-3607
arned	-3608
▁passed	-3609
▁difficult	-3610
▁div	-3611
CmsObject	-3612
▁listener	-3613
bert	-3614
▁Not	-3615
TED	-3616
Iter	-3617
▁Met	-3618
▁structure	-3619
▁Some	-3620
▁resources	-3621
▁born	-3622
Create	-3623
ules	-3624
▁issue	-3625
irection	-3626
▁successful	-3627
▁vill	-3628
reek	-3629
▁hit	-3630
count	-3631
inary	-3632
▁results	-3633
mit	-3634
Warnings	-3635
####	-3636
alion	-3637
addAll	-3638
▁className	-3639
CWSI	-3640
▁You	-3641
Report	-3642
opencms	-3643
▁closed	-3644
ODO	-3645
▁JSON	-3646
▁Miss	-3647
17	-3648
rick	-3649
▁reb	-3650
▁2004	-3651
▁peak	-3652
ighest	-3653
▁Transaction	-3654
Metadata	-3655
▁methods	-3656
▁pattern	-3657
azine	-3658
▁args	-3659
▁label	-3660
vir	-3661
▁units	-3662
Interval	-3663
trace	-3664
values	-3665
impl	-3666
▁race	-3667
Sequence	-3668
24	-3669
Color	-3670
▁upon	-3671
▁groups	-3672
▁publish	-3673
rain	-3674
Application	-3675
semb	-3676
Delete	-3677
▁fight	-3678
ney	-3679
andom	-3680
Fields	-3681
arator	-3682
EJB	-3683
lant	-3684
olicy	-3685
▁Indian	-3686
Suppress	-3687
▁ve	-3688
ocial	-3689
ands	-3690
lege	-3691
▁sett	-3692
PROPER	-3693
rupted	-3694
▁quick	-3695
▁recogn	-3696
db	-3697
▁commit	-3698
emy	-3699
query	-3700
ursor	-3701
▁Robert	-3702
bar	-3703
▁sit	-3704
efore	-3705
box	-3706
ayer	-3707
known	-3708
▁pair	-3709
▁behind	-3710
lled	-3711
▁Def	-3712
▁hon	-3713
rivile	-3714
▁cred	-3715
▁leading	-3716
▁respect	-3717
ires	-3718
losed	-3719
▁ball	-3720
▁heavy	-3721
Internal	-3722
▁channel	-3723
▁->	-3724
register	-3725
▁GitLabApi	-3726
▁annotation	-3727
▁eventually	-3728
▁pay	-3729
▁lack	-3730
Workplace	-3731
pth	-3732
prop	-3733
▁Part	-3734
▁means	-3735
▁playing	-3736
▁attribute	-3737
FIX	-3738
link	-3739
▁oppos	-3740
▁itself	-3741
ENT	-3742
RESOURCE	-3743
▁manager	-3744
▁Str	-3745
▁insp	-3746
version	-3747
IL	-3748
eed	-3749
▁coast	-3750
▁individ	-3751
osp	-3752
pare	-3753
▁prevent	-3754
▁replaced	-3755
▁relationship	-3756
charAt	-3757
ounter	-3758
Elements	-3759
lem	-3760
▁31	-3761
▁avoid	-3762
▁appoint	-3763
▁information	-3764
Obj	-3765
▁Christian	-3766
▁originally	-3767
AM	-3768
root	-3769
urg	-3770
▁abs	-3771
viron	-3772
▁mi	-3773
▁page	-3774
▁admin	-3775
▁works	-3776
Math	-3777
copy	-3778
getId	-3779
▁lower	-3780
cil	-3781
eft	-3782
▁Ag	-3783
▁cop	-3784
▁reli	-3785
Classes	-3786
ological	-3787
▁operation	-3788
▁route	-3789
XML	-3790
▁di	-3791
Hist	-3792
ocol	-3793
▁Roman	-3794
▁worked	-3795
NonNull	-3796
▁critics	-3797
▁dig	-3798
opt	-3799
▁La	-3800
Prop	-3801
road	-3802
wise	-3803
▁obj	-3804
▁enough	-3805
SET	-3806
40	-3807
▁Tok	-3808
▁refer	-3809
▁young	-3810
▁placed	-3811
XA	-3812
ca	-3813
▁("	-3814
ourn	-3815
▁center	-3816
Ext	-3817
getR	-3818
▁Que	-3819
ze	-3820
▁effort	-3821
▁selected	-3822
▁Follow	-3823
▁pref	-3824
Relation	-3825
▁generally	-3826
>\	-3827
▁ey	-3828
uffers	-3829
loyment	-3830
Formatted	-3831
▁Hill	-3832
Driver	-3833
▁material	-3834
SIZE	-3835
▁outside	-3836
▁construct	-3837
report	-3838
▁immedi	-3839
▁previously	-3840
▁Collections	-3841
],	-3842
▁foc	-3843
▁invest	-3844
▁scored	-3845
ples	-3846
▁additional	-3847
chie	-3848
▁Mad	-3849
▁pur	-3850
▁Ke	-3851
lers	-3852
array	-3853
DEFAULT	-3854
▁opening	-3855
SA	-3856
▁0.	-3857
(0);	-3858
▁Red	-3859
▁types	-3860
▁George	-3861
64	-3862
▁Mod	-3863
▁weeks	-3864
▁average	-3865
JE	-3866
ett	-3867
▁2003	-3868
▁hard	-3869
flow	-3870
▁mass	-3871
Millis	-3872
▁Propert	-3873
Del	-3874
ails	-3875
node	-3876
▁500	-3877
tained	-3878
CA	-3879
trim	-3880
client	-3881
▁percent	-3882
▁Following	-3883
la	-3884
omet	-3885
▁json	-3886
ico	-3887
▁Mor	-3888
arter	-3889
▁Mount	-3890
Encoding	-3891
uting	-3892
▁almost	-3893
▁serial	-3894
isEvent	-3895
SSL	-3896
ART	-3897
checked	-3898
PRE	-3899
urren	-3900
▁believed	-3901
Js	-3902
OK	-3903
MAT	-3904
asion	-3905
▁Trace	-3906
artment	-3907
▁Company	-3908
ersistent	-3909
▁designed	-3910
▁involved	-3911
den	-3912
lor	-3913
▁Mer	-3914
Label	-3915
▁Atlant	-3916
▁security	-3917
iber	-3918
▁wall	-3919
Options	-3920
▁France	-3921
▁brought	-3922
OL	-3923
aves	-3924
▁activ	-3925
SuppressWarnings	-3926
chedul	-3927
Progress	-3928
▁running	-3929
▁expression	-3930
▁self	-3931
▁scene	-3932
▁Canada	-3933
▁primary	-3934
Ab	-3935
▁positive	-3936
2)	-3937
rec	-3938
▁Qu	-3939
▁-1)	-3940
host	-3941
▁-1;	-3942
▁fourth	-3943
▁women	-3944
▁builder	-3945
▁Michael	-3946
▁contract	-3947
sure	-3948
▁parts	-3949
▁Create	-3950
isEventEnabled	-3951
Dest	-3952
prise	-3953
IG	-3954
▁wife	-3955
no	-3956
bean	-3957
▁travel	-3958
▁wanted	-3959
Attr	-3960
▁messages	-3961
▁container	-3962
uses	-3963
▁fif	-3964
Left	-3965
Fail	-3966
▁featured	-3967
▁Up	-3968
replace	-3969
enu	-3970
Registry	-3971
the	-3972
▁score	-3973
▁School	-3974
Mult	-3975
ociety	-3976
▁Kingdom	-3977
▁cluster	-3978
Parameters	-3979
▁House	-3980
▁Thread	-3981
▁joined	-3982
web	-3983
lick	-3984
ilities	-3985
Execution	-3986
JECT	-3987
▁Song	-3988
ays	-3989
aled	-3990
igan	-3991
STATE	-3992
▁2000	-3993
▁church	-3994
▁McC	-3995
igation	-3996
▁highest	-3997
▁whether	-3998
uthentication	-3999
▁Two	-4000
▁southern	-4001
vance	-4002
▁going	-4003
acity	-4004
gener	-4005
▁From	-4006
▁regard	-4007
▁earlier	-4008
15	-4009
▁--	-4010
lice	-4011
▁loop	-4012
offset	-4013
▁items	-4014
▁account	-4015
▁handler	-4016
▁");	-4017
▁yet	-4018
▁Thom	-4019
▁treat	-4020
vironment	-4021
▁Web	-4022
▁quest	-4023
ClassLoader	-4024
uel	-4025
ores	-4026
▁Wil	-4027
▁seem	-4028
▁longer	-4029
BS	-4030
itude	-4031
local	-4032
olver	-4033
▁damage	-4034
▁deliver	-4035
Directory	-4036
omain	-4037
fully	-4038
Methods	-4039
▁largest	-4040
getProperty	-4041
Dep	-4042
▁TODO	-4043
▁frequ	-4044
fall	-4045
lang	-4046
antry	-4047
▁nar	-4048
clone	-4049
olute	-4050
isting	-4051
MAX	-4052
▁187	-4053
▁Fran	-4054
▁mother	-4055
rivileged	-4056
▁"/	-4057
▁king	-4058
▁scan	-4059
▁friend	-4060
▁ordered	-4061
Dispatcher	-4062
▁partition	-4063
▁Mex	-4064
Socket	-4065
▁flight	-4066
▁Sing	-4067
▁fund	-4068
Db	-4069
wt	-4070
dule	-4071
iding	-4072
Select	-4073
▁Brown	-4074
chedule	-4075
▁configuration	-4076
oles	-4077
▁2014	-4078
▁neighb	-4079
▁particip	-4080
Controller	-4081
▁Me	-4082
▁},	-4083
Head	-4084
▁und	-4085
▁runs	-4086
▁David	-4087
▁victory	-4088
iece	-4089
▁meas	-4090
atural	-4091
▁below	-4092
▁vocal	-4093
▁height	-4094
▁Q	-4095
▁bri	-4096
ething	-4097
mitted	-4098
BC	-4099
▁Rel	-4100
atched	-4101
itable	-4102
▁relig	-4103
▁better	-4104
FINI	-4105
▁pot	-4106
▁saying	-4107
▁troops	-4108
▁Despite	-4109
Volt	-4110
▁Old	-4111
▁inj	-4112
ports	-4113
▁HashSet	-4114
▁phys	-4115
▁commer	-4116
▁forced	-4117
▁towards	-4118
Det	-4119
▁ill	-4120
Frame	-4121
▁Paul	-4122
▁fell	-4123
▁soon	-4124
server	-4125
rics	-4126
MethodName	-4127
getFormatted	-4128
force	-4129
18	-4130
▁hom	-4131
▁bird	-4132
▁candid	-4133
▁timeout	-4134
▁usually	-4135
VG	-4136
oph	-4137
sible	-4138
▁grad	-4139
▁factory	-4140
▁extension	-4141
EE	-4142
ifest	-4143
lease	-4144
lying	-4145
▁split	-4146
▁product	-4147
MIN	-4148
ffic	-4149
▁Internal	-4150
Tag	-4151
amer	-4152
first	-4153
imate	-4154
▁reve	-4155
▁step	-4156
▁decision	-4157
▁particularly	-4158
ras	-4159
aries	-4160
▁fill	-4161
▁pract	-4162
Results	-4163
default	-4164
▁changes	-4165
▁give	-4166
▁clean	-4167
IgnoreCase	-4168
Mem	-4169
▁cm	-4170
ming	-4171
utive	-4172
Idx	-4173
▁Do	-4174
▁Pe	-4175
▁den	-4176
Limit	-4177
ULL	-4178
enes	-4179
iting	-4180
▁supp	-4181
PROPERTY	-4182
ResourceField	-4183
pc	-4184
NAL	-4185
otal	-4186
▁Sub	-4187
▁emb	-4188
▁Hall	-4189
▁president	-4190
aker	-4191
exec	-4192
▁Dep	-4193
▁gra	-4194
▁Best	-4195
▁files	-4196
OW	-4197
sm	-4198
uk	-4199
site	-4200
▁Mag	-4201
▁lines	-4202
Feature	-4203
▁indust	-4204
▁according	-4205
BASE	-4206
▁Mark	-4207
▁sil	-4208
▁necess	-4209
▁central	-4210
▁operations	-4211
▁Ir	-4212
wood	-4213
▁App	-4214
▁req	-4215
stitute	-4216
▁appearance	-4217
▁typ	-4218
ifact	-4219
▁draw	-4220
content	-4221
▁window	-4222
num	-4223
Temp	-4224
▁failure	-4225
Sl	-4226
▁Mal	-4227
▁circ	-4228
▁finish	-4229
NN	-4230
▁army	-4231
▁directed	-4232
▁multiple	-4233
▁};	-4234
▁Hen	-4235
▁Pal	-4236
store	-4237
verse	-4238
riteria	-4239
connection	-4240
AF	-4241
ino	-4242
org	-4243
▁++	-4244
▁gre	-4245
▁mph	-4246
▁bill	-4247
▁prior	-4248
▁Abstract	-4249
19	-4250
▁SS	-4251
▁auth	-4252
▁goal	-4253
▁rail	-4254
vocation	-4255
▁Republic	-4256
▁viol	-4257
▁bundle	-4258
▁screen	-4259
ErrorException	-4260
ama	-4261
oose	-4262
▁come	-4263
▁crew	-4264
Policy	-4265
▁director	-4266
OUT	-4267
ulf	-4268
▁mc	-4269
notations	-4270
▁distance	-4271
▁initially	-4272
Pair	-4273
▁Game	-4274
▁office	-4275
Extension	-4276
▁International	-4277
WOR	-4278
▁aut	-4279
ucket	-4280
▁think	-4281
▁Thomas	-4282
▁classes	-4283
olf	-4284
cket	-4285
▁URL	-4286
▁Navy	-4287
igade	-4288
▁limit	-4289
▁amount	-4290
▁election	-4291
Repository	-4292
han	-4293
ica	-4294
Keys	-4295
IM	-4296
▁ids	-4297
▁model	-4298
▁taking	-4299
▁eastern	-4300
lls	-4301
▁pred	-4302
▁Error	-4303
▁praised	-4304
▁northern	-4305
orer	-4306
▁got	-4307
▁party	-4308
net	-4309
▁sql	-4310
▁2015	-4311
▁sex	-4312
▁2002	-4313
▁Spanish	-4314
Json	-4315
logp	-4316
▁saf	-4317
imple	-4318
▁occurred	-4319
rd	-4320
Uri	-4321
RACE	-4322
space	-4323
▁somet	-4324
▁ignore	-4325
expected	-4326
▁beginning	-4327
▁Dan	-4328
▁past	-4329
▁shot	-4330
uments	-4331
▁football	-4332
ACK	-4333
▁);	-4334
▁Sy	-4335
quare	-4336
▁Number	-4337
atus	-4338
▁Sch	-4339
inated	-4340
▁Invalid	-4341
▁probably	-4342
bit	-4343
Icon	-4344
▁study	-4345
Identifier	-4346
▁collection	-4347
atory	-4348
▁Cour	-4349
getInt	-4350
▁invalid	-4351
▁specific	-4352
▁interface	-4353
▁opt	-4354
conom	-4355
▁European	-4356
14	-4357
itting	-4358
Partition	-4359
Core	-4360
Parser	-4361
▁achie	-4362
▁bridge	-4363
▁forward	-4364
▁80	-4365
▁Dis	-4366
ville	-4367
response	-4368
▁conflic	-4369
reng	-4370
▁tit	-4371
80	-4372
ugs	-4373
rison	-4374
▁highway	-4375
td	-4376
▁hy	-4377
▁White	-4378
▁President	-4379
kip	-4380
READ	-4381
just	-4382
uple	-4383
▁fort	-4384
Finish	-4385
▁threat	-4386
▁My	-4387
▁Const	-4388
▁Battle	-4389
▁mission	-4390
▁associated	-4391
COL	-4392
iforn	-4393
▁room	-4394
2);	-4395
ago	-4396
▁cou	-4397
_0));	-4398
▁2001	-4399
Injection	-4400
OF	-4401
mon	-4402
pha	-4403
Week	-4404
join	-4405
rive	-4406
▁inn	-4407
using	-4408
▁something	-4409
ara	-4410
aut	-4411
hing	-4412
▁dro	-4413
▁Viet	-4414
▁nine	-4415
▁skip	-4416
compare	-4417
▁bi	-4418
START	-4419
arily	-4420
▁minutes	-4421
getDefault	-4422
OP	-4423
▁por	-4424
plied	-4425
▁Californ	-4426
QUE	-4427
USER	-4428
▁DBID	-4429
▁enter	-4430
▁approx	-4431
1)	-4432
▁Cro	-4433
▁reser	-4434
▁increased	-4435
▁statement	-4436
)))	-4437
bes	-4438
izing	-4439
logger	-4440
▁court	-4441
ertific	-4442
equalsIgnoreCase	-4443
3,	-4444
▁pi	-4445
▁larger	-4446
INTERNAL	-4447
▁rc	-4448
▁Vir	-4449
getRoot	-4450
▁fields	-4451
sum	-4452
()),	-4453
▁Most	-4454
▁told	-4455
▁TRACE	-4456
▁Bow	-4457
dim	-4458
err	-4459
▁Ber	-4460
▁Ham	-4461
▁big	-4462
▁winds	-4463
▁correct	-4464
PROP	-4465
▁Ear	-4466
▁save	-4467
iration	-4468
▁Squadron	-4469
▁estimated	-4470
AX	-4471
Bar	-4472
GET	-4473
hib	-4474
▁Em	-4475
▁That	-4476
iginal	-4477
ography	-4478
▁matches	-4479
Av	-4480
ayed	-4481
mbol	-4482
▁Bra	-4483
▁Sen	-4484
▁specified	-4485
FILE	-4486
ynam	-4487
▁rap	-4488
▁research	-4489
len	-4490
build	-4491
▁police	-4492
▁claimed	-4493
Listeners	-4494
▁God	-4495
VALID	-4496
▁deal	-4497
Active	-4498
▁metal	-4499
▁California	-4500
Us	-4501
▁Pac	-4502
pressed	-4503
▁streng	-4504
▁turned	-4505
Short	-4506
▁whom	-4507
cluded	-4508
▁really	-4509
▁progress	-4510
wid	-4511
aller	-4512
▁wood	-4513
▁Carol	-4514
Var	-4515
Menu	-4516
▁ben	-4517
▁Manag	-4518
▁counter	-4519
DAY	-4520
alle	-4521
▁Rock	-4522
getSite	-4523
internal	-4524
Converter	-4525
90	-4526
▁"";	-4527
ointer	-4528
licit	-4529
liament	-4530
▁contrib	-4531
▁evidence	-4532
BER	-4533
esc	-4534
▁Ref	-4535
iable	-4536
▁hous	-4537
Vector	-4538
▁ended	-4539
▁spent	-4540
▁signed	-4541
▁states	-4542
▁q	-4543
▁tmp	-4544
▁feel	-4545
Logger	-4546
Modified	-4547
<>(	-4548
Home	-4549
oe	-4550
▁Ant	-4551
icate	-4552
loyed	-4553
▁Grand	-4554
▁wrapper	-4555
▁international	-4556
▁love	-4557
invoke	-4558
containsKey	-4559
JS	-4560
iate	-4561
ston	-4562
▁Mac	-4563
▁duration	-4564
berg	-4565
names	-4566
▁division	-4567
JSON	-4568
▁Hot	-4569
▁civil	-4570
▁recon	-4571
Publish	-4572
▁entries	-4573
▁regular	-4574
▁calendar	-4575
Num	-4576
▁Ac	-4577
dest	-4578
phere	-4579
Mapping	-4580
▁accomp	-4581
▁nothing	-4582
MENT	-4583
atin	-4584
anded	-4585
▁territ	-4586
▁conduct	-4587
▁extended	-4588
▁Championship	-4589
Mark	-4590
CLASS	-4591
CWSIP	-4592
▁certain	-4593
▁ri	-4594
▁Times	-4595
▁objects	-4596
essagingEngine	-4597
▁Ben	-4598
▁custom	-4599
Cre	-4600
▁journ	-4601
▁proxy	-4602
▁training	-4603
▁sometimes	-4604
▁nu	-4605
Scan	-4606
▁arr	-4607
ENTER	-4608
▁1990	-4609
▁Coun	-4610
▁Just	-4611
▁Michigan	-4612
sb	-4613
PAT	-4614
lin	-4615
Dist	-4616
▁anim	-4617
Selector	-4618
▁sure	-4619
Cost	-4620
Return	-4621
ucture	-4622
▁Angel	-4623
▁grant	-4624
▁despite	-4625
da	-4626
▁popul	-4627
duction	-4628
BE	-4629
Year	-4630
▁upper	-4631
▁pat	-4632
iation	-4633
option	-4634
NotNull	-4635
Abstract	-4636
relation	-4637
oub	-4638
Panel	-4639
▁core	-4640
▁Command	-4641
▁complex	-4642
▁concern	-4643
msConstants	-4644
icle	-4645
▁Star	-4646
▁poem	-4647
▁Virgin	-4648
▁Pacific	-4649
▁description	-4650
▁cru	-4651
▁scri	-4652
▁occur	-4653
▁whose	-4654
▁Britain	-4655
Java	-4656
▁186	-4657
▁uns	-4658
uffix	-4659
▁likely	-4660
▁language	-4661
▁destroyed	-4662
▁hurricane	-4663
mi	-4664
▁ME	-4665
base	-4666
▁magazine	-4667
ertificate	-4668
ula	-4669
Auth	-4670
▁Bur	-4671
▁Vict	-4672
▁pain	-4673
Future	-4674
className	-4675
umb	-4676
▁Fast	-4677
▁Mary	-4678
PRISE	-4679
ously	-4680
▁broadcast	-4681
▁introduced	-4682
▁NY	-4683
▁box	-4684
anner	-4685
ENTERPRISE	-4686
▁transform	-4687
ta	-4688
ios	-4689
▁Ire	-4690
▁1980	-4691
handle	-4692
▁bound	-4693
▁Logging	-4694
▁commission	-4695
Tick	-4696
▁ejb	-4697
▁Work	-4698
Database	-4699
▁reset	-4700
entrySet	-4701
▁Ireland	-4702
▁recording	-4703
card	-4704
dated	-4705
▁Love	-4706
Illegal	-4707
▁ensure	-4708
▁Music	-4709
advance	-4710
buf	-4711
bytes	-4712
ushed	-4713
▁idea	-4714
▁Union	-4715
▁color	-4716
▁explo	-4717
▁econom	-4718
▁female	-4719
▁studio	-4720
light	-4721
▁Town	-4722
Matrix	-4723
▁liter	-4724
▁network	-4725
withParam	-4726
});	-4727
ding	-4728
json	-4729
▁debut	-4730
▁topic	-4731
ha	-4732
ejs	-4733
aming	-4734
▁Over	-4735
:"	-4736
edy	-4737
itz	-4738
inct	-4739
▁social	-4740
NUM	-4741
▁bit	-4742
▁disp	-4743
▁happen	-4744
▁interview	-4745
getLocalized	-4746
Body	-4747
Load	-4748
▁tor	-4749
iring	-4750
quire	-4751
▁contr	-4752
▁withd	-4753
▁provide	-4754
▁Bel	-4755
DBIDs	-4756
pring	-4757
Tran	-4758
from	-4759
orter	-4760
▁Wash	-4761
▁records	-4762
CmsException	-4763
enter	-4764
ested	-4765
▁1970	-4766
▁staff	-4767
Co	-4768
rab	-4769
sort	-4770
itemap	-4771
▁shows	-4772
Signature	-4773
▁actually	-4774
▁independ	-4775
▁tow	-4776
leton	-4777
▁scale	-4778
▁arrived	-4779
getParent	-4780
▁surround	-4781
▁implement	-4782
ida	-4783
Units	-4784
▁mode	-4785
Initial	-4786
Managed	-4787
▁reader	-4788
▁Jer	-4789
▁hop	-4790
▁tree	-4791
active	-4792
locale	-4793
▁Types	-4794
▁normal	-4795
Endpoint	-4796
▁options	-4797
▁western	-4798
▁transport	-4799
▁discovered	-4800
van	-4801
▁35	-4802
oder	-4803
LOGGER	-4804
asy	-4805
▁pen	-4806
▁India	-4807
▁distrib	-4808
▁Washington	-4809
ota	-4810
▁36	-4811
▁js	-4812
▁185	-4813
useum	-4814
itespace	-4815
EC	-4816
▁Box	-4817
▁Nor	-4818
ategy	-4819
input	-4820
ership	-4821
▁Smith	-4822
aps	-4823
iler	-4824
oute	-4825
pool	-4826
▁Frank	-4827
Constra	-4828
ociation	-4829
pecially	-4830
▁calling	-4831
▁intended	-4832
▁sequence	-4833
transaction	-4834
("/	-4835
gen	-4836
▁Som	-4837
▁tem	-4838
▁Mart	-4839
▁dead	-4840
▁educ	-4841
▁yard	-4842
▁occup	-4843
▁soldiers	-4844
▁buildings	-4845
▁profession	-4846
can	-4847
conds	-4848
▁stars	-4849
▁remains	-4850
Constraint	-4851
rea	-4852
▁Key	-4853
▁obser	-4854
▁script	-4855
▁Charles	-4856
▁limited	-4857
▁standard	-4858
▁establish	-4859
rian	-4860
▁prefix	-4861
XmlContent	-4862
▁face	-4863
ServletRequest	-4864
▁Art	-4865
▁poor	-4866
module	-4867
▁Since	-4868
Operation	-4869
vey	-4870
Stmt	-4871
▁SIMP	-4872
▁entity	-4873
▁mis	-4874
usters	-4875
▁folder	-4876
>()	-4877
dec	-4878
eal	-4879
LIST	-4880
irtual	-4881
CmsStringUtil	-4882
US	-4883
UND	-4884
▁Now	-4885
Serial	-4886
uccess	-4887
▁Award	-4888
▁daugh	-4889
▁problems	-4890
acesContext	-4891
irth	-4892
▁quarter	-4893
▁quickly	-4894
▁reviews	-4895
ky	-4896
Inf	-4897
▁Js	-4898
▁via	-4899
Complete	-4900
▁SSL	-4901
▁Wales	-4902
▁latter	-4903
********	-4904
▁appointed	-4905
▁Great	-4906
▁asked	-4907
▁speed	-4908
▁carried	-4909
▁internalRequest	-4910
run	-4911
reak	-4912
▁slow	-4913
legate	-4914
initial	-4915
▁select	-4916
standing	-4917
ES	-4918
Uns	-4919
amples	-4920
utable	-4921
▁yards	-4922
CEPTION	-4923
▁Henry	-4924
▁directly	-4925
(!	-4926
▁45	-4927
▁Sl	-4928
Recovery	-4929
▁capital	-4930
▁Lou	-4931
▁mpx	-4932
Items	-4933
acing	-4934
▁insert	-4935
▁SIResource	-4936
▁especially	-4937
aded	-4938
property	-4939
▁parameters	-4940
ds	-4941
END	-4942
Args	-4943
▁poet	-4944
▁Super	-4945
▁leave	-4946
▁awarded	-4947
▁Battalion	-4948
▁increasing	-4949
CRE	-4950
STR	-4951
enth	-4952
uing	-4953
▁bank	-4954
▁Govern	-4955
▁proposed	-4956
._	-4957
oes	-4958
conn	-4959
Paths	-4960
idden	-4961
▁graph	-4962
▁smaller	-4963
AssignmentField	-4964
ih	-4965
call	-4966
▁numer	-4967
▁altern	-4968
▁address	-4969
▁community	-4970
ught	-4971
atives	-4972
Description	-4973
"),	-4974
icon	-4975
ware	-4976
igger	-4977
▁wide	-4978
▁minor	-4979
▁queue	-4980
tocol	-4981
▁word	-4982
▁immediately	-4983
▁<<	-4984
▁rat	-4985
inese	-4986
▁media	-4987
▁Victor	-4988
▁Element	-4989
▁commercial	-4990
cret	-4991
▁nls	-4992
ibert	-4993
▁Hist	-4994
▁hash	-4995
▁Value	-4996
ospital	-4997
▁setting	-4998
JMS	-4999
▁mot	-5000
▁Feder	-5001
▁related	-5002
▁generate	-5003
▁suggested	-5004
▁"\	-5005
▁bad	-5006
ression	-5007
▁Richard	-5008
oned	-5009
▁How	-5010
▁src	-5011
▁Cong	-5012
▁rain	-5013
▁Chinese	-5014
▁brother	-5015
▁includes	-5016
BUG	-5017
het	-5018
ipp	-5019
lymp	-5020
▁der	-5021
pared	-5022
▁Flor	-5023
EXCEPTION	-5024
▁Canadian	-5025
▁assignment	-5026
lands	-5027
▁1960	-5028
▁stack	-5029
Distance	-5030
▁managed	-5031
▁TimeUnit	-5032
',	-5033
TP	-5034
▁End	-5035
Closed	-5036
selves	-5037
▁Olymp	-5038
▁exists	-5039
isl	-5040
▁38	-5041
▁>>	-5042
TIVE	-5043
thlet	-5044
▁kind	-5045
▁thus	-5046
▁brief	-5047
▁touch	-5048
rs	-5049
---	-5050
ees	-5051
tee	-5052
▁XA	-5053
Back	-5054
▁bur	-5055
FileName	-5056
▁entered	-5057
▁jj	-5058
▁ran	-5059
▁Play	-5060
Commit	-5061
▁Peter	-5062
▁depend	-5063
▁schema	-5064
▁effects	-5065
istent	-5066
Decimal	-5067
izes	-5068
▁tim	-5069
▁anti	-5070
Vfs	-5071
see	-5072
▁vol	-5073
ottom	-5074
▁Sever	-5075
attribute	-5076
▁Cont	-5077
▁winning	-5078
available	-5079
70	-5080
ns	-5081
Jsp	-5082
apped	-5083
reset	-5084
▁Stud	-5085
▁gold	-5086
▁mach	-5087
arters	-5088
Allowed	-5089
▁defeated	-5090
▁provider	-5091
inn	-5092
▁driver	-5093
▁execute	-5094
▁maximum	-5095
▁students	-5096
properties	-5097
▁necessary	-5098
22	-5099
iser	-5100
▁tran	-5101
Analysis	-5102
currentTime	-5103
▁particular	-5104
SQLException	-5105
va	-5106
ndi	-5107
▁db	-5108
▁ord	-5109
▁iron	-5110
▁plot	-5111
743	-5112
ELD	-5113
ANCE	-5114
PORT	-5115
Real	-5116
ressed	-5117
▁becoming	-5118
▁injection	-5119
▁potential	-5120
oom	-5121
▁UK	-5122
▁Call	-5123
▁TraceComponent	-5124
▁DE	-5125
▁polic	-5126
Headers	-5127
▁league	-5128
▁Service	-5129
▁increase	-5130
Use	-5131
orial	-5132
▁cance	-5133
▁whole	-5134
▁intens	-5135
ONE	-5136
achment	-5137
Hdr	-5138
obj	-5139
och	-5140
atively	-5141
▁binding	-5142
▁episodes	-5143
ItemStream	-5144
IS	-5145
▁Dr	-5146
lood	-5147
▁diss	-5148
▁makes	-5149
urrency	-5150
▁agreed	-5151
▁require	-5152
▁pressure	-5153
▁producer	-5154
▁XML	-5155
▁Gold	-5156
▁Court	-5157
Support	-5158
isation	-5159
▁Atlantic	-5160
▁conditions	-5161
▁LoggingUtil	-5162
igr	-5163
Rece	-5164
teen	-5165
▁Jim	-5166
rapped	-5167
▁ge	-5168
▁Rad	-5169
idents	-5170
▁portr	-5171
getTime	-5172
▁Germany	-5173
▁starting	-5174
▁Cup	-5175
▁Fil	-5176
▁che	-5177
▁attr	-5178
▁inside	-5179
cheduled	-5180
iability	-5181
▁validate	-5182
>");	-5183
Close	-5184
Topic	-5185
utdown	-5186
▁extra	-5187
▁reach	-5188
▁middle	-5189
Sy	-5190
sy	-5191
cur	-5192
▁fleet	-5193
▁cclass	-5194
▁requested	-5195
▁Many	-5196
▁phot	-5197
▁adapt	-5198
▁battles	-5199
ux	-5200
COND	-5201
aven	-5202
▁wor	-5203
▁market	-5204
▁fiction	-5205
open	-5206
▁imm	-5207
▁Force	-5208
▁moving	-5209
Required	-5210
Notification	-5211
LY	-5212
ks	-5213
kin	-5214
▁prev	-5215
▁Sam	-5216
▁god	-5217
▁food	-5218
bsolute	-5219
clusive	-5220
TC	-5221
AND	-5222
asc	-5223
CTION	-5224
▁1999	-5225
▁Later	-5226
▁marked	-5227
▁declared	-5228
>)	-5229
acy	-5230
erb	-5231
▁roll	-5232
▁breed	-5233
instance	-5234
unchecked	-5235
lay	-5236
DEBUG	-5237
▁summer	-5238
▁collect	-5239
▁encoding	-5240
Bas	-5241
URE	-5242
▁Tex	-5243
▁dra	-5244
atching	-5245
▁numbers	-5246
▁officers	-5247
otes	-5248
▁Det	-5249
encies	-5250
▁leaving	-5251
redential	-5252
OC	-5253
hs	-5254
abit	-5255
iders	-5256
▁walk	-5257
Monitor	-5258
NotEmpty	-5259
▁determine	-5260
▁conversation	-5261
47	-5262
urb	-5263
▁MP	-5264
ario	-5265
ises	-5266
▁deg	-5267
▁deep	-5268
▁ener	-5269
▁flow	-5270
▁behav	-5271
Snapshot	-5272
Admin	-5273
▁Jenn	-5274
▁Lock	-5275
Groups	-5276
writer	-5277
▁radio	-5278
ifiable	-5279
▁Mexico	-5280
▁musical	-5281
StackTrace	-5282
37	-5283
▁cele	-5284
▁shoot	-5285
Failure	-5286
MESSAGE	-5287
▁Linked	-5288
▁copies	-5289
▁mostly	-5290
▁nearly	-5291
▁direction	-5292
32	-5293
</	-5294
Att	-5295
▁70	-5296
eway	-5297
▁Bay	-5298
▁Inf	-5299
split	-5300
iberty	-5301
Available	-5302
743-	-5303
▁Row	-5304
▁sem	-5305
FIELD	-5306
▁Ital	-5307
▁Mill	-5308
▁teams	-5309
▁unable	-5310
ortheast	-5311
▁College	-5312
cons	-5313
oral	-5314
▁Bro	-5315
Track	-5316
Memory	-5317
jected	-5318
▁Route	-5319
▁mixed	-5320
▁higher	-5321
▁village	-5322
▁Virginia	-5323
irm	-5324
aped	-5325
▁purch	-5326
ruptedException	-5327
.",	-5328
gor	-5329
▁180	-5330
▁subs	-5331
▁uses	-5332
eeName	-5333
▁Group	-5334
▁raised	-5335
▁32	-5336
ibly	-5337
umed	-5338
ycle	-5339
▁Tre	-5340
▁Year	-5341
Custom	-5342
▁equip	-5343
▁married	-5344
LED	-5345
ado	-5346
▁IN	-5347
Oper	-5348
69	-5349
uit	-5350
FFDC	-5351
Coord	-5352
▁overall	-5353
ClassInfo	-5354
▁experience	-5355
DER	-5356
sey	-5357
url	-5358
olves	-5359
▁Chic	-5360
▁dram	-5361
▁susp	-5362
INVALID	-5363
▁defined	-5364
▁assigned	-5365
▁gl	-5366
ager	-5367
chan	-5368
▁Ever	-5369
Depend	-5370
▁cases	-5371
▁horse	-5372
▁woman	-5373
▁temper	-5374
uz	-5375
▁Ol	-5376
Disk	-5377
Open	-5378
▁width	-5379
Storage	-5380
▁Result	-5381
▁resolve	-5382
Tx	-5383
Assign	-5384
IC	-5385
Tab	-5386
▁fr	-5387
▁Jew	-5388
▁mur	-5389
arant	-5390
ogram	-5391
▁favor	-5392
▁films	-5393
▁float	-5394
▁living	-5395
▁columns	-5396
▁activity	-5397
▁influence	-5398
▁1.	-5399
Full	-5400
NUMBER	-5401
exists	-5402
▁heart	-5403
▁Locale	-5404
▁planned	-5405
Interceptor	-5406
mpx	-5407
▁90	-5408
▁mg	-5409
▁Ver	-5410
▁mom	-5411
▁Bell	-5412
▁Mont	-5413
ceeded	-5414
▁lyrics	-5415
▁appears	-5416
▁natural	-5417
▁captured	-5418
▁recovery	-5419
▁returning	-5420
▁Expression	-5421
▁approximately	-5422
='	-5423
)).	-5424
ona	-5425
▁Penn	-5426
▁colon	-5427
▁terms	-5428
▁matter	-5429
▁CmsUUID	-5430
▁300	-5431
▁Pre	-5432
itect	-5433
▁park	-5434
Tokens	-5435
unlock	-5436
look	-5437
▁Both	-5438
▁Form	-5439
▁weight	-5440
▁connect	-5441
▁enabled	-5442
One	-5443
icient	-5444
▁multi	-5445
Columns	-5446
▁Florida	-5447
▁seconds	-5448
icted	-5449
▁http	-5450
▁rare	-5451
▁lived	-5452
getRootPath	-5453
▁InputStream	-5454
orrect	-5455
vention	-5456
▁metres	-5457
Password	-5458
ominated	-5459
getCurrent	-5460
▁Billboard	-5461
▁subsequently	-5462
Qual	-5463
sole	-5464
Click	-5465
▁dark	-5466
output	-5467
▁roles	-5468
▁forest	-5469
▁concert	-5470
▁compared	-5471
ORI	-5472
aire	-5473
▁Sea	-5474
▁dev	-5475
▁kil	-5476
Export	-5477
return	-5478
▁board	-5479
▁modified	-5480
==	-5481
CL	-5482
▁male	-5483
▁actual	-5484
▁surface	-5485
▁question	-5486
▁processing	-5487
Down	-5488
aters	-5489
visit	-5490
▁bring	-5491
▁chall	-5492
▁meaning	-5493
jj	-5494
ena	-5495
Init	-5496
ugin	-5497
▁Base	-5498
▁Wood	-5499
▁helped	-5500
urt	-5501
This	-5502
rupt	-5503
udit	-5504
▁sea	-5505
Chain	-5506
Right	-5507
Remove	-5508
▁install	-5509
▁missing	-5510
uals	-5511
uplic	-5512
▁tons	-5513
▁slight	-5514
Variable	-5515
Timer	-5516
▁repe	-5517
▁Table	-5518
▁money	-5519
complet	-5520
▁Connection	-5521
▁Fort	-5522
▁Lake	-5523
▁Final	-5524
▁Scott	-5525
▁ranked	-5526
External	-5527
▁constructed	-5528
uest	-5529
anger	-5530
▁Arch	-5531
select	-5532
▁carry	-5533
▁Servlet	-5534
▁themselves	-5535
▁Er	-5536
INST	-5537
▁Del	-5538
▁Tay	-5539
Month	-5540
inity	-5541
orses	-5542
▁pick	-5543
▁rate	-5544
Cluster	-5545
▁Chicago	-5546
gorith	-5547
stitution	-5548
level	-5549
▁takes	-5550
▁problem	-5551
▁daughter	-5552
▁priority	-5553
NG	-5554
cers	-5555
▁har	-5556
▁improve	-5557
IP	-5558
hash	-5559
▁Writ	-5560
undred	-5561
▁tourn	-5562
▁voice	-5563
▁scenes	-5564
Whitespace	-5565
atre	-5566
▁Only	-5567
▁goals	-5568
▁shown	-5569
Gallery	-5570
▁Injection	-5571
98	-5572
▁TV	-5573
osen	-5574
▁ssl	-5575
▁heav	-5576
formed	-5577
▁flags	-5578
▁minute	-5579
Validation	-5580
])	-5581
Top	-5582
var	-5583
Sing	-5584
Login	-5585
▁Russ	-5586
▁doesn	-5587
▁timer	-5588
crement	-5589
getDate	-5590
▁invoke	-5591
ByteArray	-5592
▁launched	-5593
▁environment	-5594
36	-5595
Run	-5596
ded	-5597
▁")	-5598
INIT	-5599
▁hour	-5600
▁Africa	-5601
1",	-5602
gle	-5603
▁Go	-5604
LOCK	-5605
uate	-5606
inate	-5607
▁burn	-5608
▁chain	-5609
Durable	-5610
▁course	-5611
(@	-5612
▁Its	-5613
aches	-5614
execute	-5615
▁cached	-5616
▁transl	-5617
▁catalog	-5618
Timestamp	-5619
EAR	-5620
Fap	-5621
▁Gl	-5622
▁Tom	-5623
▁Zeal	-5624
▁bomb	-5625
▁Croat	-5626
▁frame	-5627
▁export	-5628
▁simple	-5629
▁Zealand	-5630
▁northeast	-5631
AUT	-5632
CESS	-5633
▁Fre	-5634
▁Tor	-5635
▁Null	-5636
▁Step	-5637
▁emer	-5638
ecret	-5639
icated	-5640
service	-5641
▁leader	-5642
riminator	-5643
▁depression	-5644
TRI	-5645
oul	-5646
claim	-5647
▁plat	-5648
▁calcul	-5649
PT	-5650
[])	-5651
page	-5652
well	-5653
▁tag	-5654
▁wild	-5655
▁personal	-5656
▁referred	-5657
▁individual	-5658
▁pri	-5659
▁var	-5660
schema	-5661
▁Client	-5662
▁services	-5663
▁Association	-5664
THOD	-5665
▁Los	-5666
SECOND	-5667
respon	-5668
▁birth	-5669
▁Taylor	-5670
▁shared	-5671
▁Western	-5672
▁damaged	-5673
Equ	-5674
PATH	-5675
▁pil	-5676
FORMAT	-5677
anging	-5678
▁trade	-5679
ipeline	-5680
▁Second	-5681
▁combat	-5682
▁compan	-5683
▁ending	-5684
▁health	-5685
▁directory	-5686
▁\"	-5687
CORE	-5688
▁Law	-5689
Holder	-5690
▁Cache	-5691
▁debug	-5692
▁instr	-5693
▁pitch	-5694
VERSION	-5695
▁experi	-5696
▁Brigade	-5697
▁condition	-5698
▁ID	-5699
BUuid	-5700
Batch	-5701
reatest	-5702
▁caught	-5703
▁guitar	-5704
▁listed	-5705
BASELINE	-5706
▁greater	-5707
▁mention	-5708
▁movement	-5709
nes	-5710
▁Enter	-5711
▁serious	-5712
▁critical	-5713
▁settings	-5714
){	-5715
45	-5716
DELE	-5717
enty	-5718
Catalog	-5719
▁Jackson	-5720
▁foreign	-5721
▁package	-5722
▁listeners	-5723
doubleValue	-5724
▁subscription	-5725
▁Les	-5726
▁finan	-5727
▁currently	-5728
▁professional	-5729
BO	-5730
▁JMS	-5731
▁gir	-5732
▁coin	-5733
▁fifth	-5734
warning	-5735
▁Buffered	-5736
STO	-5737
Roll	-5738
▁sat	-5739
plies	-5740
▁Bean	-5741
▁Cross	-5742
▁earned	-5743
▁render	-5744
▁Another	-5745
▁constraint	-5746
RuntimeException	-5747
vc	-5748
▁75	-5749
▁Ma	-5750
TRAN	-5751
orning	-5752
Sitemap	-5753
▁Center	-5754
security	-5755
HS	-5756
uter	-5757
▁Holl	-5758
ynamic	-5759
▁plant	-5760
▁Central	-5761
▁concept	-5762
Me	-5763
mas	-5764
left	-5765
▁Under	-5766
▁notes	-5767
▁button	-5768
▁unknown	-5769
LS	-5770
▁UN	-5771
GING	-5772
Stop	-5773
▁Rob	-5774
iated	-5775
▁Tech	-5776
Cookie	-5777
▁theme	-5778
▁thick	-5779
▁issued	-5780
▁password	-5781
Invocation	-5782
Ws	-5783
cean	-5784
uous	-5785
▁Sir	-5786
▁sen	-5787
▁Scient	-5788
▁meeting	-5789
ki	-5790
://	-5791
des	-5792
ylan	-5793
▁Sun	-5794
▁prec	-5795
▁Dylan	-5796
▁secret	-5797
▁African	-5798
▁Throwable	-5799
':	-5800
DBC	-5801
aved	-5802
▁Exp	-5803
▁Highway	-5804
▁portlet	-5805
▁Response	-5806
▁majority	-5807
4,	-5808
oud	-5809
▁tx	-5810
▁aband	-5811
▁analysis	-5812
▁commented	-5813
▁religious	-5814
▁Off	-5815
▁Pet	-5816
▁ctx	-5817
getSh	-5818
stone	-5819
▁larg	-5820
▁struct	-5821
▁produce	-5822
▁suffered	-5823
▁Care	-5824
gorithm	-5825
▁discus	-5826
▁separate	-5827
▁attempted	-5828
dap	-5829
NULL	-5830
WORK	-5831
▁ign	-5832
▁sal	-5833
▁editor	-5834
Template	-5835
MM	-5836
▁cat	-5837
ulated	-5838
▁Build	-5839
▁grand	-5840
Objects	-5841
intValue	-5842
bmd	-5843
eff	-5844
vie	-5845
▁Util	-5846
Visible	-5847
BM	-5848
ENTI	-5849
aily	-5850
Events	-5851
▁alias	-5852
getPath	-5853
gregate	-5854
▁covered	-5855
▁extract	-5856
▁largely	-5857
EventListener	-5858
Bind	-5859
icro	-5860
ellow	-5861
▁Line	-5862
▁stmt	-5863
▁vert	-5864
loader	-5865
oration	-5866
▁Awards	-5867
▁things	-5868
Information	-5869
hy	-5870
▁1950	-5871
▁Mean	-5872
▁fans	-5873
Rect	-5874
icles	-5875
▁1940	-5876
▁Node	-5877
▁Access	-5878
▁deleted	-5879
ersistence	-5880
ste	-5881
hood	-5882
entity	-5883
imitive	-5884
Category	-5885
Selection	-5886
▁Wal	-5887
Lower	-5888
▁defeat	-5889
▁dialog	-5890
▁offered	-5891
▁reduced	-5892
▁servlet	-5893
▁stories	-5894
▁inspired	-5895
▁attributes	-5896
▁sch	-5897
uated	-5898
venue	-5899
▁Earth	-5900
agon	-5901
band	-5902
like	-5903
▁Sal	-5904
▁jud	-5905
▁ren	-5906
▁stra	-5907
▁plans	-5908
75	-5909
RED	-5910
uan	-5911
▁ST	-5912
▁Mem	-5913
▁uri	-5914
Infos	-5915
orted	-5916
▁desc	-5917
▁edge	-5918
▁Party	-5919
▁demon	-5920
▁shift	-5921
getUser	-5922
▁figure	-5923
▁interse	-5924
GN	-5925
umm	-5926
block	-5927
getSub	-5928
imiter	-5929
ublish	-5930
▁energy	-5931
▁giving	-5932
▁sevent	-5933
getStart	-5934
▁attacked	-5935
ACE	-5936
iry	-5937
▁Id	-5938
▁Texas	-5939
▁issues	-5940
ady	-5941
▁""	-5942
illa	-5943
istr	-5944
▁Bus	-5945
cient	-5946
▁talk	-5947
▁Games	-5948
▁Index	-5949
▁inner	-5950
oly	-5951
▁driv	-5952
▁qual	-5953
▁border	-5954
▁attacks	-5955
Completed	-5956
▁selection	-5957
▁permission	-5958
Async	-5959
PARAM	-5960
▁Alex	-5961
▁Dist	-5962
▁friends	-5963
▁architect	-5964
Dig	-5965
Tool	-5966
roid	-5967
warn	-5968
History	-5969
quarters	-5970
▁accepted	-5971
del	-5972
hold	-5973
▁NOT	-5974
▁weap	-5975
struct	-5976
ifications	-5977
olid	-5978
tree	-5979
▁fast	-5980
▁Green	-5981
▁tracks	-5982
▁refused	-5983
▁resulted	-5984
][	-5985
▁rul	-5986
▁Saint	-5987
▁levels	-5988
▁presence	-5989
,"	-5990
▁mv	-5991
▁rows	-5992
▁Irish	-5993
▁nature	-5994
Nullable	-5995
SiteRoot	-5996
(((	-5997
idx	-5998
req	-5999
activ	-6000
empty	-6001
▁fish	-6002
▁meant	-6003
▁trying	-6004
▁Carolina	-6005
rie	-6006
▁49	-6007
▁bow	-6008
ening	-6009
▁Camp	-6010
▁Color	-6011
▁Config	-6012
Privileged	-6013
▁background	-6014
▁33	-6015
airs	-6016
▁Gro	-6017
▁mat	-6018
ledge	-6019
▁Java	-6020
unnable	-6021
▁global	-6022
▁receive	-6023
ategories	-6024
Jar	-6025
ests	-6026
cheme	-6027
Upload	-6028
▁choice	-6029
▁hot	-6030
▁ult	-6031
odies	-6032
Locked	-6033
▁Louis	-6034
▁clazz	-6035
▁rapid	-6036
validate	-6037
▁countries	-6038
seException	-6039
idge	-6040
▁Fore	-6041
▁Mass	-6042
PREFIX	-6043
Requests	-6044
▁definition	-6045
▁initialize	-6046
48	-6047
COMP	-6048
rial	-6049
▁1995	-6050
▁Crit	-6051
▁Foot	-6052
▁answ	-6053
ACTION	-6054
▁append	-6055
▁otherwise	-6056
aby	-6057
▁sn	-6058
▁Hel	-6059
CONFI	-6060
olume	-6061
▁1998	-6062
▁keys	-6063
▁pack	-6064
▁needs	-6065
DbContext	-6066
▁occasion	-6067
28	-6068
las	-6069
gypt	-6070
▁III	-6071
strap	-6072
atible	-6073
▁segment	-6074
MESSAGING	-6075
▁Regiment	-6076
▁principal	-6077
▁Short	-6078
▁Direct	-6079
ServletResponse	-6080
ga	-6081
icense	-6082
▁parents	-6083
▁metadata	-6084
More	-6085
▁").	-6086
▁400	-6087
riage	-6088
▁Core	-6089
▁Spec	-6090
Command	-6091
▁hundred	-6092
shire	-6093
Unable	-6094
▁merge	-6095
Changed	-6096
▁branch	-6097
▁murder	-6098
▁promin	-6099
▁respectively	-6100
dd	-6101
▁'"	-6102
▁Ob	-6103
eces	-6104
▁Tim	-6105
▁Turn	-6106
header	-6107
▁China	-6108
generate	-6109
ootstrap	-6110
win	-6111
rier	-6112
▁Bec	-6113
▁Gal	-6114
▁Club	-6115
▁Franc	-6116
▁Stream	-6117
▁depart	-6118
▁Italian	-6119
▁library	-6120
▁stating	-6121
parameter	-6122
▁anything	-6123
▁maintain	-6124
▁commander	-6125
▁Destination	-6126
EM	-6127
▁riv	-6128
track	-6129
▁Creek	-6130
▁online	-6131
▁fighting	-6132
SPI	-6133
▁Che	-6134
▁suc	-6135
iling	-6136
▁mind	-6137
▁tail	-6138
▁tick	-6139
▁piece	-6140
▁elected	-6141
26	-6142
iny	-6143
▁Emp	-6144
▁Tur	-6145
aling	-6146
▁nearby	-6147
▁Johnson	-6148
▁actions	-6149
▁attract	-6150
▁variety	-6151
▁iterator	-6152
▁situation	-6153
ria	-6154
▁Op	-6155
Cell	-6156
Copy	-6157
erve	-6158
rows	-6159
▁View	-6160
▁spir	-6161
▁doing	-6162
▁newsp	-6163
▁VoltDB	-6164
▁responsible	-6165
////	-6166
args	-6167
ntax	-6168
post	-6169
▁Ill	-6170
▁Bond	-6171
▁Egypt	-6172
endsWith	-6173
▁MPP	-6174
▁Lord	-6175
▁Matt	-6176
ndiName	-6177
setText	-6178
▁contemp	-6179
getProject	-6180
Annotations	-6181
Arch	-6182
BACK	-6183
▁dom	-6184
▁Note	-6185
▁native	-6186
PlanNode	-6187
▁registered	-6188
iled	-6189
▁cas	-6190
▁Kore	-6191
dialog	-6192
########	-6193
▁ty	-6194
("</	-6195
▁err	-6196
▁nav	-6197
Tables	-6198
▁shape	-6199
▁expect	-6200
▁lookup	-6201
▁sources	-6202
▁traditional	-6203
ams	-6204
▁ess	-6205
aught	-6206
osing	-6207
oured	-6208
▁Jose	-6209
▁farm	-6210
ansion	-6211
phased	-6212
▁Param	-6213
Runtime	-6214
▁rights	-6215
▁quality	-6216
partition	-6217
UTF	-6218
pose	-6219
▁Fin	-6220
astic	-6221
▁1930	-6222
adding	-6223
params	-6224
ritten	-6225
▁compl	-6226
▁Edward	-6227
Children	-6228
Fragment	-6229
▁becomes	-6230
▁schools	-6231
▁composed	-6232
▁numerous	-6233
▁squadron	-6234
▁correspon	-6235
ocr	-6236
peror	-6237
access	-6238
ferences	-6239
outheast	-6240
▁society	-6241
▁creating	-6242
▁competition	-6243
[]{	-6244
▁37	-6245
▁jar	-6246
Chunk	-6247
where	-6248
▁stats	-6249
▁artist	-6250
▁audience	-6251
▁attention	-6252
▁amb	-6253
allow	-6254
▁1997	-6255
▁corn	-6256
record	-6257
▁older	-6258
Pointer	-6259
osh	-6260
▁"'	-6261
Tile	-6262
erry	-6263
rong	-6264
Domain	-6265
▁Corps	-6266
▁constant	-6267
▁endpoint	-6268
▁negative	-6269
Persistent	-6270
27	-6271
(",	-6272
Edit	-6273
dist	-6274
▁dir	-6275
uries	-6276
▁fully	-6277
getLong	-6278
▁extrem	-6279
tainment	-6280
▁Council	-6281
▁Duration	-6282
getAbsolute	-6283
▁championship	-6284
Auto	-6285
Float	-6286
▁meta	-6287
▁books	-6288
▁traffic	-6289
▁completely	-6290
13	-6291
▁"(	-6292
anks	-6293
▁onto	-6294
▁rule	-6295
chester	-6296
▁centre	-6297
▁horses	-6298
▁officer	-6299
▁Infantry	-6300
▁encounter	-6301
▁northwest	-6302
ka	-6303
pop	-6304
▁48	-6305
leep	-6306
aurus	-6307
▁Arrays	-6308
▁symbol	-6309
ills	-6310
▁Bey	-6311
ducer	-6312
▁rein	-6313
rolled	-6314
▁calls	-6315
PROJECT	-6316
▁policy	-6317
▁scient	-6318
Priority	-6319
▁advance	-6320
▁attempts	-6321
ij	-6322
▁#	-6323
Step	-6324
ares	-6325
room	-6326
owers	-6327
▁Cath	-6328
▁scope	-6329
umeration	-6330
sn	-6331
Ind	-6332
[1]	-6333
▁redu	-6334
▁adult	-6335
▁guest	-6336
HashMap	-6337
▁allowing	-6338
▁attended	-6339
▁transferred	-6340
▁47	-6341
▁feder	-6342
▁prote	-6343
▁escape	-6344
▁master	-6345
▁positions	-6346
UB	-6347
vin	-6348
Look	-6349
atype	-6350
rical	-6351
▁Acad	-6352
▁share	-6353
imension	-6354
▁Through	-6355
▁relative	-6356
▁Department	-6357
▁battleship	-6358
SVG	-6359
stop	-6360
▁enj	-6361
▁pit	-6362
▁purs	-6363
parseInt	-6364
▁contact	-6365
getLocale	-6366
▁slightly	-6367
ATOR	-6368
come	-6369
▁birds	-6370
▁chief	-6371
abs	-6372
ading	-6373
after	-6374
plorer	-6375
▁Latin	-6376
Display	-6377
URATION	-6378
▁highly	-6379
▁compare	-6380
▁founded	-6381
ErrorCode	-6382
▁industry	-6383
▁observed	-6384
▁snapshot	-6385
▁classpath	-6386
OrWhitespace	-6387
OrWhitespaceOnly	-6388
(1	-6389
▁Pri	-6390
▁idx	-6391
asure	-6392
props	-6393
▁Haw	-6394
▁strength	-6395
▁ByteBuffer	-6396
gs	-6397
Sep	-6398
utch	-6399
▁dise	-6400
▁trust	-6401
uctureId	-6402
component	-6403
Jms	-6404
Rows	-6405
ruit	-6406
unic	-6407
erial	-6408
▁1996	-6409
commit	-6410
ipFile	-6411
▁forms	-6412
▁impact	-6413
▁legisl	-6414
▁square	-6415
▁looking	-6416
▁presented	-6417
CONFIG	-6418
ective	-6419
▁Tokens	-6420
▁Angeles	-6421
Principal	-6422
▁transfer	-6423
▁tournament	-6424
Loc	-6425
▁"\"	-6426
setAttribute	-6427
BY	-6428
QU	-6429
ims	-6430
bing	-6431
▁Van	-6432
angle	-6433
▁approach	-6434
RC	-6435
cs	-6436
Such	-6437
▁Bon	-6438
Title	-6439
rated	-6440
▁1992	-6441
▁Task	-6442
▁batch	-6443
Buffers	-6444
handler	-6445
getColumn	-6446
▁resulting	-6447
.1	-6448
udd	-6449
oubt	-6450
sets	-6451
▁depth	-6452
▁sense	-6453
▁words	-6454
▁Return	-6455
▁Properties	-6456
▁performances	-6457
LL	-6458
▁Dom	-6459
▁ded	-6460
▁crow	-6461
▁letter	-6462
▁tradition	-6463
▁Commission	-6464
SB	-6465
eds	-6466
▁RE	-6467
HEAD	-6468
width	-6469
▁compute	-6470
WE	-6471
rey	-6472
Find	-6473
emic	-6474
▁tax	-6475
▁veh	-6476
Roles	-6477
▁Three	-6478
▁focus	-6479
matcher	-6480
▁annual	-6481
Lat	-6482
scan	-6483
▁lot	-6484
▁prem	-6485
Simple	-6486
▁schol	-6487
▁prison	-6488
Constant	-6489
getDuration	-6490
▁checkNotNull	-6491
trie	-6492
unity	-6493
▁Lenn	-6494
Bounds	-6495
Global	-6496
Invoke	-6497
onical	-6498
▁draft	-6499
-------	-6500
▁houses	-6501
▁inches	-6502
▁containing	-6503
ili	-6504
▁Rh	-6505
▁Cast	-6506
▁kept	-6507
▁seek	-6508
former	-6509
▁login	-6510
▁recomm	-6511
▁versions	-6512
▁ByteArray	-6513
booleanValue	-6514
Gu	-6515
zy	-6516
fire	-6517
Multi	-6518
manag	-6519
sembly	-6520
▁actor	-6521
▁updated	-6522
isf	-6523
▁Rev	-6524
▁Json	-6525
▁hands	-6526
▁capture	-6527
▁scoring	-6528
▁FastMath	-6529
▁Parliament	-6530
getDestination	-6531
ano	-6532
▁Att	-6533
▁Dem	-6534
ulate	-6535
▁Find	-6536
▁User	-6537
▁blue	-6538
▁feat	-6539
▁inte	-6540
▁Because	-6541
▁edition	-6542
▁Property	-6543
▁matching	-6544
▁restrict	-6545
Post	-6546
Print	-6547
TABLE	-6548
essel	-6549
ummer	-6550
perial	-6551
▁sales	-6552
itation	-6553
▁except	-6554
▁launch	-6555
▁sister	-6556
▁torped	-6557
▁electron	-6558
ND	-6559
Big	-6560
Inc	-6561
ses	-6562
top	-6563
▁bug	-6564
▁Gulf	-6565
▁didn	-6566
Static	-6567
▁exact	-6568
▁simply	-6569
getShort	-6570
location	-6571
uplicate	-6572
▁Cluster	-6573
Procedure	-6574
Flow	-6575
anna	-6576
usion	-6577
▁Camb	-6578
▁Entry	-6579
Portlet	-6580
Executor	-6581
▁Session	-6582
Generator	-6583
ufficient	-6584
▁distinct	-6585
▁external	-6586
Com	-6587
aver	-6588
▁Gar	-6589
▁sac	-6590
while	-6591
▁Week	-6592
▁your	-6593
driver	-6594
enable	-6595
▁contrast	-6596
▁greatest	-6597
▁revealed	-6598
nar	-6599
Rate	-6600
▁Snow	-6601
▁Tenn	-6602
▁reaction	-6603
Completion	-6604
▁DataStore	-6605
▁subsequent	-6606
IF	-6607
PC	-6608
Bug	-6609
bor	-6610
ils	-6611
AUTH	-6612
wait	-6613
flush	-6614
▁stay	-6615
Cached	-6616
▁Their	-6617
▁enjoy	-6618
▁consec	-6619
▁creation	-6620
Red	-6621
fin	-6622
ips	-6623
pass	-6624
▁doll	-6625
Import	-6626
▁advan	-6627
▁passing	-6628
ech	-6629
▁Gra	-6630
▁Tour	-6631
▁Order	-6632
release	-6633
▁Little	-6634
▁morning	-6635
Classpath	-6636
▁combined	-6637
▁conflict	-6638
▁designated	-6639
ng	-6640
Tasks	-6641
orpor	-6642
▁buff	-6643
▁tower	-6644
▁Common	-6645
▁Empire	-6646
▁adding	-6647
▁struck	-6648
▁reading	-6649
▁addColumn	-6650
Wait	-6651
ette	-6652
▁Bob	-6653
▁Bull	-6654
ounded	-6655
▁rough	-6656
▁retval	-6657
▁showed	-6658
StoreException	-6659
23	-6660
AP	-6661
isk	-6662
▁Kn	-6663
COST	-6664
INDE	-6665
fect	-6666
iral	-6667
asket	-6668
▁coach	-6669
▁exhib	-6670
Resolver	-6671
▁possibly	-6672
bl	-6673
ORY	-6674
▁mix	-6675
Actual	-6676
▁begins	-6677
▁observ	-6678
▁singer	-6679
Reliability	-6680
▁university	-6681
DO	-6682
getF	-6683
more	-6684
rent	-6685
uten	-6686
▁Max	-6687
▁fun	-6688
Flags	-6689
▁sides	-6690
▁walls	-6691
▁athlet	-6692
▁broken	-6693
▁thrown	-6694
▁twenty	-6695
Identity	-6696
Permissions	-6697
▁FI	-6698
▁Secret	-6699
▁Several	-6700
newInstance	-6701
orms	-6702
▁hus	-6703
▁1000	-6704
▁Hand	-6705
VoltDB	-6706
▁Congress	-6707
▁fileName	-6708
\\	-6709
▁Arm	-6710
oving	-6711
▁Rail	-6712
ighter	-6713
OpenCms	-6714
▁mechan	-6715
▁opport	-6716
▁starts	-6717
Rollback	-6718
▁ability	-6719
▁writers	-6720
▁Jennings	-6721
▁selector	-6722
▁Operation	-6723
FailedException	-6724
AV	-6725
Nav	-6726
▁Jms	-6727
erved	-6728
irmed	-6729
ayload	-6730
▁tried	-6731
▁cyclone	-6732
▁Northern	-6733
CAT	-6734
ssl	-6735
▁39	-6736
▁Capt	-6737
getStr	-6738
▁Major	-6739
estival	-6740
▁efforts	-6741
annotation	-6742
▁concluded	-6743
▁signature	-6744
▁touchdown	-6745
dc	-6746
za	-6747
LAG	-6748
uge	-6749
iant	-6750
▁Ann	-6751
▁pal	-6752
▁ends	-6753
▁cerem	-6754
Created	-6755
▁physical	-6756
▁execution	-6757
getAttribute	-6758
SY	-6759
iqu	-6760
▁Cr	-6761
▁era	-6762
▁Also	-6763
▁Arab	-6764
INFINI	-6765
▁Queen	-6766
▁owned	-6767
▁Bridge	-6768
▁random	-6769
▁visited	-6770
▁conducted	-6771
▁continues	-6772
▁MPPUtility	-6773
fe	-6774
2",	-6775
ACT	-6776
olk	-6777
▁swe	-6778
▁dism	-6779
ocated	-6780
rowser	-6781
getMethod	-6782
Buf	-6783
Flag	-6784
[][]	-6785
fort	-6786
▁Card	-6787
▁Home	-6788
▁powerful	-6789
Assignable	-6790
▁candidate	-6791
49	-6792
OB	-6793
lp	-6794
ATTRI	-6795
▁chem	-6796
▁Carey	-6797
▁gather	-6798
▁propos	-6799
LogRecord	-6800
▁generated	-6801
1;	-6802
VD	-6803
ira	-6804
Enum	-6805
Html	-6806
show	-6807
ental	-6808
▁beat	-6809
▁says	-6810
rovers	-6811
▁plays	-6812
▁twice	-6813
▁recent	-6814
▁companies	-6815
6,	-6816
gl	-6817
rep	-6818
▁2)	-6819
▁Ws	-6820
▁Bas	-6821
▁eye	-6822
▁Blue	-6823
▁Sant	-6824
▁exam	-6825
▁kick	-6826
▁genus	-6827
▁Commit	-6828
▁compar	-6829
▁collabor	-6830
▁getClass	-6831
▁hospital	-6832
▁converted	-6833
▁exceptions	-6834
UMN	-6835
body	-6836
▁179	-6837
▁Bet	-6838
ander	-6839
ropri	-6840
▁1941	-6841
▁1993	-6842
▁expr	-6843
illery	-6844
▁peaked	-6845
izational	-6846
▁prepared	-6847
▁typically	-6848
Rpc	-6849
▁et	-6850
▁Hal	-6851
ework	-6852
▁1994	-6853
▁Tree	-6854
▁acting	-6855
▁chosen	-6856
▁CmsObject	-6857
▁successfully	-6858
ev	-6859
▁dy	-6860
edia	-6861
▁Boy	-6862
▁oil	-6863
▁Brad	-6864
remote	-6865
▁reign	-6866
resolve	-6867
setValue	-6868
▁Security	-6869
getService	-6870
LastModified	-6871
▁ClassLoader	-6872
TRUE	-6873
▁cert	-6874
getMax	-6875
▁stone	-6876
getEntry	-6877
▁clusters	-6878
▁education	-6879
FormatException	-6880
Doc	-6881
BUTE	-6882
oked	-6883
Graph	-6884
▁1991	-6885
▁wing	-6886
apacity	-6887
▁caller	-6888
▁strike	-6889
▁widely	-6890
▁waiting	-6891
uct	-6892
▁Ha	-6893
ingu	-6894
pret	-6895
▁Scot	-6896
▁trial	-6897
▁Before	-6898
▁federal	-6899
▁identity	-6900
▁represented	-6901
▁ast	-6902
▁Post	-6903
▁legal	-6904
Archive	-6905
Package	-6906
consumer	-6907
▁territory	-6908
PR	-6909
mond	-6910
▁bom	-6911
▁doc	-6912
▁Test	-6913
▁sync	-6914
Common	-6915
insert	-6916
▁today	-6917
▁studies	-6918
▁viewers	-6919
▁practice	-6920
projectIdOrPath	-6921
CN	-6922
inus	-6923
omer	-6924
actor	-6925
▁push	-6926
itness	-6927
▁naval	-6928
▁ready	-6929
▁mainly	-6930
▁journal	-6931
priseBean	-6932
▁authority	-6933
nam	-6934
cest	-6935
▁/**	-6936
itter	-6937
▁1942	-6938
ieuten	-6939
keySet	-6940
▁Colon	-6941
▁Paris	-6942
▁paper	-6943
Install	-6944
▁Lennon	-6945
▁celebr	-6946
▁claims	-6947
▁weaken	-6948
ToString	-6949
▁Minister	-6950
▁CmsProperty	-6951
formatMessage	-6952
Op	-6953
_0),	-6954
▁(!(	-6955
▁raw	-6956
ylvan	-6957
resent	-6958
getData	-6959
▁details	-6960
▁promoted	-6961
▁Manchester	-6962
▁Scientology	-6963
iy	-6964
Bit	-6965
▁"+	-6966
▁44	-6967
▁Hy	-6968
ABLE	-6969
ILED	-6970
[0];	-6971
rant	-6972
▁note	-6973
ifying	-6974
number	-6975
▁alleg	-6976
▁dates	-6977
toArray	-6978
▁errors	-6979
▁husband	-6980
FapChannel	-6981
▁financial	-6982
▁SIConnection	-6983
ROUP	-6984
▁Den	-6985
▁hor	-6986
Ljava	-6987
house	-6988
▁Kent	-6989
▁Dream	-6990
▁alone	-6991
Constru	-6992
▁advant	-6993
▁getCms	-6994
▁Football	-6995
▁residents	-6996
▁ultimately	-6997
Conversation	-6998
WS	-6999
ASK	-7000
etch	-7001
gian	-7002
amera	-7003
ellig	-7004
▁homes	-7005
Deleted	-7006
▁Series	-7007
▁batter	-7008
▁coming	-7009
▁reports	-7010
Formatter	-7011
▁marriage	-7012
▁therefore	-7013
Bl	-7014
OS	-7015
ALI	-7016
Sec	-7017
▁Ap	-7018
ancy	-7019
ican	-7020
ishop	-7021
▁mile	-7022
▁alter	-7023
▁parser	-7024
▁vessel	-7025
Activity	-7026
Criteria	-7027
▁SIBUuid	-7028
▁relatively	-7029
5,	-7030
▁fix	-7031
▁Film	-7032
▁drop	-7033
Cursor	-7034
cessor	-7035
▁Museum	-7036
▁figures	-7037
▁projects	-7038
Credential	-7039
▁isTraceOn	-7040
▁controvers	-7041
▁everything	-7042
AssignableFrom	-7043
ctx	-7044
▁Po	-7045
rael	-7046
▁ack	-7047
match	-7048
pping	-7049
▁Land	-7050
▁poll	-7051
Member	-7052
Reason	-7053
▁Event	-7054
aranteed	-7055
▁getting	-7056
ATTRIBUTE	-7057
Remaining	-7058
▁Relation	-7059
▁committed	-7060
▁contained	-7061
29	-7062
78	-7063
fg	-7064
WAR	-7065
▁1]	-7066
▁HT	-7067
Msgs	-7068
ptor	-7069
Nodes	-7070
adium	-7071
ighth	-7072
▁coord	-7073
▁enemy	-7074
▁winter	-7075
▁innings	-7076
LowerCase	-7077
▁template	-7078
▁primarily	-7079
▁historical	-7080
IDs	-7081
SED	-7082
jar	-7083
ACHE	-7084
unch	-7085
▁imag	-7086
▁Start	-7087
▁teach	-7088
ramework	-7089
▁Initial	-7090
▁disabled	-7091
ii	-7092
PUT	-7093
SUB	-7094
("\"	-7095
wide	-7096
▁DVD	-7097
Users	-7098
▁rating	-7099
▁spread	-7100
getParam	-7101
▁defense	-7102
▁science	-7103
Namespace	-7104
getDouble	-7105
▁incorpor	-7106
mo	-7107
Join	-7108
▁Tro	-7109
▁inh	-7110
types	-7111
▁Gard	-7112
▁sets	-7113
ifiers	-7114
▁earth	-7115
▁strug	-7116
▁category	-7117
▁download	-7118
▁Hurricane	-7119
▁projectIdOrPath	-7120
MPTY	-7121
▁0.0	-7122
▁Pat	-7123
▁ioe	-7124
▁ple	-7125
alloc	-7126
ordan	-7127
▁2016	-7128
▁News	-7129
Render	-7130
▁ahead	-7131
▁basic	-7132
▁titled	-7133
▁Academy	-7134
▁Manning	-7135
▁Southern	-7136
▁apparent	-7137
▁officials	-7138
MF	-7139
▁Gil	-7140
▁Int	-7141
▁URI	-7142
▁nin	-7143
Agent	-7144
▁exit	-7145
PerPage	-7146
▁Israel	-7147
▁arrest	-7148
Relative	-7149
ieutenant	-7150
▁Americans	-7151
▁featuring	-7152
▁contemporary	-7153
▁Pan	-7154
▁roy	-7155
Author	-7156
▁heavily	-7157
▁prepare	-7158
Registration	-7159
isAssignableFrom	-7160
Ph	-7161
eer	-7162
▁Ox	-7163
INFO	-7164
▁150	-7165
▁paid	-7166
▁Penns	-7167
▁paths	-7168
▁narrow	-7169
▁passes	-7170
▁proper	-7171
▁toward	-7172
▁causing	-7173
▁secondary	-7174
8,	-7175
ita	-7176
elta	-7177
▁Hon	-7178
▁Sol	-7179
▁dut	-7180
archy	-7181
▁icon	-7182
▁inch	-7183
▁Valid	-7184
▁assist	-7185
▁portion	-7186
▁appearances	-7187
Cal	-7188
▁Mr	-7189
iano	-7190
▁Sil	-7191
▁cmd	-7192
▁Bost	-7193
▁Conf	-7194
DELETE	-7195
METHOD	-7196
▁drive	-7197
▁flush	-7198
▁thous	-7199
▁Martin	-7200
▁Though	-7201
▁aspect	-7202
UniqueID	-7203
getState	-7204
▁alongside	-7205
▁Pennsylvan	-7206
▁consecutive	-7207
awn	-7208
▁Spok	-7209
▁Greek	-7210
▁newly	-7211
▁memory	-7212
▁remark	-7213
▁paralle	-7214
▁mountain	-7215
LIC	-7216
MON	-7217
ejb	-7218
oop	-7219
Test	-7220
▁Ott	-7221
▁lat	-7222
▁bottom	-7223
INFINITY	-7224
▁protect	-7225
Character	-7226
▁Harrison	-7227
▁criticized	-7228
DD	-7229
Has	-7230
lim	-7231
Insn	-7232
▁Cap	-7233
▁Four	-7234
Editor	-7235
▁brown	-7236
▁moment	-7237
▁sought	-7238
▁Channel	-7239
▁adapter	-7240
▁follows	-7241
asketball	-7242
▁VoltType	-7243
▁activities	-7244
▁settlement	-7245
Len	-7246
jsp	-7247
YEAR	-7248
▁Fox	-7249
▁Mos	-7250
▁Tri	-7251
▁Wel	-7252
ements	-7253
▁equal	-7254
▁nodes	-7255
▁loader	-7256
getTypeName	-7257
▁determined	-7258
messageProcessor	-7259
iro	-7260
▁64	-7261
▁Fe	-7262
TASK	-7263
▁bey	-7264
found	-7265
lings	-7266
shake	-7267
▁{}",	-7268
▁wrong	-7269
▁Jordan	-7270
▁couple	-7271
▁employ	-7272
listener	-7273
▁dimension	-7274
▁management	-7275
qn	-7276
▁34	-7277
▁fa	-7278
CODE	-7279
make	-7280
Cause	-7281
phoon	-7282
ufact	-7283
▁1945	-7284
▁Roll	-7285
losure	-7286
▁blood	-7287
▁Simple	-7288
▁beyond	-7289
▁tokens	-7290
▁Records	-7291
▁Society	-7292
▁ancient	-7293
▁dropped	-7294
▁producers	-7295
toLowerCase	-7296
▁controller	-7297
▁influenced	-7298
▁headquarters	-7299
0}	-7300
ema	-7301
▁|=	-7302
Pred	-7303
▁pet	-7304
▁prepar	-7305
▁getProject	-7306
IO	-7307
ban	-7308
appe	-7309
▁Spe	-7310
▁lif	-7311
▁Head	-7312
Exists	-7313
▁Senate	-7314
▁adjust	-7315
▁proved	-7316
activity	-7317
▁divided	-7318
▁withdraw	-7319
▁CommsConstants	-7320
TAG	-7321
elm	-7322
▁2;	-7323
auth	-7324
▁mel	-7325
▁nom	-7326
▁txn	-7327
enger	-7328
▁Temp	-7329
listed	-7330
▁peace	-7331
▁county	-7332
INSTANCE	-7333
▁capacity	-7334
Authentication	-7335
39	-7336
MD	-7337
▁Lu	-7338
rill	-7339
INDEX	-7340
▁trib	-7341
Single	-7342
▁allows	-7343
▁parsed	-7344
ArrayList	-7345
arraycopy	-7346
▁expressed	-7347
agn	-7348
avax	-7349
▁lay	-7350
▁Book	-7351
▁grew	-7352
▁broke	-7353
▁exped	-7354
▁train	-7355
▁warning	-7356
▁governor	-7357
getAbsolutePath	-7358
Rad	-7359
▁42	-7360
rees	-7361
ttps	-7362
▁0))	-7363
▁pull	-7364
▁upgr	-7365
▁basis	-7366
▁floor	-7367
install	-7368
reshold	-7369
▁attend	-7370
▁weather	-7371
▁operated	-7372
Exceptions	-7373
▁65	-7374
▁95	-7375
(1);	-7376
Send	-7377
Span	-7378
▁Mil	-7379
After	-7380
ancel	-7381
range	-7382
▁Youn	-7383
rypted	-7384
▁Light	-7385
▁sixth	-7386
▁Avenue	-7387
▁encour	-7388
▁Catholic	-7389
▁District	-7390
▁maintained	-7391
!");	-7392
Rest	-7393
yles	-7394
▁Hero	-7395
▁Need	-7396
▁Sovi	-7397
▁Boston	-7398
▁Server	-7399
▁stored	-7400
▁tables	-7401
▁waters	-7402
▁machine	-7403
▁seasons	-7404
izationalUnit	-7405
Ne	-7406
▁du	-7407
http	-7408
▁Lew	-7409
▁Rose	-7410
izable	-7411
▁Heart	-7412
▁benef	-7413
▁bucket	-7414
Protocol	-7415
▁granted	-7416
▁stopped	-7417
▁interval	-7418
▁reaching	-7419
▁effective	-7420
▁getDefault	-7421
▁independent	-7422
APP	-7423
dir	-7424
▁46	-7425
[0],	-7426
▁gar	-7427
FOUND	-7428
arian	-7429
stein	-7430
▁Doug	-7431
▁More	-7432
▁Chris	-7433
▁gained	-7434
▁instit	-7435
DURATION	-7436
▁Document	-7437
▁Victoria	-7438
▁56	-7439
▁Tw	-7440
seek	-7441
▁Ram	-7442
TRANS	-7443
▁span	-7444
▁sust	-7445
▁chunk	-7446
▁outer	-7447
▁belong	-7448
▁socket	-7449
Extended	-7450
▁argument	-7451
▁explained	-7452
RequestContext	-7453
getStructureId	-7454
XM	-7455
ora	-7456
sen	-7457
Addr	-7458
Sync	-7459
▁Leg	-7460
▁extr	-7461
▁nation	-7462
▁spring	-7463
▁unlock	-7464
Strategy	-7465
▁nuclear	-7466
▁Tropical	-7467
▁manifest	-7468
projectFile	-7469
▁LinkedList	-7470
▁managedObject	-7471
onc	-7472
▁":	-7473
▁"]	-7474
▁55	-7475
▁Ry	-7476
beat	-7477
GROUP	-7478
Reply	-7479
opted	-7480
▁girl	-7481
▁isol	-7482
Lookup	-7483
antasy	-7484
▁Civil	-7485
▁Point	-7486
▁trees	-7487
▁Remote	-7488
▁Update	-7489
▁concent	-7490
▁culture	-7491
▁rollback	-7492
▁installed	-7493
▁JS	-7494
ouri	-7495
tran	-7496
▁eas	-7497
Sample	-7498
▁comes	-7499
Working	-7500
▁Option	-7501
▁identified	-7502
CI	-7503
El	-7504
RPT	-7505
apo	-7506
[0].	-7507
core	-7508
enge	-7509
▁cho	-7510
title	-7511
▁1986	-7512
▁Like	-7513
▁emph	-7514
▁thir	-7515
▁zero	-7516
▁Fleet	-7517
▁Moore	-7518
▁owner	-7519
clusion	-7520
▁argued	-7521
▁storage	-7522
▁southeast	-7523
▁officially	-7524
▁NO	-7525
▁ir	-7526
mail	-7527
coming	-7528
lookup	-7529
status	-7530
timeout	-7531
▁detail	-7532
▁flying	-7533
Handlers	-7534
database	-7535
Supported	-7536
structure	-7537
Occ	-7538
ube	-7539
▁600	-7540
QUEST	-7541
float	-7542
▁news	-7543
▁royal	-7544
servlet	-7545
▁encode	-7546
▁origin	-7547
▁spirit	-7548
Matching	-7549
▁adopted	-7550
▁measure	-7551
▁reflect	-7552
▁straight	-7553
rog	-7554
Area	-7555
Coll	-7556
▁Sar	-7557
hasMore	-7558
▁Default	-7559
▁assault	-7560
▁student	-7561
▁Missouri	-7562
▁configured	-7563
Term	-7564
anes	-7565
▁Mic	-7566
▁Tod	-7567
▁Each	-7568
ricult	-7569
▁expos	-7570
stances	-7571
▁Histor	-7572
▁Prince	-7573
▁enable	-7574
children	-7575
▁prominent	-7576
getParameter	-7577
sTo	-7578
▁Ly	-7579
▁Of	-7580
FLAG	-7581
LENG	-7582
stmt	-7583
then	-7584
▁1944	-7585
▁safe	-7586
▁sens	-7587
FINISH	-7588
▁armed	-7589
▁lives	-7590
▁Captain	-7591
▁returns	-7592
▁appropri	-7593
▁artillery	-7594
▁describes	-7595
▁frequently	-7596
33	-7597
Rec	-7598
gon	-7599
Cond	-7600
STAT	-7601
▁Stone	-7602
▁movie	-7603
▁Joseph	-7604
DateTime	-7605
complete	-7606
▁artists	-7607
▁shortly	-7608
▁surrounding	-7609
Off	-7610
arp	-7611
igen	-7612
▁Sur	-7613
clazz	-7614
▁Once	-7615
▁Ocean	-7616
▁apply	-7617
▁seems	-7618
▁sites	-7619
ication	-7620
▁places	-7621
CmsReport	-7622
▁investig	-7623
▁newspaper	-7624
Instruction	-7625
DN	-7626
xFF	-7627
▁Di	-7628
Sort	-7629
pton	-7630
▁Pop	-7631
Bucket	-7632
▁Water	-7633
▁users	-7634
▁cursor	-7635
▁vocals	-7636
▁disease	-7637
Validator	-7638
HttpClient	-7639
onym	-7640
test	-7641
unte	-7642
▁Sat	-7643
▁1920	-7644
▁eval	-7645
FAILED	-7646
LENGTH	-7647
parsed	-7648
▁advert	-7649
▁casual	-7650
▁silver	-7651
DBIDIter	-7652
▁affected	-7653
▁demonstr	-7654
▁neighbor	-7655
▁rejected	-7656
▁stations	-7657
▁Parameter	-7658
▁interpret	-7659
▁scheduled	-7660
[2	-7661
exc	-7662
▁fle	-7663
image	-7664
▁evac	-7665
Choice	-7666
▁sport	-7667
convert	-7668
▁archae	-7669
▁locked	-7670
▁animals	-7671
initialize	-7672
▁descriptor	-7673
-8	-7674
TENT	-7675
Organ	-7676
Slice	-7677
▁curr	-7678
iences	-7679
▁thing	-7680
imation	-7681
▁Oxford	-7682
▁perman	-7683
▁upload	-7684
▁debuted	-7685
▁agreement	-7686
.2	-7687
TV	-7688
Mgr	-7689
adin	-7690
main	-7691
ties	-7692
▁GBS	-7693
▁See	-7694
▁Uns	-7695
Could	-7696
Lists	-7697
lines	-7698
▁Kenn	-7699
▁laid	-7700
▁resc	-7701
COLUMN	-7702
MEUuid	-7703
outing	-7704
▁retry	-7705
ologist	-7706
recover	-7707
▁Beyonc	-7708
▁Lesnar	-7709
▁ignored	-7710
▁letters	-7711
▁expanded	-7712
▁abandoned	-7713
▁temporary	-7714
printStackTrace	-7715
bia	-7716
ola	-7717
▁Ret	-7718
▁narr	-7719
PubSub	-7720
▁Early	-7721
ceptors	-7722
mutable	-7723
▁advent	-7724
▁answer	-7725
▁bodies	-7726
▁comedy	-7727
▁orders	-7728
▁senior	-7729
getBytes	-7730
▁Spokane	-7731
▁kilomet	-7732
▁formData	-7733
▁requires	-7734
COMM	-7735
ints	-7736
▁Dam	-7737
▁Whe	-7738
rance	-7739
▁Jeff	-7740
ceived	-7741
▁Colum	-7742
▁Jewish	-7743
▁retired	-7744
▁JSONObject	-7745
getWorkplace	-7746
▁organization	-7747
PUB	-7748
ani	-7749
HTTP	-7750
SCRI	-7751
STIN	-7752
▁Guard	-7753
uristic	-7754
▁defend	-7755
▁college	-7756
Statistics	-7757
▁advantage	-7758
▁arguments	-7759
▁promotion	-7760
▁instrument	-7761
▁ObjectManager	-7762
Ge	-7763
ada	-7764
▁Far	-7765
▁Nic	-7766
Fixed	-7767
ester	-7768
miral	-7769
ooper	-7770
otted	-7771
▁Chron	-7772
▁specim	-7773
▁variable	-7774
▁confirmed	-7775
ValueExpression	-7776
0,	-7777
▁"/"	-7778
ocate	-7779
▁boats	-7780
▁green	-7781
▁bacter	-7782
▁console	-7783
▁runtime	-7784
▁manufact	-7785
ARY	-7786
UTE	-7787
▁Os	-7788
▁Sa	-7789
haps	-7790
▁Six	-7791
namese	-7792
▁aired	-7793
▁negot	-7794
Inbound	-7795
IndexOf	-7796
getField	-7797
recovery	-7798
rollable	-7799
▁Request	-7800
▁Constant	-7801
▁achieved	-7802
▁Vietnamese	-7803
▁authorities	-7804
tn	-7805
cal	-7806
Days	-7807
burg	-7808
▁>>>	-7809
▁Bre	-7810
▁Ten	-7811
▁Way	-7812
▁bal	-7813
▁boy	-7814
▁Hsql	-7815
▁elev	-7816
rimary	-7817
▁delta	-7818
▁tells	-7819
Missing	-7820
▁depict	-7821
▁seventh	-7822
▁incident	-7823
▁BoxRequests	-7824
AccessControl	-7825
PointerException	-7826
xx	-7827
STEM	-7828
hens	-7829
▁Cle	-7830
▁bra	-7831
▁cit	-7832
▁ele	-7833
▁hyd	-7834
Bound	-7835
LOCAL	-7836
▁Even	-7837
▁Live	-7838
▁Upon	-7839
▁clim	-7840
▁Chief	-7841
▁watch	-7842
▁collap	-7843
▁domest	-7844
▁emphas	-7845
▁pieces	-7846
▁Conference	-7847
Dat	-7848
cus	-7849
anos	-7850
▁Kar	-7851
Scale	-7852
▁Oliv	-7853
▁hunt	-7854
▁poly	-7855
▁workers	-7856
▁connected	-7857
▁mentioned	-7858
▁replacement	-7859
mf	-7860
ELE	-7861
uri	-7862
CACHE	-7863
▁weak	-7864
omatic	-7865
▁domin	-7866
▁serve	-7867
▁views	-7868
istered	-7869
▁Albert	-7870
activate	-7871
▁GBSNode	-7872
▁growing	-7873
▁Committee	-7874
▁consisted	-7875
addParameter	-7876
mc	-7877
KNN	-7878
▁FA	-7879
cell	-7880
▁why	-7881
color	-7882
crete	-7883
▁elim	-7884
HEADER	-7885
▁Holly	-7886
▁inher	-7887
▁degree	-7888
▁Vietnam	-7889
▁contest	-7890
▁torpedo	-7891
▁equipment	-7892
▁Entertainment	-7893
Am	-7894
Hex	-7895
Iss	-7896
ptic	-7897
▁Zah	-7898
iator	-7899
▁JDBC	-7900
▁nest	-7901
▁pict	-7902
▁Jones	-7903
Replace	-7904
catalog	-7905
▁highlight	-7906
▁southwest	-7907
Localization	-7908
▁interceptor	-7909
Ou	-7910
ja	-7911
ols	-7912
vens	-7913
▁sus	-7914
getAll	-7915
REQUEST	-7916
▁injury	-7917
▁sample	-7918
▁Philipp	-7919
▁selling	-7920
▁weapons	-7921
Separator	-7922
AG	-7923
rif	-7924
HSId	-7925
onic	-7926
going	-7927
▁1987	-7928
▁Show	-7929
▁bind	-7930
Insert	-7931
prefix	-7932
▁faced	-7933
ivation	-7934
▁retrie	-7935
Producer	-7936
ResultSet	-7937
▁accident	-7938
attributes	-7939
▁nominated	-7940
▁structures	-7941
▁Pennsylvania	-7942
▁WS	-7943
adel	-7944
Delay	-7945
Exprs	-7946
STRING	-7947
Syntax	-7948
notated	-7949
▁oldest	-7950
▁freeway	-7951
▁purpose	-7952
68	-7953
Attrs	-7954
isters	-7955
▁fixed	-7956
▁condom	-7957
▁rainfall	-7958
▁regarded	-7959
▁Component	-7960
▁Government	-7961
getConnection	-7962
Txn	-7963
FAIL	-7964
expr	-7965
temp	-7966
▁BBC	-7967
Depth	-7968
begin	-7969
▁Prov	-7970
▁What	-7971
▁hair	-7972
▁Young	-7973
▁Zahir	-7974
▁fresh	-7975
▁campus	-7976
▁sexual	-7977
▁buffers	-7978
▁routing	-7979
▁completion	-7980
_2,	-7981
Pass	-7982
▁Mel	-7983
break	-7984
▁1985	-7985
▁Code	-7986
bucket	-7987
Library	-7988
▁growth	-7989
▁leaves	-7990
▁powers	-7991
▁yellow	-7992
▁economic	-7993
▁obtained	-7994
DataSource	-7995
▁Christmas	-7996
▁intensity	-7997
▁Annotation	-7998
▁CmsStringUtil	-7999
Gen	-8000
ker	-8001
▁CD	-8002
Vert	-8003
▁Oper	-8004
▁drum	-8005
ardine	-8006
utions	-8007
▁delay	-8008
▁habit	-8009
▁Middle	-8010
▁albums	-8011
▁occurs	-8012
▁achieve	-8013
Qualifier	-8014
▁classLoader	-8015
XX	-8016
.1.	-8017
Rep	-8018
<?>>	-8019
omic	-8020
▁Ash	-8021
▁Mul	-8022
▁sib	-8023
itors	-8024
▁Conn	-8025
▁Well	-8026
▁cold	-8027
▁deck	-8028
weight	-8029
▁Board	-8030
▁Harry	-8031
▁Guitar	-8032
▁street	-8033
FileSize	-8034
previous	-8035
▁Further	-8036
▁involve	-8037
Incorrect	-8038
getModule	-8039
▁Williams	-8040
▁schedule	-8041
getElement	-8042
▁Meanwhile	-8043
AccessException	-8044
mos	-8045
▁Ty	-8046
etic	-8047
▁isn	-8048
▁Hung	-8049
▁Mult	-8050
▁resp	-8051
▁guard	-8052
CONTENT	-8053
factory	-8054
▁charge	-8055
▁fellow	-8056
▁obtain	-8057
▁wounded	-8058
▁attached	-8059
isNotEmpty	-8060
▁recovered	-8061
Ac	-8062
Ret	-8063
▁BC	-8064
▁Jon	-8065
MBean	-8066
total	-8067
▁sail	-8068
eliver	-8069
▁prede	-8070
▁systems	-8071
▁targets	-8072
Histogram	-8073
▁historian	-8074
ny	-8075
▁41	-8076
▁MD	-8077
▁tab	-8078
Upper	-8079
limit	-8080
▁acad	-8081
ummary	-8082
▁Spain	-8083
ossible	-8084
▁opposed	-8085
▁collected	-8086
Certificate	-8087
▁soundtrack	-8088
▁individuals	-8089
ads	-8090
ien	-8091
▁43	-8092
Help	-8093
POSI	-8094
aadin	-8095
▁1988	-8096
▁Exec	-8097
▁Lady	-8098
▁Ross	-8099
▁Simp	-8100
▁Float	-8101
SECONDS	-8102
appings	-8103
▁helper	-8104
▁landing	-8105
▁persist	-8106
▁Anderson	-8107
▁treatment	-8108
CallException	-8109
(-	-8110
EW	-8111
ba	-8112
{}	-8113
bon	-8114
bus	-8115
ecl	-8116
ura	-8117
▁ws	-8118
ALSE	-8119
span	-8120
▁Lar	-8121
▁auto	-8122
▁feed	-8123
CmsUUID	-8124
Virtual	-8125
▁illust	-8126
▁supply	-8127
▁Simpson	-8128
▁leaders	-8129
▁proceed	-8130
▁behavior	-8131
▁graphics	-8132
▁recently	-8133
▁BigDecimal	-8134
▁candidates	-8135
▁participated	-8136
CP	-8137
COR	-8138
ECK	-8139
div	-8140
mes	-8141
▁PI	-8142
▁120	-8143
▁Bos	-8144
▁dog	-8145
CHECK	-8146
▁Bson	-8147
▁fair	-8148
▁Turner	-8149
▁losing	-8150
▁notify	-8151
▁writes	-8152
Bindings	-8153
▁challeng	-8154
▁XAException	-8155
ManagedObject	-8156
▁Ev	-8157
▁kg	-8158
EXPI	-8159
asty	-8160
iced	-8161
rate	-8162
▁Var	-8163
STORE	-8164
unique	-8165
▁Print	-8166
▁chose	-8167
▁heads	-8168
▁rival	-8169
getItem	-8170
▁layout	-8171
▁merged	-8172
▁serving	-8173
▁dedicated	-8174
▁knowledge	-8175
IST	-8176
erc	-8177
hou	-8178
ila	-8179
▁Gi	-8180
bury	-8181
html	-8182
▁Ter	-8183
model	-8184
▁hits	-8185
button	-8186
▁phase	-8187
▁Entity	-8188
▁McCain	-8189
▁killing	-8190
▁perfect	-8191
itionally	-8192
▁commonly	-8193
▁formation	-8194
▁deployment	-8195
readResource	-8196
SequenceNumber	-8197
ITS	-8198
uzz	-8199
▁-=	-8200
▁76	-8201
▁Ka	-8202
▁Ra	-8203
LOAD	-8204
▁hip	-8205
▁rom	-8206
hetic	-8207
ilies	-8208
isers	-8209
▁Open	-8210
▁hall	-8211
▁ones	-8212
▁ring	-8213
▁solo	-8214
▁spon	-8215
Mapper	-8216
ursive	-8217
▁cells	-8218
▁fruit	-8219
▁actors	-8220
▁Olympic	-8221
▁encoded	-8222
increment	-8223
▁invasion	-8224
▁provides	-8225
▁username	-8226
ServiceRef	-8227
▁Hashtable	-8228
▁controlled	-8229
▁recognized	-8230
doPrivileged	-8231
GB	-8232
NOW	-8233
afe	-8234
oen	-8235
VENT	-8236
▁Arg	-8237
▁Good	-8238
olving	-8239
ricket	-8240
setName	-8241
▁Jardine	-8242
▁herself	-8243
BI	-8244
Can	-8245
▁pm	-8246
elve	-8247
odia	-8248
▁Gib	-8249
ensus	-8250
▁neut	-8251
▁risk	-8252
▁Lewis	-8253
▁drama	-8254
▁favour	-8255
▁captain	-8256
▁distingu	-8257
▁opponent	-8258
▁repeated	-8259
Additional	-8260
▁references	-8261
▁JFapChannel	-8262
▁ClassNotFound	-8263
2;	-8264
38	-8265
ete	-8266
non	-8267
▁PK	-8268
▁UI	-8269
▁WIM	-8270
apore	-8271
▁Bowl	-8272
IDENTI	-8273
ropped	-8274
▁gives	-8275
▁spect	-8276
PoolSize	-8277
▁Russian	-8278
▁matcher	-8279
▁intellig	-8280
VO	-8281
rypt	-8282
▁beg	-8283
▁ice	-8284
iance	-8285
ishes	-8286
liest	-8287
▁"");	-8288
▁Bank	-8289
▁fear	-8290
▁frag	-8291
▁dance	-8292
changed	-8293
▁titles	-8294
calendar	-8295
▁Admiral	-8296
▁Nations	-8297
▁billion	-8298
▁medical	-8299
▁Consumer	-8300
3.	-8301
NC	-8302
sych	-8303
▁Heb	-8304
▁Ice	-8305
essed	-8306
▁eyes	-8307
▁volt	-8308
direct	-8309
▁Dutch	-8310
▁Image	-8311
▁pilot	-8312
▁planet	-8313
InfoList	-8314
▁Subject	-8315
▁cultural	-8316
▁suggests	-8317
▁publication	-8318
anc	-8319
src	-8320
▁SF	-8321
gram	-8322
skip	-8323
▁Ern	-8324
▁pun	-8325
▁que	-8326
ashed	-8327
attle	-8328
▁1939	-8329
▁rear	-8330
cluster	-8331
▁relief	-8332
▁headers	-8333
▁restore	-8334
▁trigger	-8335
▁visible	-8336
▁Singapore	-8337
▁kilometres	-8338
internalRequest	-8339
--;	-8340
Man	-8341
etts	-8342
mult	-8343
▁vir	-8344
eries	-8345
items	-8346
▁1989	-8347
▁mpxj	-8348
▁stre	-8349
▁Album	-8350
▁fired	-8351
▁speak	-8352
propName	-8353
▁singles	-8354
Algorithm	-8355
▁resolved	-8356
▁battalion	-8357
▁remainder	-8358
▁experienced	-8359
▁facesContext	-8360
lik	-8361
CHAR	-8362
iven	-8363
▁mob	-8364
stamp	-8365
▁Team	-8366
intend	-8367
vation	-8368
▁volume	-8369
▁believe	-8370
▁entirely	-8371
methodName	-8372
▁extensive	-8373
&&	-8374
7,	-8375
Sql	-8376
cat	-8377
▁lb	-8378
meta	-8379
▁Raj	-8380
▁SVG	-8381
▁1943	-8382
▁goes	-8383
Vaadin	-8384
▁Night	-8385
▁Welsh	-8386
▁Polish	-8387
▁severe	-8388
▁arrival	-8389
▁advanced	-8390
▁district	-8391
athContext	-8392
▁delivered	-8393
▁expansion	-8394
▁performing	-8395
zer	-8396
anda	-8397
▁Due	-8398
▁ang	-8399
▁sun	-8400
stead	-8401
▁Soviet	-8402
▁disput	-8403
Synchron	-8404
ierarchy	-8405
▁parallel	-8406
atypeConverter	-8407
ADD	-8408
Bugs	-8409
cles	-8410
▁mask	-8411
▁Liver	-8412
▁panel	-8413
ilename	-8414
▁cookie	-8415
▁filled	-8416
▁plants	-8417
ifically	-8418
▁Douglas	-8419
▁InternalRequest	-8420
ewh	-8421
ima	-8422
▁66	-8423
▁Av	-8424
▁Dar	-8425
▁Rom	-8426
Media	-8427
getSe	-8428
udget	-8429
▁norm	-8430
▁opin	-8431
Shared	-8432
import	-8433
▁Token	-8434
▁surre	-8435
MODE	-8436
thur	-8437
▁gas	-8438
separ	-8439
▁Sund	-8440
▁agent	-8441
▁paint	-8442
Overlay	-8443
licated	-8444
▁Public	-8445
▁cities	-8446
Baseline	-8447
Business	-8448
ReadOnly	-8449
original	-8450
▁briefly	-8451
▁witness	-8452
▁locations	-8453
▁contributed	-8454
CC	-8455
WIT	-8456
NORE	-8457
gers	-8458
otic	-8459
▁Use	-8460
▁nor	-8461
▁acqu	-8462
▁beaut	-8463
▁optim	-8464
▁humans	-8465
▁loaded	-8466
TypeName	-8467
▁Theatre	-8468
▁mapping	-8469
▁accompan	-8470
▁organized	-8471
▁timestamp	-8472
ji	-8473
det	-8474
uer	-8475
sign	-8476
athan	-8477
ships	-8478
▁1964	-8479
▁Jane	-8480
▁mole	-8481
Before	-8482
▁turns	-8483
▁denied	-8484
▁Gilbert	-8485
▁executive	-8486
OutputHandler	-8487
▁Hor	-8488
▁NBA	-8489
▁rot	-8490
Asset	-8491
MONTH	-8492
STATI	-8493
▁grass	-8494
forName	-8495
getNext	-8496
▁Democr	-8497
▁filmed	-8498
▁sports	-8499
▁wolves	-8500
izations	-8501
▁Federer	-8502
▁council	-8503
▁fragment	-8504
getSession	-8505
ifiableDBIDs	-8506
IllegalArgument	-8507
(".	-8508
Art	-8509
Opt	-8510
Svc	-8511
▁'/	-8512
▁sq	-8513
CNTR	-8514
Free	-8515
itan	-8516
▁Ast	-8517
orney	-8518
▁unus	-8519
▁diver	-8520
▁piano	-8521
▁rules	-8522
▁visual	-8523
Possible	-8524
▁Generic	-8525
getClient	-8526
▁electric	-8527
▁Otherwise	-8528
getSitePath	-8529
facesContext	-8530
Mac	-8531
▁85	-8532
Zone	-8533
scri	-8534
▁alt	-8535
▁scr	-8536
throw	-8537
▁bass	-8538
▁gain	-8539
encode	-8540
rossed	-8541
▁clock	-8542
▁reput	-8543
Generic	-8544
Product	-8545
Station	-8546
▁Engine	-8547
▁motion	-8548
▁CmsUser	-8549
▁Eastern	-8550
▁minimum	-8551
▁declined	-8552
▁entrance	-8553
▁Liverpool	-8554
lastIndexOf	-8555
▁CmsWorkplace	-8556
nn	-8557
▁Su	-8558
home	-8559
▁800	-8560
▁Tag	-8561
▁aid	-8562
▁fly	-8563
otype	-8564
▁Fair	-8565
▁Wild	-8566
SERVER	-8567
thread	-8568
▁Italy	-8569
▁alpha	-8570
▁ideas	-8571
matches	-8572
▁attrib	-8573
▁chance	-8574
▁famous	-8575
inations	-8576
urations	-8577
▁closing	-8578
Unavailable	-8579
currentThread	-8580
MC	-8581
hav	-8582
aste	-8583
reme	-8584
shal	-8585
▁178	-8586
▁HMS	-8587
▁Hum	-8588
▁knn	-8589
FALSE	-8590
Hours	-8591
essor	-8592
scape	-8593
▁Burn	-8594
▁tell	-8595
getMin	-8596
Matcher	-8597
▁Native	-8598
Explorer	-8599
Comparator	-8600
▁VoltTable	-8601
▁protection	-8602
46	-8603
9,	-8604
HO	-8605
RS	-8606
pm	-8607
NEW	-8608
ini	-8609
▁eg	-8610
onna	-8611
rack	-8612
short	-8613
▁Hind	-8614
▁Hawai	-8615
▁Press	-8616
▁Refer	-8617
Matches	-8618
isValid	-8619
▁decode	-8620
▁Scotland	-8621
▁breeding	-8622
▁defaultValue	-8623
Elem	-8624
iami	-8625
rone	-8626
▁Mike	-8627
▁Sega	-8628
▁seat	-8629
▁synt	-8630
asList	-8631
ashion	-8632
▁bands	-8633
▁reply	-8634
▁images	-8635
▁secure	-8636
getContext	-8637
▁purchased	-8638
▁worldwide	-8639
▁experiment	-8640
▁commissioned	-8641
xid	-8642
Bits	-8643
ooth	-8644
vari	-8645
▁700	-8646
▁Cre	-8647
▁salt	-8648
Suffix	-8649
▁Among	-8650
▁Storm	-8651
▁steel	-8652
▁tasks	-8653
Summary	-8654
▁assume	-8655
allocate	-8656
▁actress	-8657
▁computer	-8658
▁filename	-8659
▁indicate	-8660
▁discovery	-8661
▁interchange	-8662
PK	-8663
PLA	-8664
();)	-8665
ownt	-8666
▁Rap	-8667
Links	-8668
▁Back	-8669
▁finds	-8670
▁noise	-8671
▁NoSuch	-8672
▁losses	-8673
▁suffix	-8674
password	-8675
▁flooding	-8676
▁programs	-8677
▁sections	-8678
▁mcWrapper	-8679
▁Revolution	-8680
):	-8681
df	-8682
gu	-8683
sv	-8684
▁AS	-8685
Font	-8686
getJ	-8687
phia	-8688
prev	-8689
▁Non	-8690
▁rhy	-8691
▁Nero	-8692
hedral	-8693
▁Coast	-8694
▁Miami	-8695
ivalent	-8696
▁Remove	-8697
▁Review	-8698
▁Summer	-8699
▁themes	-8700
▁theory	-8701
Artifact	-8702
adelphia	-8703
▁criteria	-8704
▁crossing	-8705
▁supporting	-8706
dl	-8707
RAN	-8708
▁51	-8709
()];	-8710
real	-8711
QLink	-8712
Ready	-8713
ansas	-8714
▁1968	-8715
▁Dest	-8716
▁gets	-8717
Period	-8718
STATUS	-8719
iments	-8720
▁Never	-8721
▁decre	-8722
▁honor	-8723
▁mouth	-8724
▁Newton	-8725
▁viewed	-8726
▁Complet	-8727
▁monitor	-8728
▁singing	-8729
▁acquired	-8730
▁defensive	-8731
▁Republican	-8732
▁casualties	-8733
▁serialized	-8734
▁transition	-8735
▁CmsXmlContent	-8736
Fix	-8737
▁52	-8738
▁AD	-8739
ATED	-8740
andy	-8741
keys	-8742
▁shr	-8743
ounce	-8744
▁soft	-8745
Marker	-8746
endars	-8747
▁trave	-8748
include	-8749
▁consum	-8750
▁somewh	-8751
▁neither	-8752
▁regions	-8753
Expressions	-8754
▁PlayStation	-8755
▁methodNames	-8756
▁administration	-8757
)");	-8758
hist	-8759
▁Dub	-8760
pread	-8761
▁coal	-8762
▁mist	-8763
▁Wheel	-8764
▁quite	-8765
eletion	-8766
projects	-8767
▁article	-8768
DataStore	-8769
▁Festival	-8770
▁occupied	-8771
assignment	-8772
▁formatter	-8773
▁responsib	-8774
▁returnValue	-8775
▁WsByteBuffer	-8776
▁increasingly	-8777
▁BufferedImage	-8778
SK	-8779
++]	-8780
wrap	-8781
▁Dec	-8782
▁ERA	-8783
EMPTY	-8784
▁card	-8785
▁wolf	-8786
▁chair	-8787
HashSet	-8788
▁expand	-8789
▁fought	-8790
▁families	-8791
VaadinUtils	-8792
▁Constraint	-8793
▁components	-8794
(1,	-8795
lan	-8796
lie	-8797
oms	-8798
txn	-8799
▁Ul	-8800
0000	-8801
FIER	-8802
HOUR	-8803
HTML	-8804
▁Pen	-8805
▁fan	-8806
▁1914	-8807
▁Duke	-8808
notify	-8809
▁cited	-8810
▁lists	-8811
▁Office	-8812
▁applied	-8813
▁holding	-8814
▁roughly	-8815
workplace	-8816
▁earliest	-8817
▁preferred	-8818
▁Philadelphia	-8819
';	-8820
IBM	-8821
▁Kh	-8822
▁SR	-8823
BYTE	-8824
Show	-8825
▁Cub	-8826
▁Rog	-8827
▁syn	-8828
ORITY	-8829
▁1918	-8830
▁boat	-8831
▁wick	-8832
getCms	-8833
illing	-8834
▁Child	-8835
▁wides	-8836
Dropped	-8837
▁Croatia	-8838
▁website	-8839
▁infantry	-8840
▁receiving	-8841
▁conference	-8842
▁vc	-8843
lsen	-8844
▁Men	-8845
▁Bois	-8846
▁Make	-8847
▁scul	-8848
olders	-8849
▁daily	-8850
▁scheme	-8851
PUtility	-8852
▁Context	-8853
▁closely	-8854
▁emotion	-8855
▁reasons	-8856
▁DBIDUtil	-8857
▁agricult	-8858
▁offensive	-8859
oh	-8860
Mar	-8861
UNK	-8862
osa	-8863
ows	-8864
apel	-8865
▁2);	-8866
inger	-8867
unnel	-8868
▁1915	-8869
▁1916	-8870
▁getP	-8871
CREATE	-8872
Locales	-8873
ository	-8874
▁Daniel	-8875
▁castle	-8876
▁suffer	-8877
▁Airport	-8878
▁Ottoman	-8879
▁Studios	-8880
▁conserv	-8881
▁perhaps	-8882
▁platform	-8883
CmsProperty	-8884
driverManager	-8885
99	-8886
FL	-8887
PS	-8888
CLI	-8889
CLO	-8890
SIB	-8891
WRI	-8892
icks	-8893
▁1.0	-8894
enden	-8895
▁Bart	-8896
▁Look	-8897
▁knot	-8898
Receive	-8899
▁astron	-8900
▁belief	-8901
▁budget	-8902
▁poetry	-8903
▁safety	-8904
▁cleanup	-8905
compareTo	-8906
▁improved	-8907
▁missions	-8908
▁Cambridge	-8909
▁parliament	-8910
getComponent	-8911
SyntaxException	-8912
1_	-8913
44	-8914
nel	-8915
Leaf	-8916
REMO	-8917
agan	-8918
▁130	-8919
▁Gre	-8920
▁cls	-8921
▁{0}	-8922
ubble	-8923
usted	-8924
▁Asia	-8925
▁Gree	-8926
▁Iron	-8927
▁Liber	-8928
▁heard	-8929
▁layer	-8930
Started	-8931
getPort	-8932
▁Search	-8933
▁survey	-8934
▁express	-8935
▁finding	-8936
▁railway	-8937
getTarget	-8938
▁persistent	-8939
▁encountered	-8940
2_	-8941
::	-8942
tty	-8943
NING	-8944
▁Pot	-8945
▁SID	-8946
▁Drag	-8947
ilarly	-8948
▁turre	-8949
ilation	-8950
▁Matthe	-8951
▁Scully	-8952
▁CmsList	-8953
▁Governor	-8954
▁Writable	-8955
▁calculate	-8956
▁processed	-8957
ui	-8958
dep	-8959
iful	-8960
▁vac	-8961
EVENT	-8962
forms	-8963
▁1972	-8964
▁Norm	-8965
orters	-8966
▁learn	-8967
▁quant	-8968
Counter	-8969
▁awards	-8970
getCause	-8971
ographic	-8972
▁Carlsen	-8973
Requested	-8974
▁shooting	-8975
▁Institute	-8976
▁Repository	-8977
getCmsObject	-8978
▁appropriate	-8979
><	-8980
cp	-8981
tag	-8982
ulk	-8983
▁'\	-8984
▁IV	-8985
▁ix	-8986
XMLE	-8987
isms	-8988
▁Top	-8989
▁Nash	-8990
▁Read	-8991
▁arms	-8992
OBJECT	-8993
leanup	-8994
▁clone	-8995
▁males	-8996
Unknown	-8997
▁Valley	-8998
▁convin	-8999
▁preced	-9000
alleries	-9001
▁Instead	-9002
▁durable	-9003
getSource	-9004
separator	-9005
▁Independ	-9006
SIException	-9007
▁Privileged	-9008
▁attempting	-9009
▁basketball	-9010
FS	-9011
rad	-9012
▁57	-9013
eral	-9014
iana	-9015
ongo	-9016
aware	-9017
itled	-9018
▁1971	-9019
▁Item	-9020
channel	-9021
▁assign	-9022
▁buried	-9023
▁demand	-9024
▁indent	-9025
callback	-9026
▁Assembly	-9027
▁newValue	-9028
▁pipeline	-9029
▁shutdown	-9030
▁standing	-9031
Connections	-9032
▁opportunity	-9033
▁intersection	-9034
****************	-9035
},	-9036
SEC	-9037
omy	-9038
▁94	-9039
POST	-9040
vant	-9041
▁ray	-9042
Beans	-9043
▁1984	-9044
▁dump	-9045
▁leaf	-9046
▁peer	-9047
andard	-9048
Require	-9049
Seconds	-9050
▁Schema	-9051
▁twelve	-9052
rollback	-9053
▁defence	-9054
▁derived	-9055
▁sustained	-9056
></	-9057
SCH	-9058
ulu	-9059
zep	-9060
▁Oh	-9061
lder	-9062
pher	-9063
wick	-9064
▁Ell	-9065
▁Lee	-9066
Debug	-9067
flake	-9068
▁Gord	-9069
▁Path	-9070
▁cool	-9071
▁shut	-9072
▁tact	-9073
accept	-9074
losing	-9075
▁arrang	-9076
▁iditer	-9077
▁focused	-9078
▁showing	-9079
▁vehicles	-9080
application	-9081
▁technology	-9082
▁GitLabApiForm	-9083
Own	-9084
▁53	-9085
MANA	-9086
outs	-9087
oval	-9088
▁Die	-9089
▁Mur	-9090
▁jms	-9091
achel	-9092
antic	-9093
ients	-9094
▁Main	-9095
▁Journ	-9096
publish	-9097
rawable	-9098
▁Column	-9099
▁Tennes	-9100
▁rapidly	-9101
▁committee	-9102
ConsumerSession	-9103
Ra	-9104
cls	-9105
cts	-9106
▁ut	-9107
ENCE	-9108
leaf	-9109
▁eth	-9110
inner	-9111
arsing	-9112
bridge	-9113
ynasty	-9114
▁citiz	-9115
▁roads	-9116
▁Andrew	-9117
▁Butler	-9118
▁blocks	-9119
▁causes	-9120
▁satisf	-9121
ographer	-9122
▁filming	-9123
▁mounted	-9124
NameSpace	-9125
▁baseball	-9126
Guaranteed	-9127
▁literature	-9128
DING	-9129
itel	-9130
▁Let	-9131
▁Mat	-9132
▁Sud	-9133
apers	-9134
ights	-9135
▁Wall	-9136
bundle	-9137
▁steam	-9138
▁worth	-9139
▁Oldham	-9140
▁animal	-9141
▁Liberty	-9142
▁Imperial	-9143
expression	-9144
▁Tennessee	-9145
▁responded	-9146
▁strengthen	-9147
▁annotations	-9148
▁inputStream	-9149
via	-9150
▁["	-9151
getE	-9152
▁dan	-9153
matic	-9154
▁Ball	-9155
▁PICT	-9156
▁laws	-9157
▁rise	-9158
▁Broad	-9159
▁aware	-9160
Warning	-9161
owntown	-9162
▁Hebrew	-9163
messages	-9164
▁closure	-9165
▁females	-9166
▁generation	-9167
-1	-9168
ONG	-9169
awa	-9170
▁4;	-9171
Edge	-9172
INot	-9173
ners	-9174
volt	-9175
▁Cra	-9176
▁bid	-9177
▁itr	-9178
erman	-9179
Amount	-9180
oPoint	-9181
unicip	-9182
▁undert	-9183
Accessor	-9184
▁Special	-9185
Bootstrap	-9186
STINATION	-9187
Attachment	-9188
Visibility	-9189
getInteger	-9190
▁essential	-9191
▁producing	-9192
InfoEnabled	-9193
▁invocation	-9194
▁widespread	-9195
▁temperature	-9196
AGE	-9197
INK	-9198
imed	-9199
mann	-9200
▁Mid	-9201
▁dry	-9202
▁Pass	-9203
▁Tint	-9204
▁Vari	-9205
▁labor	-9206
▁nucle	-9207
Section	-9208
destroy	-9209
display	-9210
▁museum	-9211
▁speech	-9212
Capacity	-9213
▁Colonel	-9214
▁engaged	-9215
▁journey	-9216
▁restored	-9217
▁Statement	-9218
▁procedure	-9219
▁distribution	-9220
Fac	-9221
▁VI	-9222
ById	-9223
▁IGN	-9224
▁Jud	-9225
▁Naz	-9226
▁Sus	-9227
CONNE	-9228
▁1974	-9229
▁fuel	-9230
Cannot	-9231
Detail	-9232
STATIC	-9233
second	-9234
▁Write	-9235
Segment	-9236
Targets	-9237
intendo	-9238
▁Marine	-9239
▁Rachel	-9240
▁stages	-9241
▁pitched	-9242
▁someone	-9243
▁Reference	-9244
▁indicated	-9245
▁facilities	-9246
▁opposition	-9247
▁introduction	-9248
▁ParseException	-9249
EEK	-9250
REF	-9251
▁Ye	-9252
PARA	-9253
atio	-9254
heim	-9255
stat	-9256
▁160	-9257
Flush	-9258
pling	-9259
▁Swed	-9260
▁diam	-9261
▁semi	-9262
COMMIT	-9263
▁analy	-9264
▁drawn	-9265
Percent	-9266
▁ancest	-9267
▁danger	-9268
▁notable	-9269
▁younger	-9270
lications	-9271
▁explicit	-9272
▁Character	-9273
▁sufficient	-9274
▁possibility	-9275
CmsXmlContent	-9276
isInfoEnabled	-9277
NLS	-9278
▁Kim	-9279
▁MPX	-9280
atial	-9281
▁Hard	-9282
▁Stew	-9283
▁hero	-9284
Errors	-9285
WebApp	-9286
acelet	-9287
ensity	-9288
▁Prime	-9289
▁accur	-9290
▁flood	-9291
▁magic	-9292
poration	-9293
Relations	-9294
▁products	-9295
▁resident	-9296
▁providing	-9297
▁succeeded	-9298
▁resolution	-9299
▁battleships	-9300
CmsResourceType	-9301
21	-9302
lav	-9303
▁"<	-9304
▁67	-9305
zing	-9306
▁Jes	-9307
▁adj	-9308
▁mut	-9309
▁1946	-9310
▁Corn	-9311
▁Life	-9312
▁miss	-9313
▁phil	-9314
ACCESS	-9315
Arrays	-9316
▁dream	-9317
▁faith	-9318
▁hydro	-9319
▁trunc	-9320
builder	-9321
▁reduce	-9322
PRIORITY	-9323
▁fashion	-9324
▁Nintendo	-9325
▁successor	-9326
Unsupported	-9327
uthenticated	-9328
▁significantly	-9329
▁cp	-9330
▁xa	-9331
HAND	-9332
agle	-9333
getL	-9334
▁DNA	-9335
▁Vis	-9336
eless	-9337
▁1969	-9338
▁Carl	-9339
▁roof	-9340
▁Domit	-9341
Connect	-9342
▁Tintin	-9343
▁choose	-9344
▁intern	-9345
▁linked	-9346
▁repair	-9347
duration	-9348
▁Stevens	-9349
▁univers	-9350
▁Francisc	-9351
▁gameplay	-9352
▁sessions	-9353
Interfaces	-9354
getContent	-9355
▁unsuccess	-9356
▁importance	-9357
▁connections	-9358
zen	-9359
▁";	-9360
role	-9361
▁Bug	-9362
▁Tick	-9363
▁drew	-9364
▁jump	-9365
▁myst	-9366
▁tied	-9367
▁wave	-9368
▁digit	-9369
prepare	-9370
written	-9371
▁Filter	-9372
▁Portug	-9373
▁destru	-9374
▁Olivier	-9375
remaining	-9376
▁Unsupported	-9377
ua	-9378
▁ok	-9379
okes	-9380
▁von	-9381
TRACE	-9382
inton	-9383
▁1947	-9384
▁wrap	-9385
())));	-9386
reader	-9387
rivial	-9388
▁psych	-9389
options	-9390
▁Gordon	-9391
▁shaped	-9392
▁artifact	-9393
▁strategy	-9394
FFDCIgnore	-9395
▁centuries	-9396
▁reputation	-9397
getApplication	-9398
96	-9399
SF	-9400
509	-9401
push	-9402
uilt	-9403
▁slo	-9404
▁ven	-9405
FIXED	-9406
▁Fall	-9407
▁flat	-9408
▁none	-9409
fields	-9410
▁Every	-9411
▁Video	-9412
▁Indust	-9413
▁headed	-9414
igration	-9415
▁Shortly	-9416
▁learned	-9417
Condition	-9418
▁Database	-9419
▁survived	-9420
▁alternate	-9421
▁intention	-9422
▁Lieutenant	-9423
▁expedition	-9424
▁resourceName	-9425
42	-9426
BR	-9427
()&&	-9428
ernel	-9429
ieval	-9430
ipher	-9431
▁1967	-9432
▁Stan	-9433
▁gods	-9434
ecycle	-9435
imator	-9436
▁dated	-9437
Deliver	-9438
getDecl	-9439
▁Allied	-9440
encoding	-9441
▁ceremony	-9442
▁domestic	-9443
▁household	-9444
LogException	-9445
*/	-9446
Sw	-9447
lat	-9448
oli	-9449
▁RA	-9450
ALOG	-9451
LISH	-9452
abin	-9453
sync	-9454
▁Luc	-9455
▁Sup	-9456
▁mor	-9457
Score	-9458
▁1973	-9459
▁1979	-9460
▁Linc	-9461
▁stem	-9462
Consum	-9463
othing	-9464
▁comic	-9465
osition	-9466
▁behavi	-9467
▁deaths	-9468
▁temple	-9469
▁employed	-9470
▁exchange	-9471
▁existence	-9472
▁gradually	-9473
▁Throughout	-9474
▁statistics	-9475
▁accompanied	-9476
▁alternative	-9477
▁CmsDbContext	-9478
+"	-9479
HER	-9480
LOW	-9481
ali	-9482
orus	-9483
amily	-9484
plier	-9485
spect	-9486
▁1965	-9487
▁1981	-9488
▁Bern	-9489
▁Budd	-9490
▁cook	-9491
▁Steve	-9492
▁crime	-9493
▁Lincol	-9494
▁corner	-9495
Optional	-9496
setStart	-9497
▁CmsFile	-9498
▁Islands	-9499
Temporary	-9500
▁retValue	-9501
ChangeEvent	-9502
▁interested	-9503
sem	-9504
▁96	-9505
▁PC	-9506
Desc	-9507
SIMP	-9508
▁Gir	-9509
▁Jam	-9510
dates	-9511
osite	-9512
▁trip	-9513
IGNORE	-9514
▁Offic	-9515
▁hired	-9516
Configs	-9517
▁charts	-9518
▁instant	-9519
gregation	-9520
getBoolean	-9521
DroppedException	-9522
DEN	-9523
gar	-9524
oma	-9525
▁Li	-9526
Kind	-9527
mode	-9528
ying	-9529
▁Ari	-9530
▁arc	-9531
irror	-9532
label	-9533
login	-9534
proxy	-9535
▁Hell	-9536
▁Prem	-9537
▁elem	-9538
▁knots	-9539
▁Manila	-9540
AsString	-9541
MenuItem	-9542
▁digital	-9543
▁handled	-9544
getObject	-9545
▁admitted	-9546
▁consists	-9547
▁substant	-9548
▁surrender	-9549
▁convention	-9550
▁Additionally	-9551
34	-9552
Cor	-9553
▁ou	-9554
Decl	-9555
Fact	-9556
▁Bad	-9557
▁Down	-9558
export	-9559
▁Space	-9560
issance	-9561
▁retire	-9562
▁submar	-9563
Contents	-9564
Unsigned	-9565
▁partial	-9566
▁profile	-9567
▁resolver	-9568
▁supplies	-9569
TS	-9570
TON	-9571
aka	-9572
toP	-9573
▁ec	-9574
ador	-9575
▁Cer	-9576
emies	-9577
ockey	-9578
▁1975	-9579
▁Greg	-9580
▁acid	-9581
EEName	-9582
gments	-9583
▁Prior	-9584
▁decor	-9585
▁Mulder	-9586
▁Source	-9587
▁acknow	-9588
▁dissip	-9589
▁hidden	-9590
▁Between	-9591
getStatus	-9592
▁Runnable	-9593
Controllable	-9594
▁populations	-9595
NS	-9596
Sib	-9597
FIED	-9598
TEMP	-9599
eref	-9600
▁Jac	-9601
▁Jin	-9602
▁Run	-9603
▁1953	-9604
▁1976	-9605
▁Fish	-9606
▁edit	-9607
▁firm	-9608
▁spot	-9609
▁ways	-9610
▁atmos	-9611
▁saved	-9612
▁bought	-9613
▁posted	-9614
▁Wheeler	-9615
FC	-9616
hm	-9617
("-	-9618
▁vo	-9619
ONLY	-9620
RECT	-9621
ented	-9622
water	-9623
▁1948	-9624
▁Wolf	-9625
▁Mario	-9626
▁medal	-9627
pattern	-9628
▁Around	-9629
▁lowest	-9630
▁Stephen	-9631
▁wrapped	-9632
▁Calendar	-9633
Dependency	-9634
MPPUtility	-9635
▁regarding	-9636
▁difference	-9637
SocketFactory	-9638
CS	-9639
CUR	-9640
Jwt	-9641
mpxj	-9642
ucky	-9643
▁Dra	-9644
▁hyp	-9645
[0]);	-9646
oting	-9647
▁Rome	-9648
▁zone	-9649
Plugin	-9650
mbolic	-9651
▁About	-9652
▁strip	-9653
Network	-9654
VarData	-9655
▁enjoyed	-9656
▁Magazine	-9657
▁criticism	-9658
▁technical	-9659
▁ManagedObject	-9660
TLE	-9661
aud	-9662
tmp	-9663
▁ms	-9664
Disc	-9665
bits	-9666
cher	-9667
▁1956	-9668
▁Arts	-9669
▁util	-9670
Encode	-9671
▁Sound	-9672
TIMEOUT	-9673
▁Walter	-9674
▁disapp	-9675
possible	-9676
progress	-9677
▁islands	-9678
▁landfall	-9679
▁supposed	-9680
▁userName	-9681
readEntity	-9682
▁immediate	-9683
enterpriseBean	-9684
▁corresponding	-9685
▁93	-9686
▁LI	-9687
HINT	-9688
Proc	-9689
VIEW	-9690
ersh	-9691
ugos	-9692
topic	-9693
under	-9694
▁1917	-9695
▁tend	-9696
▁Match	-9697
▁Radio	-9698
▁holds	-9699
▁recur	-9700
▁LOGGER	-9701
▁Square	-9702
▁Window	-9703
▁metric	-9704
▁noting	-9705
▁offers	-9706
▁consequ	-9707
▁exclude	-9708
▁Olympics	-9709
▁solution	-9710
▁weakened	-9711
▁suspended	-9712
iteProgress	-9713
▁consisting	-9714
▁Philippines	-9715
Fe	-9716
iva	-9717
NOWN	-9718
▁Nav	-9719
Cycle	-9720
getIn	-9721
inson	-9722
Script	-9723
cludes	-9724
getNum	-9725
▁crash	-9726
▁lands	-9727
▁setup	-9728
▁CmsLog	-9729
▁Somers	-9730
▁estate	-9731
▁aspects	-9732
▁capable	-9733
▁volunte	-9734
▁delegate	-9735
DESTINATION	-9736
▁developing	-9737
▁expressions	-9738
aN	-9739
▁68	-9740
▁CO	-9741
ffdc	-9742
▁175	-9743
▁MAX	-9744
▁adm	-9745
▁lob	-9746
Accept	-9747
▁Chart	-9748
▁Homer	-9749
▁crowd	-9750
▁rated	-9751
▁ratio	-9752
▁urban	-9753
product	-9754
▁affect	-9755
▁eighth	-9756
▁CmsRole	-9757
▁Express	-9758
▁Lincoln	-9759
▁renamed	-9760
▁restart	-9761
▁religion	-9762
XMLElement	-9763
Put	-9764
phy	-9765
▁58	-9766
▁ba	-9767
Main	-9768
Need	-9769
VOKE	-9770
▁spl	-9771
Basic	-9772
▁1977	-9773
▁acres	-9774
▁threw	-9775
▁cancer	-9776
distance	-9777
▁disappe	-9778
▁Somerset	-9779
▁dispatch	-9780
DateFormat	-9781
▁increment	-9782
columnIndex	-9783
▁constitution	-9784
HA	-9785
UAL	-9786
UOW	-9787
aft	-9788
ala	-9789
▁ru	-9790
NONE	-9791
Verb	-9792
only	-9793
ourc	-9794
racy	-9795
▁Jsp	-9796
Realm	-9797
alias	-9798
organ	-9799
▁1919	-9800
▁Andy	-9801
▁Benz	-9802
▁mort	-9803
ByName	-9804
Points	-9805
decode	-9806
serial	-9807
▁armor	-9808
▁beans	-9809
▁troub	-9810
Primary	-9811
▁Bundle	-9812
▁Minnes	-9813
▁Temple	-9814
▁camera	-9815
▁vision	-9816
▁gallery	-9817
▁brothers	-9818
▁contents	-9819
▁credited	-9820
▁classified	-9821
▁distributed	-9822
cr	-9823
rt	-9824
KEN	-9825
NON	-9826
een	-9827
▁py	-9828
ixon	-9829
ummy	-9830
getDb	-9831
ivors	-9832
▁vote	-9833
▁begun	-9834
Logging	-9835
Present	-9836
getHost	-9837
getUuid	-9838
▁People	-9839
▁factor	-9840
▁integr	-9841
▁strugg	-9842
elements	-9843
ologists	-9844
▁threads	-9845
▁concrete	-9846
▁Minnesota	-9847
▁permanent	-9848
▁tableName	-9849
▁concurrent	-9850
▁popularity	-9851
▁SIIncorrect	-9852
▁getResource	-9853
attributeName	-9854
Fqn	-9855
ULE	-9856
eno	-9857
vas	-9858
▁ha	-9859
CHAN	-9860
ROLL	-9861
SELE	-9862
attr	-9863
oper	-9864
abeth	-9865
itche	-9866
serts	-9867
▁1));	-9868
▁1963	-9869
▁Sign	-9870
▁door	-9871
REPORT	-9872
leased	-9873
▁Phoen	-9874
INTERVAL	-9875
▁crossed	-9876
▁reserve	-9877
▁turning	-9878
getOffset	-9879
▁Mountain	-9880
▁deployed	-9881
▁painting	-9882
▁protocol	-9883
▁extremely	-9884
▁indicates	-9885
Definitions	-9886
getAnnotation	-9887
FG	-9888
war	-9889
High	-9890
fill	-9891
seud	-9892
▁(((	-9893
▁ham	-9894
WRITE	-9895
amber	-9896
▁Turk	-9897
▁craft	-9898
▁genre	-9899
▁links	-9900
▁towns	-9901
Expired	-9902
inality	-9903
mediate	-9904
osaurus	-9905
▁	-9906
e	-9907
t	-9908
a	-9909
n	-9910
i	-9911
r	-9912
o	-9913
s	-9914
l	-9915
d	-9916
c	-9917
h	-9918
u	-9919
m	-9920
p	-9921
g	-9922
f	-9923
.	-9924
)	-9925
(	-9926
b	-9927
y	-9928
w	-9929
,	-9930
v	-9931
S	-9932
;	-9933
T	-9934
C	-9935
E	-9936
I	-9937
"	-9938
A	-9939
k	-9940
=	-9941
x	-9942
R	-9943
/	-9944
M	-9945
N	-9946
D	-9947
{	-9948
}	-9949
L	-9950
P	-9951
O	-9952
0	-9953
1	-9954
@	-9955
_	-9956
F	-9957
-	-9958
B	-9959
H	-9960
j	-9961
U	-9962
2	-9963
'	-9964
W	-9965
G	-9966
V	-9967
q	-9968
+	-9969
9	-9970
&	-9971
z	-9972
J	-9973
<	-9974
>	-9975
:	-9976
5	-9977
3	-9978
4	-9979
8	-9980
K	-9981
[	-9982
]	-9983
6	-9984
!	-9985
7	-9986
Y	-9987
*	-9988
X	-9989
|	-9990
Q	-9991
\	-9992
?	-9993
–	-9994
Z	-9995
#	-9996
