<unk>	0
<s>	0
</s>	0
▁t	-0
in	-1
er	-2
on	-3
▁a	-4
he	-5
re	-6
at	-7
▁the	-8
en	-9
st	-10
ed	-11
or	-12
al	-13
an	-14
▁c	-15
et	-16
it	-17
es	-18
▁s	-19
▁,	-20
▁w	-21
ing	-22
ion	-23
is	-24
▁f	-25
ar	-26
▁p	-27
);	-28
▁o	-29
ro	-30
le	-31
▁b	-32
▁in	-33
▁.	-34
as	-35
nd	-36
▁n	-37
ce	-38
▁re	-39
▁m	-40
ur	-41
ic	-42
▁of	-43
▁{	-44
▁}	-45
▁=	-46
▁(	-47
ct	-48
▁d	-49
ent	-50
▁to	-51
am	-52
▁"	-53
▁and	-54
▁S	-55
ll	-56
▁i	-57
()	-58
▁h	-59
get	-60
▁th	-61
▁e	-62
ut	-63
▁T	-64
ad	-65
om	-66
tr	-67
▁l	-68
▁C	-69
id	-70
il	-71
▁if	-72
se	-73
ou	-74
▁/	-75
ra	-76
pt	-77
el	-78
ab	-79
▁A	-80
ation	-81
▁//	-82
▁1	-83
ot	-84
ue	-85
ch	-86
ew	-87
ig	-88
ag	-89
ol	-90
ate	-91
od	-92
im	-93
ver	-94
ist	-95
▁I	-96
▁@	-97
ect	-98
▁M	-99
▁for	-100
th	-101
▁st	-102
ame	-103
ess	-104
ter	-105
ve	-106
ex	-107
En	-108
▁be	-109
▁on	-110
ul	-111
▁was	-112
▁B	-113
ull	-114
ow	-115
ck	-116
ly	-117
tring	-118
Ex	-119
ption	-120
ub	-121
um	-122
▁g	-123
ir	-124
▁v	-125
();	-126
em	-127
pe	-128
▁'	-129
urn	-130
▁u	-131
▁The	-132
▁con	-133
▁is	-134
ith	-135
nt	-136
▁new	-137
ri	-138
ap	-139
ay	-140
▁as	-141
▁ret	-142
▁H	-143
ception	-144
▁F	-145
▁null	-146
▁D	-147
▁P	-148
-@	-149
▁@-@	-150
▁L	-151
▁return	-152
ers	-153
end	-154
and	-155
▁R	-156
ass	-157
▁wh	-158
our	-159
Con	-160
Exception	-161
▁that	-162
▁+	-163
▁2	-164
led	-165
ject	-166
▁pro	-167
▁with	-168
ms	-169
res	-170
▁it	-171
omp	-172
ain	-173
())	-174
▁by	-175
us	-176
lic	-177
per	-178
▁N	-179
▁de	-180
▁O	-181
▁W	-182
ere	-183
lo	-184
Name	-185
age	-186
ult	-187
art	-188
ile	-189
▁an	-190
ment	-191
row	-192
ib	-193
ore	-194
▁ex	-195
▁at	-196
ug	-197
rom	-198
▁0	-199
oc	-200
iz	-201
abled	-202
ort	-203
lass	-204
In	-205
▁J	-206
▁res	-207
if	-208
able	-209
▁G	-210
St	-211
Enabled	-212
ext	-213
alue	-214
--	-215
ity	-216
▁pub	-217
os	-218
un	-219
▁he	-220
▁tr	-221
ies	-222
ype	-223
▁)	-224
▁se	-225
("	-226
Tra	-227
qu	-228
ke	-229
▁String	-230
og	-231
▁public	-232
String	-233
op	-234
est	-235
int	-236
Re	-237
▁int	-238
▁19	-239
▁&	-240
ac	-241
ld	-242
ong	-243
ath	-244
act	-245
▁from	-246
▁al	-247
inal	-248
ff	-249
bject	-250
iv	-251
set	-252
up	-253
ource	-254
igh	-255
all	-256
▁r	-257
out	-258
▁this	-259
▁!	-260
rit	-261
ant	-262
",	-263
ill	-264
▁&&	-265
ast	-266
▁In	-267
Res	-268
oo	-269
▁or	-270
ber	-271
▁get	-272
ure	-273
ime	-274
▁his	-275
▁ch	-276
");	-277
▁==	-278
().	-279
ack	-280
▁not	-281
▁E	-282
Pro	-283
▁throw	-284
ial	-285
ive	-286
ase	-287
ata	-288
ated	-289
ode	-290
que	-291
pl	-292
ance	-293
con	-294
ans	-295
ip	-296
ge	-297
▁sh	-298
ine	-299
ard	-300
00	-301
▁:	-302
▁!=	-303
atch	-304
eb	-305
ud	-306
▁U	-307
ust	-308
ich	-309
ire	-310
try	-311
Type	-312
Id	-313
ition	-314
cess	-315
are	-316
av	-317
orm	-318
▁were	-319
ord	-320
▁el	-321
ction	-322
▁we	-323
ost	-324
ry	-325
ind	-326
ak	-327
Comp	-328
▁are	-329
Cont	-330
eth	-331
▁else	-332
▁pl	-333
ER	-334
iel	-335
List	-336
cl	-337
ace	-338
))	-339
tc	-340
▁final	-341
essage	-342
port	-343
ory	-344
onent	-345
▁tc	-346
quest	-347
());	-348
ight	-349
ield	-350
▁j	-351
▁cont	-352
An	-353
sion	-354
oid	-355
IN	-356
ide	-357
ild	-358
app	-359
Entry	-360
put	-361
▁ad	-362
ser	-363
ave	-364
ize	-365
eng	-366
vi	-367
ary	-368
Value	-369
▁k	-370
ign	-371
▁St	-372
▁which	-373
▁K	-374
ethod	-375
▁had	-376
lean	-377
ear	-378
irst	-379
▁void	-380
ork	-381
▁y	-382
Trace	-383
ould	-384
cing	-385
▁V	-386
Component	-387
▁le	-388
Tr	-389
vent	-390
▁comp	-391
▁result	-392
));	-393
omm	-394
pert	-395
▁Cms	-396
pp	-397
add	-398
----	-399
fig	-400
oolean	-401
ish	-402
▁ar	-403
ON	-404
▁3	-405
uff	-406
che	-407
ebug	-408
ail	-409
Class	-410
▁Th	-411
[]	-412
ther	-413
ble	-414
te	-415
ator	-416
Cms	-417
ound	-418
Tracing	-419
ical	-420
ence	-421
ia	-422
ef	-423
und	-424
Any	-425
ream	-426
TracingEnabled	-427
urre	-428
▁ro	-429
ey	-430
isAny	-431
▁but	-432
▁un	-433
ength	-434
ount	-435
▁first	-436
AT	-437
ove	-438
ec	-439
ener	-440
ome	-441
ous	-442
aram	-443
read	-444
fter	-445
▁Tr	-446
let	-447
▁-	-448
Resource	-449
vel	-450
ocal	-451
riv	-452
▁all	-453
To	-454
▁has	-455
ger	-456
▁have	-457
ru	-458
▁Ch	-459
append	-460
(),	-461
own	-462
TraceComponent	-463
so	-464
ID	-465
▁set	-466
▁stat	-467
ian	-468
fo	-469
Data	-470
ror	-471
Object	-472
ree	-473
li	-474
ache	-475
▁<	-476
▁up	-477
▁out	-478
pro	-479
ray	-480
anag	-481
fer	-482
lement	-483
reate	-484
als	-485
▁pre	-486
▁*	-487
ection	-488
▁ser	-489
over	-490
Message	-491
▁200	-492
du	-493
ep	-494
▁su	-495
▁one	-496
pr	-497
▁try	-498
form	-499
enc	-500
RE	-501
Context	-502
sed	-503
uffer	-504
key	-505
ations	-506
old	-507
▁sc	-508
▁4	-509
ater	-510
ite	-511
▁;	-512
hen	-513
alse	-514
▁their	-515
▁per	-516
urrent	-517
isEntry	-518
wo	-519
isEntryEnabled	-520
ock	-521
▁ac	-522
▁dis	-523
▁its	-524
ron	-525
to	-526
▁ne	-527
▁catch	-528
oll	-529
tem	-530
▁rec	-531
ouble	-532
ix	-533
▁He	-534
Path	-535
tern	-536
▁Object	-537
pon	-538
▁throws	-539
ader	-540
ach	-541
▁also	-542
oint	-543
ph	-544
ings	-545
entry	-546
oth	-547
File	-548
▁boolean	-549
cri	-550
ang	-551
▁been	-552
this	-553
ie	-554
ann	-555
clud	-556
▁20	-557
▁part	-558
▁add	-559
ute	-560
▁her	-561
▁ab	-562
▁im	-563
stance	-564
ugh	-565
Map	-566
▁5	-567
til	-568
▁Sib	-569
ST	-570
ask	-571
uild	-572
ax	-573
ual	-574
▁rem	-575
ress	-576
▁who	-577
▁SibTr	-578
ved	-579
Info	-580
ages	-581
roup	-582
▁bec	-583
).	-584
▁time	-585
Set	-586
ark	-587
val	-588
▁18	-589
▁over	-590
ink	-591
▁false	-592
ied	-593
lect	-594
Config	-595
oug	-596
▁6	-597
ens	-598
▁ag	-599
Util	-600
▁des	-601
▁value	-602
Ar	-603
umber	-604
▁off	-605
ized	-606
yn	-607
ession	-608
sh	-609
mer	-610
Ch	-611
amp	-612
yst	-613
Request	-614
▁two	-615
uring	-616
nection	-617
ME	-618
ler	-619
▁case	-620
▁Ar	-621
▁static	-622
pec	-623
.@	-624
▁@.@	-625
Propert	-626
▁–	-627
rivate	-628
▁comm	-629
Stream	-630
ough	-631
ames	-632
▁while	-633
▁true	-634
Ser	-635
length	-636
▁after	-637
▁|	-638
▁tra	-639
new	-640
▁It	-641
▁private	-642
ange	-643
▁def	-644
OR	-645
ystem	-646
AL	-647
▁other	-648
ces	-649
ss	-650
les	-651
use	-652
ric	-653
▁year	-654
ean	-655
▁writ	-656
ination	-657
▁ind	-658
ilter	-659
▁they	-660
equ	-661
Key	-662
▁end	-663
erm	-664
▁>	-665
▁cl	-666
oun	-667
Manag	-668
ely	-669
we	-670
▁long	-671
ash	-672
ade	-673
heck	-674
land	-675
ake	-676
,@	-677
▁@,@	-678
one	-679
▁te	-680
AR	-681
▁sub	-682
▁includ	-683
▁play	-684
▁no	-685
Time	-686
LE	-687
),	-688
▁class	-689
By	-690
▁so	-691
pres	-692
ook	-693
▁into	-694
class	-695
SE	-696
ced	-697
ument	-698
vice	-699
olum	-700
▁do	-701
ected	-702
debug	-703
action	-704
ponse	-705
any	-706
ern	-707
▁Un	-708
ault	-709
Over	-710
tain	-711
ased	-712
▁Con	-713
▁only	-714
ick	-715
ates	-716
isD	-717
Hand	-718
Un	-719
SI	-720
State	-721
ery	-722
▁would	-723
essages	-724
▁method	-725
▁sp	-726
trib	-727
▁Y	-728
Of	-729
▁work	-730
▁0;	-731
ool	-732
son	-733
att	-734
▁201	-735
ft	-736
rough	-737
ndex	-738
ward	-739
hed	-740
▁inter	-741
--------	-742
▁more	-743
▁bre	-744
Field	-745
Log	-746
cond	-747
▁start	-748
Item	-749
▁when	-750
▁_	-751
▁log	-752
▁On	-753
uration	-754
▁app	-755
▁pos	-756
arget	-757
Manager	-758
▁fe	-759
oot	-760
ride	-761
▁can	-762
value	-763
▁List	-764
At	-765
der	-766
iver	-767
ited	-768
ccess	-769
▁name	-770
▁id	-771
irect	-772
▁ra	-773
exit	-774
ific	-775
▁(!	-776
▁him	-777
equals	-778
Param	-779
nder	-780
▁||	-781
ants	-782
▁trans	-783
olumn	-784
ok	-785
Index	-786
ues	-787
red	-788
isDebug	-789
ason	-790
ob	-791
Override	-792
▁8	-793
▁list	-794
ors	-795
ause	-796
▁char	-797
aw	-798
▁7	-799
isDebugEnabled	-800
Method	-801
lection	-802
▁Se	-803
▁bet	-804
lock	-805
TI	-806
pen	-807
error	-808
arent	-809
▁ver	-810
way	-811
tt	-812
▁cons	-813
iew	-814
++	-815
OG	-816
ice	-817
outh	-818
▁break	-819
▁she	-820
arch	-821
eter	-822
ton	-823
CE	-824
▁((	-825
not	-826
▁act	-827
▁spec	-828
ature	-829
SS	-830
Buffer	-831
▁them	-832
round	-833
▁reg	-834
▁than	-835
▁form	-836
Local	-837
UR	-838
ren	-839
▁exp	-840
Def	-841
ml	-842
ari	-843
arn	-844
ell	-845
ten	-846
▁prot	-847
cc	-848
TE	-849
▁9	-850
▁This	-851
pty	-852
▁en	-853
▁there	-854
▁fil	-855
▁double	-856
▁then	-857
▁?	-858
yp	-859
gan	-860
ision	-861
fore	-862
Im	-863
▁game	-864
▁during	-865
nte	-866
its	-867
▁cent	-868
Event	-869
▁qu	-870
▁kn	-871
ocation	-872
▁cal	-873
ider	-874
▁fl	-875
size	-876
ken	-877
On	-878
iter	-879
▁again	-880
▁instance	-881
of	-882
ween	-883
▁check	-884
actory	-885
rror	-886
▁0)	-887
Ad	-888
ollow	-889
ational	-890
▁type	-891
leg	-892
ict	-893
Handler	-894
ring	-895
rem	-896
▁x	-897
getS	-898
sp	-899
▁Al	-900
Const	-901
▁found	-902
▁through	-903
▁most	-904
orth	-905
ise	-906
DE	-907
▁read	-908
▁col	-909
ps	-910
Property	-911
▁An	-912
▁create	-913
ven	-914
▁will	-915
ired	-916
ating	-917
wn	-918
▁request	-919
name	-920
pos	-921
▁produ	-922
▁ass	-923
▁rel	-924
▁me	-925
RO	-926
ics	-927
Or	-928
▁ent	-929
▁about	-930
ier	-931
date	-932
nteger	-933
apt	-934
▁later	-935
back	-936
▁between	-937
▁com	-938
sg	-939
upport	-940
Node	-941
▁En	-942
mpty	-943
pression	-944
▁ap	-945
getName	-946
▁record	-947
▁data	-948
Size	-949
▁key	-950
▁0,	-951
NA	-952
▁under	-953
Connection	-954
▁song	-955
ek	-956
▁dest	-957
ternal	-958
▁used	-959
▁day	-960
▁any	-961
▁New	-962
▁contin	-963
ible	-964
▁before	-965
ished	-966
ule	-967
▁mod	-968
▁three	-969
Mod	-970
lose	-971
▁file	-972
▁Pro	-973
air	-974
▁state	-975
ank	-976
▁where	-977
▁current	-978
▁min	-979
▁us	-980
▁second	-981
▁resource	-982
itt	-983
▁go	-984
ars	-985
rap	-986
print	-987
uilder	-988
ale	-989
arly	-990
ose	-991
▁Re	-992
▁use	-993
orn	-994
umer	-995
▁00	-996
tes	-997
Th	-998
ared	-999
elet	-1000
ative	-1001
▁rele	-1002
▁att	-1003
uth	-1004
Element	-1005
lient	-1006
cre	-1007
Filter	-1008
Le	-1009
▁number	-1010
ember	-1011
▁some	-1012
▁pe	-1013
▁199	-1014
log	-1015
ral	-1016
For	-1017
▁val	-1018
Error	-1019
io	-1020
Not	-1021
rite	-1022
▁local	-1023
meric	-1024
▁10	-1025
ution	-1026
▁need	-1027
TY	-1028
orld	-1029
▁Americ	-1030
getD	-1031
ower	-1032
ever	-1033
EN	-1034
mp	-1035
ys	-1036
Val	-1037
ally	-1038
ynch	-1039
▁message	-1040
▁event	-1041
▁follow	-1042
▁pr	-1043
▁high	-1044
Stat	-1045
ox	-1046
▁season	-1047
cept	-1048
Result	-1049
Array	-1050
▁Field	-1051
▁As	-1052
▁made	-1053
by	-1054
ility	-1055
▁bu	-1056
▁hand	-1057
ince	-1058
other	-1059
ission	-1060
ram	-1061
▁back	-1062
toString	-1063
▁cre	-1064
Messages	-1065
ma	-1066
▁run	-1067
par	-1068
ified	-1069
Sub	-1070
▁mon	-1071
▁lar	-1072
▁group	-1073
Factory	-1074
\"	-1075
Cache	-1076
Count	-1077
estination	-1078
ived	-1079
Out	-1080
▁such	-1081
▁ep	-1082
oin	-1083
OException	-1084
ypes	-1085
▁dec	-1086
ote	-1087
▁am	-1088
Table	-1089
putStream	-1090
ines	-1091
▁being	-1092
▁pres	-1093
All	-1094
He	-1095
ttp	-1096
lish	-1097
▁instanceof	-1098
Form	-1099
ures	-1100
▁next	-1101
▁000	-1102
Inter	-1103
iss	-1104
Bean	-1105
stru	-1106
CO	-1107
▁Jo	-1108
bum	-1109
▁four	-1110
▁met	-1111
];	-1112
▁last	-1113
▁Class	-1114
▁call	-1115
ents	-1116
itial	-1117
sel	-1118
▁Col	-1119
▁may	-1120
tribute	-1121
▁At	-1122
▁show	-1123
aid	-1124
▁par	-1125
▁orig	-1126
ists	-1127
fl	-1128
Trans	-1129
ference	-1130
az	-1131
ert	-1132
valid	-1133
ister	-1134
++)	-1135
▁Array	-1136
min	-1137
▁li	-1138
mber	-1139
Service	-1140
QL	-1141
ava	-1142
▁protected	-1143
man	-1144
▁Sh	-1145
▁gener	-1146
Constants	-1147
▁film	-1148
create	-1149
view	-1150
▁pass	-1151
owever	-1152
▁charact	-1153
▁main	-1154
▁years	-1155
▁acc	-1156
com	-1157
▁sing	-1158
Qu	-1159
▁If	-1160
▁param	-1161
ynchron	-1162
User	-1163
Empty	-1164
contain	-1165
has	-1166
LA	-1167
gin	-1168
ily	-1169
reat	-1170
▁Le	-1171
▁12	-1172
Task	-1173
next	-1174
▁path	-1175
ury	-1176
▁SI	-1177
▁dist	-1178
▁object	-1179
▁could	-1180
ities	-1181
▁prov	-1182
Response	-1183
current	-1184
▁appe	-1185
ient	-1186
aj	-1187
cle	-1188
▁System	-1189
oy	-1190
Met	-1191
▁dif	-1192
ather	-1193
▁should	-1194
DC	-1195
▁direct	-1196
▁epis	-1197
uch	-1198
▁field	-1199
▁album	-1200
▁descri	-1201
Builder	-1202
▁17	-1203
▁against	-1204
▁both	-1205
▁perform	-1206
AN	-1207
Session	-1208
place	-1209
AC	-1210
rop	-1211
▁str	-1212
ources	-1213
▁exception	-1214
▁ob	-1215
▁point	-1216
▁De	-1217
Level	-1218
olog	-1219
▁Z	-1220
ised	-1221
▁sever	-1222
FI	-1223
▁well	-1224
Col	-1225
ond	-1226
▁mo	-1227
▁co	-1228
▁did	-1229
ane	-1230
▁sm	-1231
▁inst	-1232
▁inv	-1233
process	-1234
▁process	-1235
DAT	-1236
▁propert	-1237
FDC	-1238
▁X	-1239
Impl	-1240
▁mus	-1241
start	-1242
DB	-1243
sub	-1244
▁old	-1245
ular	-1246
▁entry	-1247
▁Brit	-1248
Project	-1249
<?	-1250
Start	-1251
ts	-1252
emp	-1253
▁16	-1254
▁team	-1255
▁rece	-1256
Code	-1257
Instance	-1258
▁same	-1259
lleg	-1260
▁sur	-1261
load	-1262
▁remain	-1263
pace	-1264
▁called	-1265
▁because	-1266
▁became	-1267
ING	-1268
mb	-1269
▁index	-1270
llegal	-1271
face	-1272
Arg	-1273
▁pol	-1274
▁series	-1275
Date	-1276
ments	-1277
ntil	-1278
▁config	-1279
ended	-1280
MP	-1281
▁ext	-1282
velop	-1283
ually	-1284
▁element	-1285
rid	-1286
▁sign	-1287
Properties	-1288
▁including	-1289
Add	-1290
▁No	-1291
▁After	-1292
utes	-1293
line	-1294
▁known	-1295
notation	-1296
Null	-1297
▁complet	-1298
**	-1299
ood	-1300
ued	-1301
final	-1302
RI	-1303
undle	-1304
pi	-1305
ife	-1306
my	-1307
rol	-1308
▁15	-1309
";	-1310
Group	-1311
▁ref	-1312
enn	-1313
rapper	-1314
NAME	-1315
unt	-1316
▁pop	-1317
----------------	-1318
From	-1319
null	-1320
index	-1321
cover	-1322
remove	-1323
▁support	-1324
Store	-1325
older	-1326
▁user	-1327
Lock	-1328
roll	-1329
ird	-1330
Root	-1331
Expression	-1332
▁byte	-1333
▁United	-1334
▁many	-1335
▁Ad	-1336
▁context	-1337
▁Wh	-1338
Work	-1339
oad	-1340
▁194	-1341
▁open	-1342
riter	-1343
Se	-1344
ailed	-1345
getC	-1346
imes	-1347
Utils	-1348
▁We	-1349
vlet	-1350
▁child	-1351
write	-1352
olt	-1353
ln	-1354
endar	-1355
▁oper	-1356
▁mill	-1357
Location	-1358
▁original	-1359
▁until	-1360
urity	-1361
▁198	-1362
ined	-1363
path	-1364
▁build	-1365
file	-1366
ainer	-1367
ful	-1368
▁She	-1369
sert	-1370
ober	-1371
bc	-1372
▁now	-1373
App	-1374
though	-1375
▁11	-1376
▁Joh	-1377
iles	-1378
▁est	-1379
▁});	-1380
▁dep	-1381
▁ship	-1382
yle	-1383
▁find	-1384
>();	-1385
vious	-1386
raph	-1387
▁occ	-1388
ocument	-1389
getP	-1390
▁ed	-1391
overn	-1392
▁order	-1393
Listener	-1394
▁synchron	-1395
ED	-1396
ident	-1397
be	-1398
ran	-1399
▁sim	-1400
▁File	-1401
▁down	-1402
▁bel	-1403
elete	-1404
ody	-1405
ched	-1406
gn	-1407
oci	-1408
▁episode	-1409
▁Sc	-1410
▁match	-1411
▁several	-1412
TER	-1413
bers	-1414
ibm	-1415
aces	-1416
println	-1417
▁target	-1418
▁develop	-1419
Link	-1420
ored	-1421
ning	-1422
▁Res	-1423
ions	-1424
cont	-1425
PRO	-1426
inition	-1427
▁LOG	-1428
▁allow	-1429
▁project	-1430
▁default	-1431
▁pers	-1432
▁just	-1433
▁American	-1434
▁FFDC	-1435
▁each	-1436
▁sl	-1437
▁Aust	-1438
Sc	-1439
▁these	-1440
ged	-1441
▁By	-1442
CON	-1443
▁air	-1444
▁car	-1445
1.	-1446
▁report	-1447
ons	-1448
ided	-1449
▁Eng	-1450
▁row	-1451
▁stud	-1452
▁Integer	-1453
▁IOException	-1454
With	-1455
▁[	-1456
▁Ind	-1457
ves	-1458
ross	-1459
1,	-1460
▁ArrayList	-1461
ql	-1462
▁own	-1463
NO	-1464
cription	-1465
▁Map	-1466
▁head	-1467
▁bro	-1468
▁det	-1469
reg	-1470
Int	-1471
▁bl	-1472
▁success	-1473
▁parent	-1474
▁task	-1475
▁line	-1476
river	-1477
▁design	-1478
((	-1479
ization	-1480
▁eff	-1481
▁For	-1482
terator	-1483
▁John	-1484
ches	-1485
annel	-1486
ins	-1487
comp	-1488
ting	-1489
▁May	-1490
md	-1491
▁arg	-1492
Number	-1493
Names	-1494
▁max	-1495
▁began	-1496
LI	-1497
ush	-1498
play	-1499
▁top	-1500
ached	-1501
ws	-1502
une	-1503
PE	-1504
▁said	-1505
▁197	-1506
ets	-1507
▁since	-1508
▁synchronized	-1509
bed	-1510
Call	-1511
Dis	-1512
▁early	-1513
▁enc	-1514
ouse	-1515
ople	-1516
IT	-1517
Configuration	-1518
▁near	-1519
ERR	-1520
lished	-1521
//	-1522
▁size	-1523
▁art	-1524
View	-1525
stra	-1526
▁vis	-1527
type	-1528
atter	-1529
unction	-1530
itor	-1531
▁hist	-1532
▁south	-1533
▁coun	-1534
used	-1535
Next	-1536
▁version	-1537
▁196	-1538
amed	-1539
ends	-1540
opy	-1541
▁view	-1542
chool	-1543
urs	-1544
▁table	-1545
▁Ser	-1546
ah	-1547
data	-1548
Column	-1549
Access	-1550
▁gr	-1551
▁war	-1552
(0	-1553
▁lead	-1554
▁ph	-1555
INE	-1556
▁write	-1557
uid	-1558
▁along	-1559
valueOf	-1560
ATI	-1561
oader	-1562
▁ever	-1563
self	-1564
chema	-1565
▁crit	-1566
ivers	-1567
▁tri	-1568
aking	-1569
▁British	-1570
Wid	-1571
ailable	-1572
▁character	-1573
sc	-1574
▁Cl	-1575
ready	-1576
her	-1577
▁*/	-1578
▁Sp	-1579
▁like	-1580
Text	-1581
isEmpty	-1582
med	-1583
atab	-1584
UT	-1585
▁mem	-1586
Bytes	-1587
loc	-1588
ole	-1589
ner	-1590
UE	-1591
▁Car	-1592
▁released	-1593
ique	-1594
ajor	-1595
▁city	-1596
LOG	-1597
ism	-1598
itch	-1599
inc	-1600
▁Illegal	-1601
ope	-1602
▁offic	-1603
▁fin	-1604
Hel	-1605
▁13	-1606
▁super	-1607
▁Is	-1608
▁av	-1609
ley	-1610
UN	-1611
▁War	-1612
▁make	-1613
▁left	-1614
ically	-1615
▁error	-1616
gest	-1617
▁man	-1618
"))	-1619
ship	-1620
()));	-1621
▁though	-1622
▁small	-1623
ateg	-1624
ref	-1625
Content	-1626
▁del	-1627
GE	-1628
hip	-1629
▁land	-1630
ium	-1631
point	-1632
▁connection	-1633
▁Mar	-1634
▁requ	-1635
Up	-1636
▁vari	-1637
▁ca	-1638
▁Comp	-1639
▁following	-1640
rior	-1641
ilt	-1642
itle	-1643
▁msg	-1644
vert	-1645
▁+=	-1646
Argument	-1647
<?>	-1648
Client	-1649
▁response	-1650
▁govern	-1651
▁around	-1652
▁Jul	-1653
▁Comm	-1654
Ref	-1655
▁fam	-1656
Msg	-1657
ped	-1658
ious	-1659
aim	-1660
▁Sept	-1661
▁century	-1662
▁music	-1663
request	-1664
Des	-1665
35	-1666
AD	-1667
Rem	-1668
Byte	-1669
TION	-1670
alendar	-1671
▁received	-1672
DATA	-1673
▁system	-1674
vers	-1675
Meta	-1676
▁All	-1677
▁sk	-1678
▁Austral	-1679
▁September	-1680
imit	-1681
▁item	-1682
▁previous	-1683
cript	-1684
▁initial	-1685
tempt	-1686
lication	-1687
As	-1688
▁people	-1689
ersion	-1690
ait	-1691
▁poss	-1692
ured	-1693
itions	-1694
ats	-1695
aving	-1696
▁million	-1697
aced	-1698
Definition	-1699
▁14	-1700
▁US	-1701
▁/*	-1702
▁]	-1703
Target	-1704
▁sw	-1705
▁195	-1706
▁Aug	-1707
▁single	-1708
ify	-1709
▁South	-1710
atabase	-1711
▁km	-1712
▁World	-1713
getB	-1714
ple	-1715
attern	-1716
▁short	-1717
▁August	-1718
ina	-1719
▁ur	-1720
▁win	-1721
sumer	-1722
And	-1723
.");	-1724
oke	-1725
▁They	-1726
▁rest	-1727
UL	-1728
LO	-1729
▁buffer	-1730
▁..	-1731
▁Set	-1732
Default	-1733
▁ann	-1734
ately	-1735
Query	-1736
")	-1737
▁six	-1738
urch	-1739
▁manag	-1740
MA	-1741
xy	-1742
▁north	-1743
▁However	-1744
▁Pl	-1745
oss	-1746
▁area	-1747
▁sb	-1748
Attribute	-1749
Container	-1750
▁100	-1751
Transaction	-1752
▁conf	-1753
▁attack	-1754
tract	-1755
▁Ex	-1756
ik	-1757
▁length	-1758
▁mark	-1759
side	-1760
TR	-1761
af	-1762
▁session	-1763
loy	-1764
▁close	-1765
Loader	-1766
▁right	-1767
▁lock	-1768
ffset	-1769
▁prog	-1770
string	-1771
▁finally	-1772
▁week	-1773
raft	-1774
▁giv	-1775
ording	-1776
iod	-1777
▁continue	-1778
▁191	-1779
ters	-1780
▁took	-1781
Destination	-1782
▁consider	-1783
ov	-1784
Wrapper	-1785
ense	-1786
▁po	-1787
▁must	-1788
▁States	-1789
Read	-1790
▁does	-1791
▁large	-1792
wards	-1793
VAL	-1794
▁Germ	-1795
▁home	-1796
Length	-1797
ont	-1798
▁partic	-1799
End	-1800
▁...	-1801
▁what	-1802
▁destination	-1803
Types	-1804
▁count	-1805
▁another	-1806
▁contain	-1807
▁Can	-1808
▁batt	-1809
cent	-1810
▁-1	-1811
▁incre	-1812
ling	-1813
rist	-1814
▁Bl	-1815
rag	-1816
[0	-1817
Parameter	-1818
FA	-1819
▁five	-1820
getValue	-1821
abel	-1822
Que	-1823
ales	-1824
▁Hash	-1825
▁filter	-1826
▁already	-1827
▁North	-1828
check	-1829
Helper	-1830
Unit	-1831
Token	-1832
Row	-1833
ialog	-1834
▁port	-1835
lected	-1836
Version	-1837
list	-1838
▁command	-1839
DI	-1840
Option	-1841
Status	-1842
resource	-1843
▁due	-1844
ector	-1845
uster	-1846
▁map	-1847
untime	-1848
JB	-1849
Rel	-1850
raw	-1851
▁hel	-1852
▁real	-1853
ris	-1854
CT	-1855
ences	-1856
▁Oct	-1857
work	-1858
▁differ	-1859
▁update	-1860
ification	-1861
Integer	-1862
MS	-1863
oding	-1864
uthor	-1865
ignment	-1866
▁place	-1867
▁attempt	-1868
field	-1869
ories	-1870
▁Boolean	-1871
▁June	-1872
▁25	-1873
▁track	-1874
▁cor	-1875
for	-1876
▁source	-1877
EX	-1878
Annotation	-1879
ively	-1880
Child	-1881
▁Par	-1882
▁major	-1883
▁won	-1884
▁best	-1885
▁med	-1886
upp	-1887
ATION	-1888
Action	-1889
ural	-1890
atal	-1891
▁still	-1892
▁Jan	-1893
Point	-1894
▁October	-1895
true	-1896
ync	-1897
▁based	-1898
▁constru	-1899
CH	-1900
▁30	-1901
ball	-1902
oard	-1903
Thread	-1904
▁ev	-1905
▁exist	-1906
ivision	-1907
▁193	-1908
▁east	-1909
▁cache	-1910
contains	-1911
iam	-1912
lector	-1913
▁transaction	-1914
▁level	-1915
Part	-1916
▁z	-1917
▁tot	-1918
▁Ph	-1919
ency	-1920
▁Mc	-1921
ls	-1922
▁Ab	-1923
▁July	-1924
▁month	-1925
ret	-1926
▁Be	-1927
indow	-1928
▁CmsResource	-1929
ott	-1930
ours	-1931
▁deb	-1932
▁role	-1933
ently	-1934
▁iter	-1935
▁stream	-1936
Page	-1937
odes	-1938
jection	-1939
SQL	-1940
▁non	-1941
Source	-1942
▁>=	-1943
55	-1944
ances	-1945
anged	-1946
TYPE	-1947
gr	-1948
▁remove	-1949
tity	-1950
ability	-1951
▁iv	-1952
▁When	-1953
▁action	-1954
ential	-1955
▁way	-1956
ians	-1957
URL	-1958
idd	-1959
uary	-1960
tml	-1961
Str	-1962
getM	-1963
gnore	-1964
tings	-1965
ape	-1966
▁mar	-1967
▁book	-1968
Process	-1969
▁column	-1970
()))	-1971
ML	-1972
cord	-1973
▁Nove	-1974
▁much	-1975
atcher	-1976
inding	-1977
roy	-1978
uro	-1979
ior	-1980
ness	-1981
▁iss	-1982
TH	-1983
▁November	-1984
Sh	-1985
ement	-1986
▁world	-1987
▁power	-1988
ATE	-1989
▁service	-1990
▁west	-1991
format	-1992
BU	-1993
eters	-1994
project	-1995
▁During	-1996
▁There	-1997
▁look	-1998
▁included	-1999
▁exec	-2000
vider	-2001
▁using	-2002
▁link	-2003
▁within	-2004
ee	-2005
ideo	-2006
▁camp	-2007
▁logger	-2008
▁played	-2009
pril	-2010
▁April	-2011
cture	-2012
▁even	-2013
▁York	-2014
_0	-2015
RA	-2016
ging	-2017
cer	-2018
utton	-2019
unk	-2020
▁appro	-2021
getMessage	-2022
itional	-2023
Format	-2024
▁named	-2025
AS	-2026
▁post	-2027
Act	-2028
Reg	-2029
ital	-2030
▁num	-2031
elt	-2032
earch	-2033
▁eng	-2034
▁Pr	-2035
▁total	-2036
▁position	-2037
clear	-2038
apan	-2039
word	-2040
▁West	-2041
ead	-2042
▁II	-2043
ives	-2044
▁Man	-2045
uture	-2046
▁valid	-2047
▁school	-2048
▁es	-2049
lex	-2050
uck	-2051
▁present	-2052
rote	-2053
▁described	-2054
VER	-2055
▁Japan	-2056
▁March	-2057
▁care	-2058
▁built	-2059
ilit	-2060
Header	-2061
▁gu	-2062
ending	-2063
lev	-2064
pted	-2065
Http	-2066
▁turn	-2067
▁imp	-2068
ERROR	-2069
▁life	-2070
▁appear	-2071
KE	-2072
ites	-2073
▁January	-2074
scription	-2075
..	-2076
avy	-2077
▁full	-2078
urther	-2079
cy	-2080
▁disc	-2081
▁band	-2082
▁content	-2083
Api	-2084
▁adv	-2085
processException	-2086
▁host	-2087
cms	-2088
▁code	-2089
▁wrote	-2090
▁bean	-2091
pect	-2092
ague	-2093
oman	-2094
Servlet	-2095
].	-2096
▁late	-2097
▁review	-2098
tributes	-2099
Module	-2100
PER	-2101
Pos	-2102
▁put	-2103
##	-2104
▁Ed	-2105
OD	-2106
Long	-2107
ides	-2108
▁cap	-2109
uted	-2110
▁Ge	-2111
UID	-2112
▁base	-2113
▁State	-2114
ving	-2115
ridge	-2116
▁person	-2117
Calendar	-2118
10	-2119
VAR	-2120
▁spe	-2121
Valid	-2122
ifier	-2123
Pl	-2124
ample	-2125
SION	-2126
▁pra	-2127
item	-2128
rown	-2129
ClassName	-2130
▁third	-2131
▁death	-2132
Locale	-2133
ety	-2134
▁writer	-2135
▁cms	-2136
▁gun	-2137
apter	-2138
▁FieldItem	-2139
ene	-2140
▁trace	-2141
olved	-2142
▁effect	-2143
max	-2144
ices	-2145
rowable	-2146
▁import	-2147
alf	-2148
ases	-2149
aster	-2150
atic	-2151
('	-2152
close	-2153
▁prom	-2154
▁begin	-2155
table	-2156
▁Christ	-2157
▁Dece	-2158
▁temp	-2159
me	-2160
▁property	-2161
▁FieldLocation	-2162
▁Gu	-2163
▁0),	-2164
▁Gener	-2165
▁root	-2166
▁include	-2167
uf	-2168
Fl	-2169
▁Br	-2170
▁leg	-2171
▁kill	-2172
iversity	-2173
▁loc	-2174
dom	-2175
ae	-2176
atures	-2177
▁government	-2178
▁node	-2179
result	-2180
▁December	-2181
▁Log	-2182
▁clo	-2183
▁stru	-2184
▁very	-2185
Day	-2186
▁species	-2187
Found	-2188
▁dam	-2189
MetaData	-2190
▁King	-2191
event	-2192
▁those	-2193
substring	-2194
ience	-2195
▁games	-2196
Enc	-2197
▁som	-2198
▁different	-2199
mt	-2200
▁range	-2201
▁without	-2202
Resources	-2203
param	-2204
akes	-2205
▁Collection	-2206
de	-2207
▁period	-2208
SP	-2209
▁Tra	-2210
Line	-2211
▁want	-2212
▁offset	-2213
ulation	-2214
TraceOn	-2215
rew	-2216
▁Char	-2217
▁men	-2218
ration	-2219
ology	-2220
Ass	-2221
Entity	-2222
▁never	-2223
ecurity	-2224
▁bus	-2225
▁feature	-2226
ony	-2227
Pool	-2228
▁every	-2229
▁site	-2230
parse	-2231
▁Har	-2232
els	-2233
▁properties	-2234
▁Her	-2235
▁family	-2236
ables	-2237
ograph	-2238
▁rep	-2239
SER	-2240
hasNext	-2241
annot	-2242
▁estab	-2243
Consumer	-2244
▁flo	-2245
alk	-2246
▁led	-2247
ivity	-2248
bs	-2249
▁1;	-2250
▁Fr	-2251
LASS	-2252
itted	-2253
▁block	-2254
▁Euro	-2255
▁story	-2256
▁buf	-2257
▁although	-2258
Space	-2259
istic	-2260
▁equ	-2261
▁dem	-2262
▁cover	-2263
▁common	-2264
▁Te	-2265
VE	-2266
ament	-2267
▁His	-2268
Values	-2269
>(	-2270
Comm	-2271
▁Long	-2272
less	-2273
olic	-2274
ham	-2275
▁Trans	-2276
▁24	-2277
="	-2278
rench	-2279
▁organ	-2280
▁join	-2281
ropical	-2282
UI	-2283
▁cur	-2284
▁Fl	-2285
InputStream	-2286
▁days	-2287
Writer	-2288
▁move	-2289
ty	-2290
▁claim	-2291
Interface	-2292
ster	-2293
▁Will	-2294
▁sent	-2295
▁returned	-2296
BLE	-2297
▁take	-2298
arm	-2299
iterator	-2300
▁sec	-2301
▁release	-2302
▁don	-2303
▁And	-2304
penCms	-2305
▁inc	-2306
epend	-2307
▁Messages	-2308
▁Or	-2309
"));	-2310
▁capt	-2311
Provider	-2312
Folder	-2313
context	-2314
Hash	-2315
lob	-2316
▁192	-2317
Non	-2318
aken	-2319
ways	-2320
35,	-2321
▁my	-2322
▁Volt	-2323
pped	-2324
▁National	-2325
reen	-2326
▁ter	-2327
▁held	-2328
atalog	-2329
container	-2330
▁mag	-2331
▁stop	-2332
▁stand	-2333
Per	-2334
ither	-2335
ilar	-2336
dbc	-2337
▁members	-2338
▁655	-2339
config	-2340
▁sold	-2341
Mode	-2342
iness	-2343
▁em	-2344
▁former	-2345
cast	-2346
stit	-2347
plit	-2348
▁hum	-2349
▁65535,	-2350
▁thread	-2351
▁sy	-2352
char	-2353
formation	-2354
▁beh	-2355
rl	-2356
▁title	-2357
Range	-2358
method	-2359
Callback	-2360
ustom	-2361
ai	-2362
▁fre	-2363
▁mult	-2364
SON	-2365
byte	-2366
NT	-2367
▁Europe	-2368
▁French	-2369
▁IllegalArgument	-2370
ered	-2371
ially	-2372
▁Mich	-2373
ntic	-2374
Case	-2375
Address	-2376
▁video	-2377
rim	-2378
▁FFDCFilter	-2379
▁fore	-2380
▁you	-2381
▁few	-2382
sib	-2383
Iterator	-2384
▁further	-2385
▁came	-2386
tension	-2387
>>	-2388
▁River	-2389
▁moved	-2390
▁water	-2391
▁ear	-2392
tries	-2393
Complet	-2394
ixed	-2395
ne	-2396
▁created	-2397
▁tw	-2398
▁written	-2399
▁here	-2400
▁town	-2401
pre	-2402
ump	-2403
Server	-2404
▁repres	-2405
▁21	-2406
ersist	-2407
▁search	-2408
▁fail	-2409
FINE	-2410
java	-2411
getClass	-2412
itive	-2413
atches	-2414
▁see	-2415
▁cour	-2416
▁side	-2417
duct	-2418
▁sum	-2419
ried	-2420
Cl	-2421
hes	-2422
olve	-2423
▁cle	-2424
▁Date	-2425
▁continued	-2426
▁considered	-2427
▁er	-2428
▁conn	-2429
▁access	-2430
▁Exception	-2431
▁2010	-2432
2.	-2433
▁1)	-2434
▁1,	-2435
▁given	-2436
Dir	-2437
Par	-2438
adata	-2439
uc	-2440
▁style	-2441
Reader	-2442
ung	-2443
▁often	-2444
▁however	-2445
SH	-2446
Char	-2447
imer	-2448
▁flag	-2449
ained	-2450
▁fire	-2451
System	-2452
Only	-2453
stract	-2454
▁German	-2455
criptor	-2456
▁values	-2457
▁decl	-2458
▁Double	-2459
Exec	-2460
▁say	-2461
▁Canad	-2462
yl	-2463
▁ke	-2464
oice	-2465
ilitary	-2466
▁half	-2467
ferred	-2468
Offset	-2469
CW	-2470
("\	-2471
ality	-2472
ittle	-2473
▁test	-2474
[0]	-2475
nap	-2476
sequ	-2477
▁player	-2478
Reference	-2479
Check	-2480
arning	-2481
▁City	-2482
▁date	-2483
ese	-2484
▁Ne	-2485
ards	-2486
▁Cal	-2487
▁prop	-2488
state	-2489
rame	-2490
▁belie	-2491
▁needed	-2492
▁required	-2493
Record	-2494
▁polit	-2495
istance	-2496
aging	-2497
info	-2498
▁Feb	-2499
Al	-2500
ids	-2501
DBID	-2502
ruary	-2503
▁assert	-2504
▁sug	-2505
▁February	-2506
▁control	-2507
50	-2508
false	-2509
Xml	-2510
reet	-2511
▁load	-2512
mod	-2513
ably	-2514
OUR	-2515
long	-2516
▁One	-2517
Uuid	-2518
▁SQL	-2519
rib	-2520
ront	-2521
2,	-2522
craft	-2523
getT	-2524
ries	-2525
▁mer	-2526
anges	-2527
incip	-2528
TO	-2529
▁gen	-2530
refix	-2531
▁internal	-2532
oved	-2533
▁among	-2534
exp	-2535
istry	-2536
▁Batt	-2537
▁text	-2538
▁storm	-2539
message	-2540
search	-2541
▁Min	-2542
ublic	-2543
▁similar	-2544
user	-2545
▁methodName	-2546
pite	-2547
igned	-2548
Url	-2549
▁With	-2550
▁change	-2551
▁star	-2552
▁la	-2553
▁2007	-2554
▁2008	-2555
covery	-2556
▁inf	-2557
fs	-2558
▁23	-2559
++;	-2560
▁conc	-2561
▁less	-2562
Host	-2563
▁infl	-2564
UM	-2565
alys	-2566
Base	-2567
rict	-2568
▁published	-2569
▁low	-2570
ayout	-2571
gress	-2572
▁comb	-2573
▁exper	-2574
▁ident	-2575
▁children	-2576
rc	-2577
▁having	-2578
ully	-2579
uthe	-2580
▁Although	-2581
TA	-2582
UUID	-2583
ternational	-2584
▁term	-2585
▁<=	-2586
ampion	-2587
stream	-2588
str	-2589
▁2009	-2590
thers	-2591
▁history	-2592
Ids	-2593
Descriptor	-2594
▁red	-2595
Search	-2596
▁bas	-2597
▁author	-2598
sec	-2599
Channel	-2600
uthentic	-2601
▁22	-2602
last	-2603
stant	-2604
ops	-2605
down	-2606
aring	-2607
ining	-2608
▁Acc	-2609
Props	-2610
▁added	-2611
▁Time	-2612
▁string	-2613
ison	-2614
with	-2615
▁available	-2616
▁wid	-2617
▁"1	-2618
▁dbc	-2619
▁strong	-2620
Double	-2621
Exp	-2622
roller	-2623
imal	-2624
ension	-2625
▁Http	-2626
Output	-2627
▁suggest	-2628
oon	-2629
buffer	-2630
▁become	-2631
▁too	-2632
▁failed	-2633
vis	-2634
ocket	-2635
sql	-2636
shot	-2637
isTraceOn	-2638
▁Type	-2639
getType	-2640
aged	-2641
Current	-2642
=\"	-2643
alysis	-2644
****	-2645
hand	-2646
▁plan	-2647
iers	-2648
ighb	-2649
▁option	-2650
▁England	-2651
col	-2652
▁Com	-2653
ones	-2654
amb	-2655
double	-2656
▁client	-2657
imest	-2658
Button	-2659
arg	-2660
rel	-2661
▁destroy	-2662
▁trad	-2663
Timeout	-2664
▁how	-2665
▁times	-2666
RES	-2667
ounds	-2668
▁cond	-2669
Direct	-2670
▁foot	-2671
NotFound	-2672
Ed	-2673
▁arch	-2674
day	-2675
▁program	-2676
▁gave	-2677
riority	-2678
▁StringBuilder	-2679
▁Des	-2680
KEY	-2681
▁Sim	-2682
▁token	-2683
▁vict	-2684
▁Reg	-2685
duced	-2686
▁body	-2687
▁road	-2688
▁produced	-2689
gy	-2690
▁Gr	-2691
▁production	-2692
Tree	-2693
▁Iterator	-2694
▁To	-2695
abor	-2696
aint	-2697
olution	-2698
empl	-2699
PO	-2700
▁(_	-2701
No	-2702
omin	-2703
▁represent	-2704
▁Cent	-2705
▁University	-2706
▁fri	-2707
itory	-2708
ators	-2709
▁started	-2710
Match	-2711
ention	-2712
napshot	-2713
▁rad	-2714
▁William	-2715
▁handle	-2716
▁completed	-2717
▁",	-2718
▁building	-2719
12	-2720
quad	-2721
▁aff	-2722
▁fact	-2723
EL	-2724
▁switch	-2725
▁elements	-2726
▁recorded	-2727
▁Count	-2728
Collection	-2729
vest	-2730
▁Rep	-2731
chn	-2732
eners	-2733
apping	-2734
▁module	-2735
PP	-2736
GER	-2737
▁Im	-2738
▁good	-2739
▁server	-2740
▁force	-2741
time	-2742
▁1);	-2743
▁Per	-2744
▁commun	-2745
▁50	-2746
000	-2747
atri	-2748
Model	-2749
▁repl	-2750
▁array	-2751
▁StringBuffer	-2752
▁know	-2753
▁prim	-2754
BA	-2755
Pre	-2756
enced	-2757
Change	-2758
ackage	-2759
▁reported	-2760
unn	-2761
▁".	-2762
▁EJB	-2763
▁component	-2764
tx	-2765
▁influ	-2766
sing	-2767
eder	-2768
ift	-2769
▁28	-2770
rest	-2771
▁parse	-2772
▁According	-2773
augh	-2774
▁cast	-2775
OutputStream	-2776
imestamp	-2777
iment	-2778
▁diff	-2779
eline	-2780
levision	-2781
▁military	-2782
iving	-2783
isc	-2784
▁26	-2785
▁op	-2786
rect	-2787
▁respon	-2788
PAR	-2789
iction	-2790
▁announ	-2791
Spec	-2792
▁East	-2793
▁intro	-2794
Document	-2795
Order	-2796
▁html	-2797
ceed	-2798
▁defe	-2799
▁cr	-2800
▁company	-2801
lier	-2802
▁Air	-2803
▁OpenCms	-2804
ume	-2805
▁Get	-2806
▁youn	-2807
▁Port	-2808
New	-2809
▁40	-2810
▁ant	-2811
versation	-2812
INT	-2813
▁These	-2814
▁career	-2815
()).	-2816
▁prof	-2817
▁light	-2818
▁opp	-2819
▁Division	-2820
VALUE	-2821
▁2011	-2822
▁special	-2823
▁Mon	-2824
Width	-2825
▁High	-2826
▁Park	-2827
▁Act	-2828
▁empty	-2829
▁names	-2830
▁While	-2831
▁accept	-2832
Eng	-2833
▁ships	-2834
target	-2835
▁eight	-2836
▁allowed	-2837
▁possible	-2838
uto	-2839
▁init	-2840
ensive	-2841
▁house	-2842
▁General	-2843
...	-2844
▁29	-2845
head	-2846
▁Math	-2847
FF	-2848
elf	-2849
▁happ	-2850
▁190	-2851
▁2012	-2852
▁English	-2853
▁recover	-2854
▁tro	-2855
IOException	-2856
SC	-2857
ords	-2858
▁club	-2859
Throwable	-2860
exception	-2861
getRequest	-2862
▁stated	-2863
▁interest	-2864
ains	-2865
▁expl	-2866
Widget	-2867
aff	-2868
Input	-2869
De	-2870
Control	-2871
▁island	-2872
jb	-2873
imum	-2874
▁hold	-2875
▁lost	-2876
aul	-2877
por	-2878
Last	-2879
wh	-2880
▁great	-2881
ges	-2882
▁went	-2883
Remote	-2884
▁Rec	-2885
Dec	-2886
▁let	-2887
▁send	-2888
▁compet	-2889
na	-2890
▁across	-2891
peration	-2892
CmsResource	-2893
▁making	-2894
aur	-2895
cial	-2896
▁print	-2897
ros	-2898
▁lo	-2899
now	-2900
angu	-2901
lobal	-2902
eturn	-2903
▁seen	-2904
▁member	-2905
▁27	-2906
group	-2907
▁output	-2908
ibility	-2909
ford	-2910
IdOr	-2911
ising	-2912
.0	-2913
Be	-2914
session	-2915
▁characters	-2916
medi	-2917
▁br	-2918
▁instead	-2919
▁aud	-2920
au	-2921
▁query	-2922
propert	-2923
ibr	-2924
Queue	-2925
▁critic	-2926
ULT	-2927
mission	-2928
Ident	-2929
cul	-2930
hest	-2931
Params	-2932
Schema	-2933
Mon	-2934
▁Cor	-2935
▁songs	-2936
untimeException	-2937
ondon	-2938
▁Geor	-2939
▁bytes	-2940
▁cer	-2941
▁arriv	-2942
Ob	-2943
ief	-2944
▁Af	-2945
▁London	-2946
▁country	-2947
▁our	-2948
Pub	-2949
▁region	-2950
▁ide	-2951
▁copy	-2952
Security	-2953
PA	-2954
nown	-2955
ormal	-2956
iet	-2957
mark	-2958
▁2006	-2959
Ali	-2960
comm	-2961
▁forces	-2962
alth	-2963
incipal	-2964
▁once	-2965
▁parameter	-2966
omb	-2967
▁either	-2968
msg	-2969
▁father	-2970
edObject	-2971
▁ste	-2972
("<	-2973
▁law	-2974
▁reached	-2975
aign	-2976
voke	-2977
parent	-2978
oyal	-2979
▁noted	-2980
def	-2981
serv	-2982
▁black	-2983
azz	-2984
▁himself	-2985
▁away	-2986
▁done	-2987
▁associ	-2988
▁Bar	-2989
▁header	-2990
▁histor	-2991
▁writing	-2992
Processor	-2993
]);	-2994
clus	-2995
ering	-2996
urric	-2997
▁separ	-2998
▁mid	-2999
posed	-3000
▁ground	-3001
▁Dav	-3002
Image	-3003
IdOrPath	-3004
bound	-3005
ALL	-3006
Port	-3007
task	-3008
▁able	-3009
▁developed	-3010
alt	-3011
map	-3012
▁El	-3013
orther	-3014
Vis	-3015
▁performance	-3016
Vari	-3017
▁bo	-3018
▁proble	-3019
Is	-3020
etwork	-3021
▁Sm	-3022
resh	-3023
uper	-3024
trans	-3025
ategory	-3026
43	-3027
▁ft	-3028
▁wind	-3029
Ignore	-3030
quadron	-3031
16	-3032
▁url	-3033
▁Method	-3034
gether	-3035
▁signific	-3036
ival	-3037
Engine	-3038
▁chart	-3039
Boolean	-3040
INTER	-3041
".	-3042
ero	-3043
urable	-3044
▁press	-3045
▁subject	-3046
▁stri	-3047
▁dim	-3048
▁store	-3049
aterial	-3050
▁Japanese	-3051
▁development	-3052
omen	-3053
(0,	-3054
issing	-3055
off	-3056
ude	-3057
▁tropical	-3058
▁Australia	-3059
▁Big	-3060
Proxy	-3061
▁visit	-3062
▁relations	-3063
go	-3064
▁died	-3065
▁Local	-3066
orthern	-3067
▁provided	-3068
▁felt	-3069
▁least	-3070
)));	-3071
▁bmd	-3072
▁Australian	-3073
MI	-3074
▁Ang	-3075
▁ten	-3076
Files	-3077
▁national	-3078
▁Val	-3079
▁cir	-3080
▁months	-3081
Settings	-3082
▁cy	-3083
Site	-3084
getKey	-3085
▁register	-3086
▁mm	-3087
▁cause	-3088
ampionship	-3089
(_	-3090
▁determ	-3091
▁rank	-3092
▁points	-3093
Max	-3094
▁Army	-3095
▁space	-3096
opic	-3097
▁sequ	-3098
▁America	-3099
▁remained	-3100
▁database	-3101
PRI	-3102
▁input	-3103
▁help	-3104
oded	-3105
▁arm	-3106
▁television	-3107
Style	-3108
20	-3109
▁indic	-3110
▁sol	-3111
▁conv	-3112
▁white	-3113
▁display	-3114
UP	-3115
Mill	-3116
ceptor	-3117
Pr	-3118
▁Am	-3119
▁son	-3120
SSION	-3121
Web	-3122
ogn	-3123
acter	-3124
token	-3125
HE	-3126
sWith	-3127
ington	-3128
Prefix	-3129
▁entire	-3130
▁compos	-3131
▁location	-3132
▁techn	-3133
ots	-3134
column	-3135
ermission	-3136
loat	-3137
▁coll	-3138
irt	-3139
orary	-3140
URI	-3141
▁Bo	-3142
▁java	-3143
Update	-3144
▁novel	-3145
▁established	-3146
getBundle	-3147
▁throughout	-3148
OURCE	-3149
ookie	-3150
otion	-3151
▁night	-3152
▁document	-3153
FO	-3154
TaskField	-3155
▁Resource	-3156
▁Afric	-3157
PI	-3158
js	-3159
Stack	-3160
▁2013	-3161
andid	-3162
▁free	-3163
▁section	-3164
arnings	-3165
▁aircraft	-3166
▁extends	-3167
SSA	-3168
▁Mo	-3169
▁Byte	-3170
StateException	-3171
most	-3172
▁round	-3173
▁County	-3174
30	-3175
idence	-3176
▁189	-3177
▁bar	-3178
Alias	-3179
eature	-3180
▁performed	-3181
ctor	-3182
▁Jack	-3183
OT	-3184
NOT	-3185
aining	-3186
anel	-3187
▁web	-3188
getInstance	-3189
sl	-3190
▁elect	-3191
▁various	-3192
aly	-3193
SU	-3194
Height	-3195
▁xml	-3196
anning	-3197
boolean	-3198
▁important	-3199
FOR	-3200
▁cost	-3201
▁little	-3202
▁ask	-3203
▁delete	-3204
mar	-3205
part	-3206
▁Out	-3207
inter	-3208
allery	-3209
▁League	-3210
▁political	-3211
');	-3212
ald	-3213
Role	-3214
▁construction	-3215
AY	-3216
Stats	-3217
verter	-3218
▁areas	-3219
hel	-3220
Expr	-3221
imately	-3222
NE	-3223
ias	-3224
▁Ass	-3225
▁popular	-3226
▁population	-3227
ivid	-3228
orage	-3229
Gener	-3230
▁aver	-3231
▁format	-3232
atted	-3233
▁HashMap	-3234
▁official	-3235
ByteBuffer	-3236
met	-3237
▁props	-3238
▁campaign	-3239
tra	-3240
▁Ste	-3241
Dialog	-3242
MO	-3243
itL	-3244
▁significant	-3245
clude	-3246
ranch	-3247
indexOf	-3248
▁CLASS	-3249
izer	-3250
PTION	-3251
▁formed	-3252
▁function	-3253
FIN	-3254
▁whe	-3255
FAULT	-3256
GUI	-3257
▁followed	-3258
11	-3259
▁dr	-3260
init	-3261
Position	-3262
First	-3263
▁Phil	-3264
▁fav	-3265
▁status	-3266
find	-3267
▁esc	-3268
▁convert	-3269
▁agre	-3270
uation	-3271
▁broad	-3272
Invalid	-3273
▁events	-3274
▁locale	-3275
ibrary	-3276
▁Add	-3277
▁sound	-3278
Min	-3279
anned	-3280
▁located	-3281
inator	-3282
▁stage	-3283
quired	-3284
▁award	-3285
▁becom	-3286
▁seven	-3287
aching	-3288
▁feet	-3289
▁tour	-3290
▁features	-3291
▁age	-3292
▁Co	-3293
element	-3294
urricane	-3295
▁grow	-3296
▁Inter	-3297
lling	-3298
▁image	-3299
▁caused	-3300
▁complete	-3301
We	-3302
").	-3303
LOC	-3304
struction	-3305
MESSA	-3306
change	-3307
:1.	-3308
Logg	-3309
▁fall	-3310
Binding	-3311
▁addition	-3312
ivil	-3313
asing	-3314
▁engine	-3315
▁thought	-3316
order	-3317
right	-3318
▁Link	-3319
▁meet	-3320
▁Rober	-3321
Entries	-3322
TEX	-3323
orse	-3324
▁"1:	-3325
▁ens	-3326
▁fem	-3327
▁org	-3328
▁Bill	-3329
pository	-3330
▁station	-3331
iol	-3332
▁Sw	-3333
▁far	-3334
DATE	-3335
eleted	-3336
▁clear	-3337
assword	-3338
▁Project	-3339
eg	-3340
ply	-3341
Pattern	-3342
▁sup	-3343
▁served	-3344
uss	-3345
urred	-3346
source	-3347
uppress	-3348
men	-3349
▁But	-3350
▁miles	-3351
StringUtil	-3352
Failed	-3353
▁ins	-3354
istics	-3355
ularly	-3356
iple	-3357
Bundle	-3358
▁remaining	-3359
▁fac	-3360
alled	-3361
▁impro	-3362
▁killed	-3363
Assignment	-3364
60	-3365
heast	-3366
▁James	-3367
ael	-3368
▁Data	-3369
▁battle	-3370
1);	-3371
kens	-3372
send	-3373
▁Med	-3374
▁others	-3375
▁live	-3376
ened	-3377
▁Pol	-3378
▁exc	-3379
ragment	-3380
uffered	-3381
▁players	-3382
getA	-3383
filter	-3384
upported	-3385
▁comment	-3386
hem	-3387
util	-3388
▁job	-3389
▁taken	-3390
▁loss	-3391
board	-3392
imated	-3393
▁mount	-3394
Subject	-3395
▁general	-3396
getResource	-3397
▁Street	-3398
▁cell	-3399
▁Other	-3400
▁above	-3401
getString	-3402
▁ce	-3403
LINE	-3404
▁always	-3405
▁prob	-3406
▁wait	-3407
▁might	-3408
▁active	-3409
Write	-3410
▁future	-3411
Loggable	-3412
Attributes	-3413
▁cut	-3414
▁mean	-3415
startsWith	-3416
west	-3417
▁offer	-3418
itar	-3419
▁announced	-3420
ades	-3421
aval	-3422
▁Mus	-3423
▁neg	-3424
iddle	-3425
oring	-3426
▁info	-3427
Disp	-3428
greg	-3429
itLab	-3430
▁reason	-3431
essaging	-3432
unc	-3433
update	-3434
Adapter	-3435
▁Island	-3436
▁lik	-3437
child	-3438
Layout	-3439
anguage	-3440
Wh	-3441
code	-3442
▁cult	-3443
▁modern	-3444
▁existing	-3445
Sequ	-3446
▁Road	-3447
ground	-3448
▁front	-3449
Duration	-3450
isLoggable	-3451
If	-3452
openc	-3453
itLabApi	-3454
▁So	-3455
▁Rich	-3456
VI	-3457
ike	-3458
icult	-3459
ought	-3460
▁relation	-3461
▁rather	-3462
[1	-3463
ORT	-3464
ags	-3465
▁Du	-3466
leet	-3467
br	-3468
▁callback	-3469
ender	-3470
▁removed	-3471
▁Don	-3472
▁supported	-3473
▁len	-3474
Handle	-3475
▁decided	-3476
Plan	-3477
Sign	-3478
vices	-3479
▁remote	-3480
Block	-3481
▁2005	-3482
▁Black	-3483
▁changed	-3484
owed	-3485
▁hours	-3486
▁params	-3487
▁replace	-3488
▁discover	-3489
▁finished	-3490
Get	-3491
Subscription	-3492
▁188	-3493
▁surv	-3494
getLocal	-3495
gment	-3496
ZE	-3497
vil	-3498
RL	-3499
▁tre	-3500
atrix	-3501
stand	-3502
object	-3503
sw	-3504
▁Rem	-3505
▁laun	-3506
▁business	-3507
▁First	-3508
straint	-3509
25	-3510
BID	-3511
iff	-3512
TIME	-3513
▁San	-3514
faces	-3515
▁CmsException	-3516
▁sort	-3517
▁emp	-3518
<>();	-3519
▁unit	-3520
processor	-3521
Parent	-3522
▁Church	-3523
▁subsequ	-3524
Permission	-3525
▁reference	-3526
aper	-3527
▁lim	-3528
▁cross	-3529
Scope	-3530
Bus	-3531
▁example	-3532
▁guns	-3533
emplate	-3534
▁Message	-3535
oted	-3536
▁together	-3537
Conn	-3538
text	-3539
▁keep	-3540
isted	-3541
▁river	-3542
istration	-3543
dr	-3544
▁{}	-3545
stall	-3546
Window	-3547
▁opened	-3548
co	-3549
cache	-3550
Statement	-3551
▁Span	-3552
px	-3553
▁human	-3554
▁Pres	-3555
▁pool	-3556
delete	-3557
thing	-3558
▁working	-3559
Fin	-3560
▁cannot	-3561
do	-3562
Unique	-3563
dis	-3564
▁Royal	-3565
Utility	-3566
▁expected	-3567
▁ly	-3568
utor	-3569
▁0);	-3570
▁fig	-3571
▁saw	-3572
TEXT	-3573
▁consumer	-3574
xn	-3575
ius	-3576
queue	-3577
position	-3578
▁SQLException	-3579
▁contains	-3580
Sp	-3581
ename	-3582
Box	-3583
The	-3584
ana	-3585
▁rock	-3586
rought	-3587
▁appeared	-3588
Ag	-3589
SESSION	-3590
▁application	-3591
')	-3592
_1,	-3593
▁60	-3594
▁unique	-3595
HT	-3596
usp	-3597
▁Day	-3598
cedure	-3599
Function	-3600
Job	-3601
erson	-3602
▁Check	-3603
destination	-3604
xml	-3605
ping	-3606
▁rev	-3607
arned	-3608
▁passed	-3609
▁difficult	-3610
▁div	-3611
CmsObject	-3612
▁listener	-3613
bert	-3614
▁Not	-3615
TED	-3616
Iter	-3617
▁Met	-3618
▁structure	-3619
▁Some	-3620
▁resources	-3621
▁born	-3622
Create	-3623
ules	-3624
▁issue	-3625
irection	-3626
▁successful	-3627
▁vill	-3628
reek	-3629
▁hit	-3630
count	-3631
inary	-3632
▁results	-3633
mit	-3634
Warnings	-3635
####	-3636
alion	-3637
addAll	-3638
▁className	-3639
CWSI	-3640
▁You	-3641
Report	-3642
opencms	-3643
▁closed	-3644
ODO	-3645
▁JSON	-3646
▁Miss	-3647
17	-3648
rick	-3649
▁reb	-3650
▁2004	-3651
▁peak	-3652
ighest	-3653
▁Transaction	-3654
Metadata	-3655
▁methods	-3656
▁pattern	-3657
azine	-3658
▁args	-3659
▁label	-3660
vir	-3661
▁units	-3662
Interval	-3663
trace	-3664
values	-3665
impl	-3666
▁race	-3667
Sequence	-3668
24	-3669
Color	-3670
▁upon	-3671
▁groups	-3672
▁publish	-3673
rain	-3674
Application	-3675
semb	-3676
Delete	-3677
▁fight	-3678
ney	-3679
andom	-3680
Fields	-3681
arator	-3682
EJB	-3683
lant	-3684
olicy	-3685
▁Indian	-3686
Suppress	-3687
▁ve	-3688
ocial	-3689
ands	-3690
lege	-3691
▁sett	-3692
PROPER	-3693
rupted	-3694
▁quick	-3695
▁recogn	-3696
db	-3697
▁commit	-3698
emy	-3699
query	-3700
ursor	-3701
▁Robert	-3702
bar	-3703
▁sit	-3704
efore	-3705
box	-3706
ayer	-3707
known	-3708
▁pair	-3709
▁behind	-3710
lled	-3711
▁Def	-3712
▁hon	-3713
rivile	-3714
▁cred	-3715
▁leading	-3716
▁respect	-3717
ires	-3718
losed	-3719
▁ball	-3720
▁heavy	-3721
Internal	-3722
▁channel	-3723
▁->	-3724
register	-3725
▁GitLabApi	-3726
▁annotation	-3727
▁eventually	-3728
▁pay	-3729
▁lack	-3730
Workplace	-3731
pth	-3732
prop	-3733
▁Part	-3734
▁means	-3735
▁playing	-3736
▁attribute	-3737
FIX	-3738
link	-3739
▁oppos	-3740
▁itself	-3741
ENT	-3742
RESOURCE	-3743
▁manager	-3744
▁Str	-3745
▁insp	-3746
version	-3747
IL	-3748
eed	-3749
▁coast	-3750
▁individ	-3751
osp	-3752
pare	-3753
▁prevent	-3754
▁replaced	-3755
▁relationship	-3756
charAt	-3757
ounter	-3758
Elements	-3759
lem	-3760
▁31	-3761
▁avoid	-3762
▁appoint	-3763
▁information	-3764
Obj	-3765
▁Christian	-3766
▁originally	-3767
AM	-3768
root	-3769
urg	-3770
▁abs	-3771
viron	-3772
▁mi	-3773
▁page	-3774
▁admin	-3775
▁works	-3776
Math	-3777
copy	-3778
getId	-3779
▁lower	-3780
cil	-3781
eft	-3782
▁Ag	-3783
▁cop	-3784
▁reli	-3785
Classes	-3786
ological	-3787
▁operation	-3788
▁route	-3789
XML	-3790
▁di	-3791
Hist	-3792
ocol	-3793
▁Roman	-3794
▁worked	-3795
NonNull	-3796
▁critics	-3797
▁dig	-3798
opt	-3799
▁La	-3800
Prop	-3801
road	-3802
wise	-3803
▁obj	-3804
▁enough	-3805
SET	-3806
40	-3807
▁Tok	-3808
▁refer	-3809
▁young	-3810
▁placed	-3811
XA	-3812
ca	-3813
▁("	-3814
ourn	-3815
▁center	-3816
Ext	-3817
getR	-3818
▁Que	-3819
ze	-3820
▁effort	-3821
▁selected	-3822
▁Follow	-3823
▁pref	-3824
Relation	-3825
▁generally	-3826
>\	-3827
▁ey	-3828
uffers	-3829
loyment	-3830
Formatted	-3831
▁Hill	-3832
Driver	-3833
▁material	-3834
SIZE	-3835
▁outside	-3836
▁construct	-3837
report	-3838
▁immedi	-3839
▁previously	-3840
▁Collections	-3841
],	-3842
▁foc	-3843
▁invest	-3844
▁scored	-3845
ples	-3846
▁additional	-3847
chie	-3848
▁Mad	-3849
▁pur	-3850
▁Ke	-3851
lers	-3852
array	-3853
DEFAULT	-3854
▁opening	-3855
SA	-3856
▁0.	-3857
(0);	-3858
▁Red	-3859
▁types	-3860
▁George	-3861
64	-3862
▁Mod	-3863
▁weeks	-3864
▁average	-3865
JE	-3866
ett	-3867
▁2003	-3868
▁hard	-3869
flow	-3870
▁mass	-3871
Millis	-3872
▁Propert	-3873
Del	-3874
ails	-3875
node	-3876
▁500	-3877
tained	-3878
CA	-3879
trim	-3880
client	-3881
▁percent	-3882
▁Following	-3883
la	-3884
omet	-3885
▁json	-3886
ico	-3887
▁Mor	-3888
arter	-3889
▁Mount	-3890
Encoding	-3891
uting	-3892
▁almost	-3893
▁serial	-3894
isEvent	-3895
SSL	-3896
ART	-3897
checked	-3898
PRE	-3899
urren	-3900
▁believed	-3901
Js	-3902
OK	-3903
MAT	-3904
asion	-3905
▁Trace	-3906
artment	-3907
▁Company	-3908
ersistent	-3909
▁designed	-3910
▁involved	-3911
den	-3912
lor	-3913
▁Mer	-3914
Label	-3915
▁Atlant	-3916
▁security	-3917
iber	-3918
▁wall	-3919
Options	-3920
▁France	-3921
▁brought	-3922
OL	-3923
aves	-3924
▁activ	-3925
SuppressWarnings	-3926
chedul	-3927
Progress	-3928
▁running	-3929
▁expression	-3930
▁self	-3931
▁scene	-3932
▁Canada	-3933
▁primary	-3934
Ab	-3935
▁positive	-3936
2)	-3937
rec	-3938
▁Qu	-3939
▁-1)	-3940
host	-3941
▁-1;	-3942
▁fourth	-3943
▁women	-3944
▁builder	-3945
▁Michael	-3946
▁contract	-3947
sure	-3948
▁parts	-3949
▁Create	-3950
isEventEnabled	-3951
Dest	-3952
prise	-3953
IG	-3954
▁wife	-3955
no	-3956
bean	-3957
▁travel	-3958
▁wanted	-3959
Attr	-3960
▁messages	-3961
▁container	-3962
uses	-3963
▁fif	-3964
Left	-3965
Fail	-3966
▁featured	-3967
▁Up	-3968
replace	-3969
enu	-3970
Registry	-3971
the	-3972
▁score	-3973
▁School	-3974
Mult	-3975
ociety	-3976
▁Kingdom	-3977
▁cluster	-3978
Parameters	-3979
▁House	-3980
▁Thread	-3981
▁joined	-3982
web	-3983
lick	-3984
ilities	-3985
Execution	-3986
JECT	-3987
▁Song	-3988
ays	-3989
aled	-3990
igan	-3991
STATE	-3992
▁2000	-3993
▁church	-3994
▁McC	-3995
igation	-3996
▁highest	-3997
▁whether	-3998
uthentication	-3999
▁Two	-4000
▁southern	-4001
vance	-4002
▁going	-4003
acity	-4004
gener	-4005
▁From	-4006
▁regard	-4007
▁earlier	-4008
15	-4009
▁--	-4010
lice	-4011
▁loop	-4012
offset	-4013
▁items	-4014
▁account	-4015
▁handler	-4016
▁");	-4017
▁yet	-4018
▁Thom	-4019
▁treat	-4020
vironment	-4021
▁Web	-4022
▁quest	-4023
ClassLoader	-4024
uel	-4025
ores	-4026
▁Wil	-4027
▁seem	-4028
▁longer	-4029
BS	-4030
itude	-4031
local	-4032
olver	-4033
▁damage	-4034
▁deliver	-4035
Directory	-4036
omain	-4037
fully	-4038
Methods	-4039
▁largest	-4040
getProperty	-4041
Dep	-4042
▁TODO	-4043
▁frequ	-4044
fall	-4045
lang	-4046
antry	-4047
▁nar	-4048
clone	-4049
olute	-4050
isting	-4051
MAX	-4052
▁187	-4053
▁Fran	-4054
▁mother	-4055
rivileged	-4056
▁"/	-4057
▁king	-4058
▁scan	-4059
▁friend	-4060
▁ordered	-4061
Dispatcher	-4062
▁partition	-4063
▁Mex	-4064
Socket	-4065
▁flight	-4066
▁Sing	-4067
▁fund	-4068
Db	-4069
wt	-4070
dule	-4071
iding	-4072
Select	-4073
▁Brown	-4074
chedule	-4075
▁configuration	-4076
oles	-4077
▁2014	-4078
▁neighb	-4079
▁particip	-4080
Controller	-4081
▁Me	-4082
▁},	-4083
Head	-4084
▁und	-4085
▁runs	-4086
▁David	-4087
▁victory	-4088
iece	-4089
▁meas	-4090
atural	-4091
▁below	-4092
▁vocal	-4093
▁height	-4094
▁Q	-4095
▁bri	-4096
ething	-4097
mitted	-4098
BC	-4099
▁Rel	-4100
atched	-4101
itable	-4102
▁relig	-4103
▁better	-4104
FINI	-4105
▁pot	-4106
▁saying	-4107
▁troops	-4108
▁Despite	-4109
Volt	-4110
▁Old	-4111
▁inj	-4112
ports	-4113
▁HashSet	-4114
▁phys	-4115
▁commer	-4116
▁forced	-4117
▁towards	-4118
Det	-4119
▁ill	-4120
Frame	-4121
▁Paul	-4122
▁fell	-4123
▁soon	-4124
server	-4125
rics	-4126
MethodName	-4127
getFormatted	-4128
force	-4129
18	-4130
▁hom	-4131
▁bird	-4132
▁candid	-4133
▁timeout	-4134
▁usually	-4135
VG	-4136
oph	-4137
sible	-4138
▁grad	-4139
▁factory	-4140
▁extension	-4141
EE	-4142
ifest	-4143
lease	-4144
lying	-4145
▁split	-4146
▁product	-4147
MIN	-4148
ffic	-4149
▁Internal	-4150
Tag	-4151
amer	-4152
first	-4153
imate	-4154
▁reve	-4155
▁step	-4156
▁decision	-4157
▁particularly	-4158
ras	-4159
aries	-4160
▁fill	-4161
▁pract	-4162
Results	-4163
default	-4164
▁changes	-4165
▁give	-4166
▁clean	-4167
IgnoreCase	-4168
Mem	-4169
▁cm	-4170
ming	-4171
utive	-4172
Idx	-4173
▁Do	-4174
▁Pe	-4175
▁den	-4176
Limit	-4177
ULL	-4178
enes	-4179
iting	-4180
▁supp	-4181
PROPERTY	-4182
ResourceField	-4183
pc	-4184
NAL	-4185
otal	-4186
▁Sub	-4187
▁emb	-4188
▁Hall	-4189
▁president	-4190
aker	-4191
exec	-4192
▁Dep	-4193
▁gra	-4194
▁Best	-4195
▁files	-4196
OW	-4197
sm	-4198
uk	-4199
site	-4200
▁Mag	-4201
▁lines	-4202
Feature	-4203
▁indust	-4204
▁according	-4205
BASE	-4206
▁Mark	-4207
▁sil	-4208
▁necess	-4209
▁central	-4210
▁operations	-4211
▁Ir	-4212
wood	-4213
▁App	-4214
▁req	-4215
stitute	-4216
▁appearance	-4217
▁typ	-4218
ifact	-4219
▁draw	-4220
content	-4221
▁window	-4222
num	-4223
Temp	-4224
▁failure	-4225
Sl	-4226
▁Mal	-4227
▁circ	-4228
▁finish	-4229
NN	-4230
▁army	-4231
▁directed	-4232
▁multiple	-4233
▁};	-4234
▁Hen	-4235
▁Pal	-4236
store	-4237
verse	-4238
riteria	-4239
connection	-4240
AF	-4241
ino	-4242
org	-4243
▁++	-4244
▁gre	-4245
▁mph	-4246
▁bill	-4247
▁prior	-4248
▁Abstract	-4249
19	-4250
▁SS	-4251
▁auth	-4252
▁goal	-4253
▁rail	-4254
vocation	-4255
▁Republic	-4256
▁viol	-4257
▁bundle	-4258
▁screen	-4259
ErrorException	-4260
ama	-4261
oose	-4262
▁come	-4263
▁crew	-4264
Policy	-4265
▁director	-4266
OUT	-4267
ulf	-4268
▁mc	-4269
notations	-4270
▁distance	-4271
▁initially	-4272
Pair	-4273
▁Game	-4274
▁office	-4275
Extension	-4276
▁International	-4277
WOR	-4278
▁aut	-4279
ucket	-4280
▁think	-4281
▁Thomas	-4282
▁classes	-4283
olf	-4284
cket	-4285
▁URL	-4286
▁Navy	-4287
igade	-4288
▁limit	-4289
▁amount	-4290
▁election	-4291
Repository	-4292
han	-4293
ica	-4294
Keys	-4295
IM	-4296
▁ids	-4297
▁model	-4298
▁taking	-4299
▁eastern	-4300
lls	-4301
▁pred	-4302
▁Error	-4303
▁praised	-4304
▁northern	-4305
orer	-4306
▁got	-4307
▁party	-4308
net	-4309
▁sql	-4310
▁2015	-4311
▁sex	-4312
▁2002	-4313
▁Spanish	-4314
Json	-4315
logp	-4316
▁saf	-4317
imple	-4318
▁occurred	-4319
rd	-4320
Uri	-4321
RACE	-4322
space	-4323
▁somet	-4324
▁ignore	-4325
expected	-4326
▁beginning	-4327
▁Dan	-4328
▁past	-4329
▁shot	-4330
uments	-4331
▁football	-4332
ACK	-4333
▁);	-4334
▁Sy	-4335
quare	-4336
▁Number	-4337
atus	-4338
▁Sch	-4339
inated	-4340
▁Invalid	-4341
▁probably	-4342
bit	-4343
Icon	-4344
▁study	-4345
Identifier	-4346
▁collection	-4347
atory	-4348
▁Cour	-4349
getInt	-4350
▁invalid	-4351
▁specific	-4352
▁interface	-4353
▁opt	-4354
conom	-4355
▁European	-4356
14	-4357
itting	-4358
Partition	-4359
Core	-4360
Parser	-4361
▁achie	-4362
▁bridge	-4363
▁forward	-4364
▁80	-4365
▁Dis	-4366
ville	-4367
response	-4368
▁conflic	-4369
reng	-4370
▁tit	-4371
80	-4372
ugs	-4373
rison	-4374
▁highway	-4375
td	-4376
▁hy	-4377
▁White	-4378
▁President	-4379
kip	-4380
READ	-4381
just	-4382
uple	-4383
▁fort	-4384
Finish	-4385
▁threat	-4386
▁My	-4387
▁Const	-4388
▁Battle	-4389
▁mission	-4390
▁associated	-4391
COL	-4392
iforn	-4393
▁room	-4394
2);	-4395
ago	-4396
▁cou	-4397
_0));	-4398
▁2001	-4399
Injection	-4400
OF	-4401
mon	-4402
pha	-4403
Week	-4404
join	-4405
rive	-4406
▁inn	-4407
using	-4408
▁something	-4409
ara	-4410
aut	-4411
hing	-4412
▁dro	-4413
▁Viet	-4414
▁nine	-4415
▁skip	-4416
compare	-4417
▁bi	-4418
START	-4419
arily	-4420
▁minutes	-4421
getDefault	-4422
OP	-4423
▁por	-4424
plied	-4425
▁Californ	-4426
QUE	-4427
USER	-4428
▁DBID	-4429
▁enter	-4430
▁approx	-4431
1)	-4432
▁Cro	-4433
▁reser	-4434
▁increased	-4435
▁statement	-4436
)))	-4437
bes	-4438
izing	-4439
logger	-4440
▁court	-4441
ertific	-4442
equalsIgnoreCase	-4443
3,	-4444
▁pi	-4445
▁larger	-4446
INTERNAL	-4447
▁rc	-4448
▁Vir	-4449
getRoot	-4450
▁fields	-4451
sum	-4452
()),	-4453
▁Most	-4454
▁told	-4455
▁TRACE	-4456
▁Bow	-4457
dim	-4458
err	-4459
▁Ber	-4460
▁Ham	-4461
▁big	-4462
▁winds	-4463
▁correct	-4464
PROP	-4465
▁Ear	-4466
▁save	-4467
iration	-4468
▁Squadron	-4469
▁estimated	-4470
AX	-4471
Bar	-4472
GET	-4473
hib	-4474
▁Em	-4475
▁That	-4476
iginal	-4477
ography	-4478
▁matches	-4479
Av	-4480
ayed	-4481
mbol	-4482
▁Bra	-4483
▁Sen	-4484
▁specified	-4485
FILE	-4486
ynam	-4487
▁rap	-4488
▁research	-4489
len	-4490
build	-4491
▁police	-4492
▁claimed	-4493
Listeners	-4494
▁God	-4495
VALID	-4496
▁deal	-4497
Active	-4498
▁metal	-4499
▁California	-4500
Us	-4501
▁Pac	-4502
pressed	-4503
▁streng	-4504
▁turned	-4505
Short	-4506
▁whom	-4507
cluded	-4508
▁really	-4509
▁progress	-4510
wid	-4511
aller	-4512
▁wood	-4513
▁Carol	-4514
Var	-4515
Menu	-4516
▁ben	-4517
▁Manag	-4518
▁counter	-4519
DAY	-4520
alle	-4521
▁Rock	-4522
getSite	-4523
internal	-4524
Converter	-4525
90	-4526
▁"";	-4527
ointer	-4528
licit	-4529
liament	-4530
▁contrib	-4531
▁evidence	-4532
BER	-4533
esc	-4534
▁Ref	-4535
iable	-4536
▁hous	-4537
Vector	-4538
▁ended	-4539
▁spent	-4540
▁signed	-4541
▁states	-4542
▁q	-4543
▁tmp	-4544
▁feel	-4545
Logger	-4546
Modified	-4547
<>(	-4548
Home	-4549
oe	-4550
▁Ant	-4551
icate	-4552
loyed	-4553
▁Grand	-4554
▁wrapper	-4555
▁international	-4556
▁love	-4557
invoke	-4558
containsKey	-4559
JS	-4560
iate	-4561
ston	-4562
▁Mac	-4563
▁duration	-4564
berg	-4565
names	-4566
▁division	-4567
JSON	-4568
▁Hot	-4569
▁civil	-4570
▁recon	-4571
Publish	-4572
▁entries	-4573
▁regular	-4574
▁calendar	-4575
Num	-4576
▁Ac	-4577
dest	-4578
phere	-4579
Mapping	-4580
▁accomp	-4581
▁nothing	-4582
MENT	-4583
atin	-4584
anded	-4585
▁territ	-4586
▁conduct	-4587
▁extended	-4588
▁Championship	-4589
Mark	-4590
CLASS	-4591
CWSIP	-4592
▁certain	-4593
▁ri	-4594
▁Times	-4595
▁objects	-4596
essagingEngine	-4597
▁Ben	-4598
▁custom	-4599
Cre	-4600
▁journ	-4601
▁proxy	-4602
▁training	-4603
▁sometimes	-4604
▁nu	-4605
Scan	-4606
▁arr	-4607
ENTER	-4608
▁1990	-4609
▁Coun	-4610
▁Just	-4611
▁Michigan	-4612
sb	-4613
PAT	-4614
lin	-4615
Dist	-4616
▁anim	-4617
Selector	-4618
▁sure	-4619
Cost	-4620
Return	-4621
ucture	-4622
▁Angel	-4623
▁grant	-4624
▁despite	-4625
da	-4626
▁popul	-4627
duction	-4628
BE	-4629
Year	-4630
▁upper	-4631
▁pat	-4632
iation	-4633
option	-4634
NotNull	-4635
Abstract	-4636
relation	-4637
oub	-4638
Panel	-4639
▁core	-4640
▁Command	-4641
▁complex	-4642
▁concern	-4643
msConstants	-4644
icle	-4645
▁Star	-4646
▁poem	-4647
▁Virgin	-4648
▁Pacific	-4649
▁description	-4650
▁cru	-4651
▁scri	-4652
▁occur	-4653
▁whose	-4654
▁Britain	-4655
Java	-4656
▁186	-4657
▁uns	-4658
uffix	-4659
▁likely	-4660
▁language	-4661
▁destroyed	-4662
▁hurricane	-4663
mi	-4664
▁ME	-4665
base	-4666
▁magazine	-4667
ertificate	-4668
ula	-4669
Auth	-4670
▁Bur	-4671
▁Vict	-4672
▁pain	-4673
Future	-4674
className	-4675
umb	-4676
▁Fast	-4677
▁Mary	-4678
PRISE	-4679
ously	-4680
▁broadcast	-4681
▁introduced	-4682
▁NY	-4683
▁box	-4684
anner	-4685
ENTERPRISE	-4686
▁transform	-4687
ta	-4688
ios	-4689
▁Ire	-4690
▁1980	-4691
handle	-4692
▁bound	-4693
▁Logging	-4694
▁commission	-4695
Tick	-4696
▁ejb	-4697
▁Work	-4698
Database	-4699
▁reset	-4700
entrySet	-4701
▁Ireland	-4702
▁recording	-4703
card	-4704
dated	-4705
▁Love	-4706
Illegal	-4707
▁ensure	-4708
▁Music	-4709
advance	-4710
buf	-4711
bytes	-4712
ushed	-4713
▁idea	-4714
▁Union	-4715
▁color	-4716
▁explo	-4717
▁econom	-4718
▁female	-4719
▁studio	-4720
light	-4721
▁Town	-4722
Matrix	-4723
▁liter	-4724
▁network	-4725
withParam	-4726
});	-4727
ding	-4728
json	-4729
▁debut	-4730
▁topic	-4731
ha	-4732
ejs	-4733
aming	-4734
▁Over	-4735
:"	-4736
edy	-4737
itz	-4738
inct	-4739
▁social	-4740
NUM	-4741
▁bit	-4742
▁disp	-4743
▁happen	-4744
▁interview	-4745
getLocalized	-4746
Body	-4747
Load	-4748
▁tor	-4749
iring	-4750
quire	-4751
▁contr	-4752
▁withd	-4753
▁provide	-4754
▁Bel	-4755
DBIDs	-4756
pring	-4757
Tran	-4758
from	-4759
orter	-4760
▁Wash	-4761
▁records	-4762
CmsException	-4763
enter	-4764
ested	-4765
▁1970	-4766
▁staff	-4767
Co	-4768
rab	-4769
sort	-4770
itemap	-4771
▁shows	-4772
Signature	-4773
▁actually	-4774
▁independ	-4775
▁tow	-4776
leton	-4777
▁scale	-4778
▁arrived	-4779
getParent	-4780
▁surround	-4781
▁implement	-4782
ida	-4783
Units	-4784
▁mode	-4785
Initial	-4786
Managed	-4787
▁reader	-4788
▁Jer	-4789
▁hop	-4790
▁tree	-4791
active	-4792
locale	-4793
▁Types	-4794
▁normal	-4795
Endpoint	-4796
▁options	-4797
▁western	-4798
▁transport	-4799
▁discovered	-4800
van	-4801
▁35	-4802
oder	-4803
LOGGER	-4804
asy	-4805
▁pen	-4806
▁India	-4807
▁distrib	-4808
▁Washington	-4809
ota	-4810
▁36	-4811
▁js	-4812
▁185	-4813
useum	-4814
itespace	-4815
EC	-4816
▁Box	-4817
▁Nor	-4818
ategy	-4819
input	-4820
ership	-4821
▁Smith	-4822
aps	-4823
iler	-4824
oute	-4825
pool	-4826
▁Frank	-4827
Constra	-4828
ociation	-4829
pecially	-4830
▁calling	-4831
▁intended	-4832
▁sequence	-4833
transaction	-4834
("/	-4835
gen	-4836
▁Som	-4837
▁tem	-4838
▁Mart	-4839
▁dead	-4840
▁educ	-4841
▁yard	-4842
▁occup	-4843
▁soldiers	-4844
▁buildings	-4845
▁profession	-4846
can	-4847
conds	-4848
▁stars	-4849
▁remains	-4850
Constraint	-4851
rea	-4852
▁Key	-4853
▁obser	-4854
▁script	-4855
▁Charles	-4856
▁limited	-4857
▁standard	-4858
▁establish	-4859
rian	-4860
▁prefix	-4861
XmlContent	-4862
▁face	-4863
ServletRequest	-4864
▁Art	-4865
▁poor	-4866
module	-4867
▁Since	-4868
Operation	-4869
vey	-4870
Stmt	-4871
▁SIMP	-4872
▁entity	-4873
▁mis	-4874
usters	-4875
▁folder	-4876
>()	-4877
dec	-4878
eal	-4879
LIST	-4880
irtual	-4881
CmsStringUtil	-4882
US	-4883
UND	-4884
▁Now	-4885
Serial	-4886
uccess	-4887
▁Award	-4888
▁daugh	-4889
▁problems	-4890
acesContext	-4891
irth	-4892
▁quarter	-4893
▁quickly	-4894
▁reviews	-4895
ky	-4896
Inf	-4897
▁Js	-4898
▁via	-4899
Complete	-4900
▁SSL	-4901
▁Wales	-4902
▁latter	-4903
********	-4904
▁appointed	-4905
▁	-4906
e	-4907
t	-4908
a	-4909
n	-4910
i	-4911
r	-4912
o	-4913
s	-4914
l	-4915
d	-4916
c	-4917
h	-4918
u	-4919
m	-4920
p	-4921
g	-4922
f	-4923
.	-4924
)	-4925
(	-4926
b	-4927
y	-4928
w	-4929
,	-4930
v	-4931
S	-4932
;	-4933
T	-4934
C	-4935
E	-4936
I	-4937
"	-4938
A	-4939
k	-4940
=	-4941
x	-4942
R	-4943
/	-4944
M	-4945
N	-4946
D	-4947
{	-4948
}	-4949
L	-4950
P	-4951
O	-4952
0	-4953
1	-4954
@	-4955
_	-4956
F	-4957
-	-4958
B	-4959
H	-4960
j	-4961
U	-4962
2	-4963
'	-4964
W	-4965
G	-4966
V	-4967
q	-4968
+	-4969
9	-4970
&	-4971
z	-4972
J	-4973
<	-4974
>	-4975
:	-4976
5	-4977
3	-4978
4	-4979
8	-4980
K	-4981
[	-4982
]	-4983
6	-4984
!	-4985
7	-4986
Y	-4987
*	-4988
X	-4989
|	-4990
Q	-4991
\	-4992
?	-4993
–	-4994
Z	-4995
#	-4996
